#version: 0.2 - Trained by `huggingface/tokenizers`
s e
i n
r e
o n
t e
o r
d e
s t
Ġ =
t h
se l
sel f
l e
m e
t i
a l
' ,
a n
e r
Ġ '
Ġ i
a r
Ġ c
Ġ self
a t
e n
Ġ f
u r
a s
Ġ "
r o
Ġ th
- -
Ġ re
ti on
g e
Ġ p
c e
) :
u e
a me
Ġ n
Ġ t
e l
in g
m p
Ġ s
# #
Ġth e
Ġ o
Ġ a
Ġ in
de f
' :
a te
e c
Ġ (
r i
Ġ #
Ġ d
l i
n t
c o
Ġ b
f i
l o
" "
0 0
a c
Ġ m
Ġi f
Ġ w
) ,
u n
se r
i s
Ġ def
e x
Ġ 0
_ _
a d
n ame
ur n
u t
( )
t urn
p e
o t
te r
c h
i t
= '
i d
-- --
" ,
u l
an d
on e
o de
s i
or t
Ġre turn
' '
r a
ge t
Ġf or
e d
v al
Ġi s
l a
Ġ u
Ġ [
( '
Ġt o
Ġ T
o d
e t
m a
y pe
e s
v er
as s
Ġ 1
## ##
N one
' )
h e
i l
st r
Ġ" ""
ec t
o l
se t
u p
i c
mp ort
el d
q u
a tion
k e
t r
Ġo f
c on
ro m
s s
u m
at a
p a
val ue
o p
b j
. _
a p
Ġ S
de r
r ue
c l
Ġ -
me nt
Ġ h
r or
ar g
a m
a b
Ġ %
Ġ {
Ġc on
) )
= =
u b
Ġ C
Ġ Ċ
a ge
l in
Ġ A
Ġ 2
] ,
Ġ and
l s
Ġ ex
te st
ul t
i le
ser t
in t
Ġn ot
v i
1 7
v e
d i
Ġ None
h t
as sert
Ġ +
0 1
al l
---- ----
x t
s p
bj ect
Ġ I
c t
( "
Ġ _
Ġ F
ke y
R e
t o
g o
si on
Ġi mport
a se
en d
ac k
Ġ e
f f
Ġ L
Ġ el
i th
t ype
u s
o m
Ġ P
Ġ r
en t
1 6
Ġ de
p ar
ĉ ĉ
Ġ st
b u
cl ass
fi le
te d
te xt
T rue
i eld
' ]
Ġ g
f rom
Ġ or
x d
Ġ :
ab le
E r
o c
Ġ= =
Ã Ĳ
[ '
le n
q ue
Ġ value
f or
* *
Er ror
i g
arg s
/ /
li st
Ġb e
p tion
an ce
E R
o w
ti me
p er
Ġ me
f o
1 2
c tion
ad d
#### ####
Ġ( '
p t
1 0
e w
i f
3 2
t a
" )
p ro
re s
ap p
: :
Ġ D
Ġn ame
I N
u le
I n
i z
pa th
o ur
al se
te m
st ance
th od
x b
m ode
co de
'' '
t y
Ġ test
i se
Ġ lo
i st
Ġ ĠĊ
t p
que st
d ata
Ġc h
ar t
Ġp ro
Ġel se
p o
qu al
1 4
l y
a ult
2 0
or d
Ġ ĠĠĊ
fi eld
lin e
Ġ 3
d b
Ġ se
j an
Ġ an
Ġ M
t ri
Ġ ĠĠĠĊ
' ),
Ġ str
p ut
Ġ G
Ġf ile
Ġ O
jan go
"" "
A T
o ut
mp le
Ġ <
y s
Ġw ith
Ġ __
5 5
== ==
m at
2 4
od ule
1 3
re ate
h o
re d
] )
ur l
r y
s c
Ġ as
1 9
= "
a g
li c
re f
o bject
d ate
1 8
our ce
1 5
Ġ y
__ (
o u
Ġ get
Ġre s
Ġ{ '
Ġ *
ti c
6 4
a der
l ate
b er
Ġ al
on se
Ġ E
" :
3 3
Ġ set
E qual
Ġ x
Ā Ā
Ġ en
u re
Ġ N
O N
Ġm ode
Ġth at
w w
Ġth is
re nt
9 9
F ield
o re
Ġ H
A L
Ġ ra
: //
2 5
Ġ v
b o
co m
Ġ B
p y
8 4
in d
Ġp ar
e st
Ġd ata
s h
Ġf rom
Ġ un
r int
0 4
Ġ 4
. .
R E
o k
lo c
Ġi t
Ġm a
an ge
d d
Ġ on
p h
i r
i mport
I T
assert Equal
. __
Ġ W
in stance
n s
er ror
2 2
fi g
Ġ at
Ġd b
k w
-------- --------
mode ls
Ġ U
ic t
ce pt
se d
m l
3 4
Ġw h
ec k
m s
C on
la b
ex t
3 0
te nt
6 7
S T
Ġ >
i p
de x
Ġra ise
L E
m o
u th
Ġt ype
A R
6 5
sp onse
ar y
8 8
Ġc o
re ad
app end
in it
ht tp
v el
` `
" ]
ro up
un ction
1 1
un d
' }
Ġp a
ĠT he
p re
Ã ł
te s
ĠT rue
O R
u ser
field s
ing s
th er
co l
Ġb y
ro ot
'' ':
or y
7 7
Ã ĳ
6 9
8 0
par am
E T
ver sion
te n
ce ss
il d
o s
p ec
p p
ce s
iz e
Ġme thod
l ass
at or
ri te
u st
Ġ )
il l
re n
j o
m in
3 7
f e
lin k
3 9
u ment
Ġ ĠĠĠĠĊ
m odule
re e
Ġ[ ],
p la
) .
3 5
tri bu
lo w
2 9
d jango
Ġ ĠĠĠĠĠĊ
ĠF alse
Ġ key
C h
ac t
, '
Ġ R
######## ########
Ġ list
Ġ ĠĠĠĠĠĠĊ
6 0
Ġ len
2 7
f a
8 9
P ro
Ġ 5
ac tion
kw args
an s
Ġ ĠĠĠĠĠĠĠĊ
ma x
er y
Ġo s
o g
[ "
V al
te mp
or k
in e
p ort
g th
le r
8 7
Ġ \
a ve
Ġt ry
he ader
T ype
l an
c reate
Ġa re
E N
en er
at ch
Â ¸
8 5
u ct
Ġo bject
I C
Ġo ut
di r
ter s
se s
i m
g er
u c
ss age
n c
Ġw e
z e
le vel
Ġres ult
re ct
S S
de d
w a
b ack
k en
Ġex cept
Ġ Re
F alse
v ent
Ġp rint
i fi
w ord
i v
6 6
ro w
00 00
Ġ **
Ġ @
Ġ line
0 5
ce ption
< /
sc ri
' ):
T est
li b
( ):
f t
b ase
ate d
um ber
at tr
le ment
N ame
0 9
h is
lo g
val id
c ur
li ent
n o
n et
tr y
' \
0 2
E x
Ġ }
ma ge
c a
ch r
Ġd i
str ing
3 6
Ġ assert
ul d
Ġel if
Ġ- >
object s
0 7
n i
Ġn s
Ġn ew
Ġf unction
Ġc an
s ub
Ġd o
def ault
S t
T ER
ar d
u g
ec tion
th on
ma p
Ġw ill
qu ery
op tion
Ġp ass
4 4
Ġf ield
me thod
in fo
oc k
re ss
Ġs o
Ã ĥ
jo in
ti ve
w rite
d a
u nt
Val ue
A N
Ġ l
Ġ time
st art
==== ====
8 2
x a
Ġc lass
8 6
Ã £
or m
Â ģ
at us
g ht
b i
si ze
Ġh as
co unt
g n
t s
I D
Ġ[ ]
ig n
x e
Ġre quest
S E
re quest
n d
Ġdef ault
ĀĀ ĀĀ
Ġs ys
5 9
( [
for m
l l
Ġu ser
ww w
Ġc ls
m and
it y
U T
ow n
g s
lab el
K e
ac he
Ġ{ }
as k
Ġu se
D e
ac h
vi ce
x c
> >
fi x
Ġpa th
la st
Ġstr ing
len gth
ta in
Ġc ol
Ġ k
Ã ĺ
en se
ul l
Ġlo g
Ġn o
ar i
R O
Ġp o
Ġc om
7 4
D E
co mp
ĠT his
i me
loc k
i te
d f
Ġp re
lo ad
Ġ+ =
M E
A C
tribu te
qu i
' s
o und
ma in
x f
Ġs h
', '
p en
un c
s on
ra y
0 6
t le
for mat
Ke y
() )
g roup
5 4
Â ¤
m it
Ġ arg
vi ew
Ġc ur
ti al
ig ht
0 3
Ġo ption
u f
tr ing
m b
Ġ all
Ġn ode
de n
t ings
w ork
ĠI f
ed it
7 9
u d
Â Ĥ
temp late
A P
n ection
re sponse
pa ce
i tem
2 01
Ġ" #
a k
ri ght
ar ch
' t
a uth
li t
ser ver
s ing
ho uld
2 6
Ġ `
d ict
Ġs up
i on
re am
o id
Ġa pp
in dex
n ode
p ub
8 3
Ġ error
'} ),
u te
id th
vi r
op y
Ġd jango
2 3
an t
a a
Ġ url
Ġs ub
In fo
u me
b y
on g
Ġre sponse
e e
Ġ[ '
u ti
a mple
( ),
S et
R es
ri al
Ġ2 01
ti tle
Ġu p
ter n
! =
con fig
Ġp y
7 5
Ġa dd
t tp
Ġ ``
4 9
Ġ text
] .
and ler
2 8
Ġa c
p i
I ON
i ch
2 00
Ġ ##
c al
p r
co re
Â Ģ
ar k
ri d
ĠL ic
t able
Ġ j
le d
Ġb as
cl u
Ġs hould
Ġ et
Ġco mp
4 5
G et
Ġo ther
E D
Ġs pec
con tent
all y
d ing
h as
Ġ !=
s o
. """
od y
Ġis instance
ar ray
re g
str uct
C P
IN G
ma il
8 1
x n
Ġin t
g ra
per ty
a y
Ġm odule
Ã İ
" ),
o st
me d
Ġi tem
up date
el l
ation s
C T
e ed
w ith
Â °
Ġ /
ame ters
scri ption
Ġ version
re turn
I G
Ġ V
o bj
ul ti
he re
it ation
b le
ĠI n
st ate
Ġc ode
' ],
2 1
M P
ut o
L ist
a v
Ġbas is
** **
m ber
6 3
Ġu sed
at um
A B
ĠLic ense
lo at
wa re
res ult
pla y
ar get
c itation
lo b
ht ml
r ame
le an
0 8
co ver
st ri
in ter
Ġt r
Re action
D atum
se n
Â ¾
u al
.. .
Ġr xn
Ġ header
F ile
ou nt
Reaction Datum
ET TER
Ġ li
Ġdb se
m on
ĠL ETTER
s g
d o
A G
Ġdb instance
Ġi d
lo se
d oc
Ã ¥
---------------- ----------------
u se
U R
D ata
E S
Ġ end
ch e
Ġp er
a x
i x
Ġd oc
on t
st ore
i es
la y
n ot
n ew
b e
ff er
Ġh ave
= -
bu g
Ġwh ich
() .
e mp
ĉĉ ĉ
S tring
me ssage
1 00
m an
Ã Ĺ
Ġcon st
G L
w e
ch eck
Ġst art
n l
Ġy ou
( (
Ġme ssage
ar n
Â µ
4 7
Ã Ļ
3 8
Ch ar
p ri
Ġch eck
Ġ> >>
C H
9 7
mode l
Ġ le
co ding
5 0
fi l
le te
name s
um an
up le
Ġd ate
t in
P ar
Ġb ase
Ġ 6
mo ve
st atus
Ġ z
u a
ra p
si gn
sp lit
o o
am i
A dd
Ġan y
un i
te ger
pla ce
Ġin stance
I d
ss ue
er s
c lient
to ken
Ġ args
or g
go v
I S
T E
Ġn umber
C O
9 5
ti es
3 1
lan k
me n
ĠC on
cover age
po s
T o
Ġ 7
Ġc al
lic ation
m d
ic k
lin es
Â ĥ
I L
T ime
um n
Ġc reate
T T
Ġb ut
st a
ni h
p rint
ref name
Ġmode l
lab le
U L
ti ssue
pub med
nc bi
nl m
o me
ref link
edit level
p ack
con text
it s
ĠH uman
A A
E n
ta g
si tion
all back
{ '
C o
late d
'] )
Ġ |
am as
Ġout put
p l
se rial
t ro
j ect
u mp
w ami
R amas
Ramas wami
ÃĹ Â
iv en
clu de
" >
r un
par se
Ġcon text
} ,
i al
or s
ifi ed
Ġin dex
g u
c re
s y
Ġ' %
Ġm atch
y le
A S
Y P
id get
5 7
Ġma x
Â ½
Ġt ag
Ġ query
ind ow
d is
Ġd is
Ġr un
es s
4 0
Ġcur rent
ment s
Ġto ken
m is
b in
M L
Ġb u
a il
re c
Ġ Q
6 8
~ ~
Ġ one
Ġmode ls
de nt
ir st
c ri
[ :
\ \
A t
ari able
Ġ ,
Ġcon fig
pec ted
t ing
################ ################
ra w
Ġa d
c s
po int
ument s
vir on
H E
M ode
turn s
Â¸ Â
Ġre g
Ġ &
Ġh ttp
Ġfor mat
Ġr ange
Ġvalue s
') )
6 2
if y
Ġb o
ĠP y
t ra
ren ce
9 4
T ext
Ġcon tent
fo o
s ys
S e
o te
and le
i e
tribu tes
d s
uti ls
ĀĀĀĀ ĀĀĀĀ
ĠA N
r c
Ġo bj
EN T
me mber
v ar
P O
in put
Ġwh en
p op
w idth
7 2
Ġch ar
Ġn p
SS I
ten sion
Ġon ly
n e
'' ',
Ġg iven
file name
el p
U n
P o
ch ar
4 2
l d
Ġfor m
is ter
00 0
n er
Ġpar am
Ġ X
Ġd ist
] [
AL L
Char Field
q l
qui red
a i
i mage
fil ter
6 1
mat ch
t on
Ã ¦
Value Error
c i
fa ce
Ġd ict
ap i
type s
Ġst ate
g ing
lo t
Ġ ĠĠĠĠĠĠĠĠĊ
ti fi
AT IN
Ġex p
O T
Ġ --
b lank
sel ect
ate g
x ml
tr ans
4 8
( _
tion s
c lose
Ġcon tain
f unc
A D
c ache
n um
'} ,
th e
a st
p s
or der
. "
qu en
v ed
Ġm ust
s ource
tro l
Ġ' ''
Ġs ource
U N
5 6
m y
ise s
se nt
or ted
ĠL ATIN
ti ty
Ġname s
7 0
32 9
Ġ ro
Â ¹
Ġ ĠĠĠĠĠĠĠĠĠĊ
i tial
S er
a le
Ġ( "
7 3
Ġ 9
a in
tri b
ol s
op en
ms g
n el
la mb
Ġ1 0
a re
ag er
b ar
I P
r an
id s
ĠE x
ock et
bo x
ĠT est
he ight
ra ph
O bject
Ġ ĠĠĠĠĠĠĠĠĠĠĊ
======== ========
Ġ Y
IT H
Ġf irst
i ter
o f
Ġ ver
ho st
} )
B ase
lamb da
ut f
res ource
m ary
Ġ ur
L O
C ase
Ġc opy
Ġt able
Ġdi rect
h f
Ġa uth
in al
Ġset tings
Ġm sg
ÃĲ Âµ
Â ¼
Ġ ĠĠĠĠĠĠĠĠĠĠĠĊ
out put
option s
ft ware
iz ed
Ġ J
co py
con n
Ġe vent
s k
re ak
Ġo pen
N ode
ĠD e
A r
Ġma y
O D
df hf
Ġ2 00
sp ec
Ġun i
Ġ .
ol d
Â ±
Ġun der
re lated
Ġ kwargs
A ME
Ġ server
pro cess
v is
m od
pa ge
Ġs ize
' .
Ġe lement
l ing
Ġoption s
et a
ĠW ITH
ser vice
Ġdo es
Ġin ter
e p
7 8
Âģ Â
7 6
og le
C A
Ġsup er
p onse
T ree
er r
Ġb ack
o us
ri bu
Ġre ad
Ġ 8
g rid
tic net
sen ticnet
g le
C ol
ch ild
f ind
Ġtr ans
Ex ception
T he
a pe
cur rent
o i
Ġm od
Ġ valid
gu age
Mode l
5 3
c ation
5 2
l ug
ĠI N
Ġm in
s or
x y
4 6
)) )
l as
me r
p v
Ġ template
p ass
at ure
un k
17 24
Ġ' \
Ġp ack
b s
R a
ate s
r ange
to col
e vent
TT P
) ),
Ġwh ile
Ġat tr
fi r
Â Ħ
T H
and om
net work
lob al
Ã ı
an y
s up
F F
Â º
mis sion
i a
// //
Ġcom mand
con st
Â ²
Ġg ener
pa rent
l at
4 3
Â §
ur ation
item s
ĉĉ ĉĉ
Â »
N U
Ġres ource
s te
st d
9 6
Ġre c
Ġin put
T R
9 0
value s
key s
Ġfile s
Ġ row
Â ¿
fo re
u k
5 8
Ġg roup
Ġc ust
di rect
ma tion
ub lic
ex p
F or
a ke
Ġ ValueError
ist s
n ext
param s
s a
H T
4 1
C om
Res ponse
Â ³
st ream
Ġfile name
i mple
o ther
E lement
U S
Ġc ell
f ter
a th
ĠP ro
De f
e g
ĠG ener
la tion
ta il
AT E
AN T
U ser
Ġ q
struct or
de bug
it test
X X
Ġpa rent
Ġcon tin
cri pt
gra m
Ġ201 3
m t
: `
Ġ label
Ġm ore
Ġo ver
Ġu sing
N AME
Ġw ork
u i
ĠRe turns
N ot
C E
vi de
de v
pre fix
F I
Ġcon nection
ĠS M
Ġa ction
ĠC h
ĠU R
fi t
[ -
set tings
ĠPy thon
9 8
* -
li ty
Test Case
U p
pe d
ĠA n
Ġt uple
scri pt
b ody
2 329
Ġma ke
ad ata
la gs
ad min
le ction
le ase
ex ec
N o
Ġ ',
n ull
9 2
2329 1724
ol y
com mand
im al
or age
Ã §
comp ile
an nel
ch ange
Ġso me
Ġin to
Ġup date
Ġp os
re place
Ġc all
us h
Â ´
p k
act ory
de lete
en try
) ]
Ġo per
v en
Ġ ]
I O
B u
m ark
ses sion
7 1
Â Ī
Ġ- *-
res sion
ĠO R
f unction
Re quest
Ġ root
Ġi mage
b r
E X
Ġn ext
Ġ K
Ġw as
201 1
", "
w h
fa il
il ter
T ag
vi ces
d ot
Ġs u
Â Į
po st
ok up
Ġde l
ĠS t
j son
loc al
si te
Ġf ol
py thon
y mp
9 3
Add ress
ess age
ver t
file s
I M
e ar
u int
stri p
s with
ĠSM ALL
at ing
Â ©
Ġp age
orm al
Ġdate time
Ġ} ,
c all
Ġ last
9 1
Ġch ange
o ff
Ġ" %
Â ¡
n ow
cl s
lan guage
f ul
la g
I tem
( *
c an
**** ****
serial ize
': {'
g ener
Ġm ap
e lement
Ġt w
Ġ ),
Ġor der
Ġ2 55
n ing
li sh
date time
D ate
Ġ val
Ġ' /
quen ce
OR M
en code
ĠS ee
Ġcontin ue
a z
n umber
c k
ic tion
Ġa v
Ġy ield
u res
s ave
Ġn eed
Ġ ar
ot al
a ut
Ã Ħ
Â ¥
In teger
Ġp art
b lock
tern al
ĠA r
st yle
Ġdist ribu
Ġc ase
t ual
Ġb reak
pro perty
c y
f rame
at tern
ut ton
Ġfield s
le ss
S C
col or
uni code
ith er
ti v
Ġi mp
Ġpar ser
Ġex ception
t arget
Ġt arget
Ġch ild
xb e
D I
r ate
5 1
di tion
par ameters
th ing
con nection
le ct
en v
Ġth en
H e
per ties
Ġc lient
c or
ame ter
es ca
me ta
L o
17 6
Ra ises
di a
Q u
" .
for mation
b last
ateg ory
YP E
ra in
Ġal low
F T
2 24
bu ild
) *
Ġ' .
O P
Ġ level
se arch
G roup
on ent
Ġh elp
i o
Ġex pected
s u
opy right
go ogle
m id
mp ty
= [
header s
n g
IT AL
ĠC AP
Ġs y
M e
B y
A c
Ġ' '
b b
ec ted
Ġpar se
fe rence
Ġ ...
Ġ qu
At tribute
C C
ymp ho
iz ation
L ympho
blast oid
Lympho blastoid
A M
V ER
ra tion
Pro file
con trib
us y
ĠUR L
ĠCAP ITAL
Ã ¨
Ġi ter
Ġy our
Ġe ach
t adata
i de
Ġf ound
Ã ¡
ai lable
emp ty
ri es
Ġc or
Ġp ri
assert Raises
B o
Ġs ign
f loat
) ):
ore ign
Â ħ
u tion
i ve
F rom
Q L
ff e
c c
Ġobject s
bo se
P y
pre sent
aa aa
] :
in k
Ch eck
Ġheader s
Ġse e
que ue
c le
F A
') .
Â ª
C L
g en
Con fig
Ġs p
P RO
ĠT ype
d fit
ĠG L
Ġs ame
d uct
con f
Ã ħ
Ġdef in
Ġat tribute
he p
Â ¨
M A
t k
, -
fir st
Ġin st
> <
Ġpo int
Ġc ount
iction ary
add ress
ifi c
CA F
ile d
d own
2 55
s che
Ġ201 2
ur i
p le
S usy
ĠO F
( -
Susy CAF
C lass
S P
Ġa g
Ġpar ameters
Ġ ter
e mail
Ġ ):
Ġb lock
Q U
ex ception
H andler
Ġ here
A uth
low er
Ġparam s
( ?
ver se
Â Ĩ
at s
F orm
Ġ Key
Ġpro cess
ok ie
N E
aut om
op er
Ġget attr
conn ect
co mple
S ize
Ġen try
O L
t op
ĠP ublic
ten d
M essage
Ġf loat
" ))
D es
en tic
ad z
84 7
Ġhas attr
IC F
E vent
Ġm an
par ser
Ġ title
Ġo pt
n own
s pace
h andler
Ġarg ument
s um
assert True
Ġen coding
autom ated
ĠGener al
on ly
g l
ord s
= (
i as
Ġspec ified
S h
Ġwith out
de scription
Ġlog ging
ĠC opyright
Ġ array
ma ke
re q
I pv
Ġ view
Ġdirect ory
Ġe ither
: '
A d
Ġpy thon
ig h
ĠF or
g in
D ict
de l
ol der
ab s
UL T
oo lean
ul ar
In dex
Ġp ort
% (
Ġre quired
e b
o b
ĠG NU
S G
esca pe
ub le
Ġf ind
Ġ link
en viron
Â ĩ
pass word
oreign Key
AR T
Ġof f
R A
Ġthe re
Ġse s
x x
con d
us r
e qual
se nd
in st
pro ject
ra ce
C ON
Ġst ream
Â Ń
read y
Ġm ulti
Ġarg uments
p atch
Â ¯
Ġses sion
Con tent
Ġpre fix
da y
O UT
Ġw rite
Ġs age
Ġst atus
Ġ ge
(' /
ri x
auth or
A pp
a use
arn ing
Â ·
Ġ lib
re move
Ġre n
ip el
m ms
17 7
Ġfol low
ro und
ĠS o
tail s
P ath
ome try
is h
ĀĀĀĀĀĀĀĀ ĀĀĀĀĀĀĀĀ
Ġdoc ument
U B
et ch
Ġx ml
c md
ect or
reg ister
pack age
Ġo p
P L
UR L
ĠS tring
Ġm ark
sta tic
v oid
ipel ine
S I
u id
Ġo ld
Ġi mple
Ġh ost
vir tual
x ff
sh ow
F ORM
~~ ~~
Ġlen gth
IT Y
act or
lay er
ac tive
ti l
he ad
Ġp as
ĠS et
Ġ> =
Ġuni code
B C
Ġc ache
d le
Ġex ample
m i
r ans
Ġw here
Ġn on
ĠP ar
Ġreturn s
Val id
men ted
U P
ge x
Â į
Ġlo ad
en coding
el per
Ġ< /
as h
fe ed
re pr
ing le
ump y
w ard
. ,
g ine
Co mp
I s
D ec
Ġde st
') ),
lug in
Ġex ec
uc cess
d u
c f
off set
Ġf unc
li ed
Ġf in
ĠG et
nt ry
: %
Ġpack age
Ġcon n
V er
lin en
col umn
s w
Ġb ody
V E
Ġ< =
a tive
et work
assertEqual s
bu ffer
a f
L og
Integer Field
Ġ3 7
Ġ right
app lication
I ME
Ġ go
T his
rap per
AB LE
Ġ[ "
Ġit s
Ġh andle
: ]
able d
xb d
ĠY ou
par t
i b
de vices
ĠC ON
ĠAN D
Ã ¤
Ġlo cal
F oreignKey
ĠA t
ator s
Ġin itial
Ġ lines
re en
K E
Ġsup port
loc ation
a ti
den tifi
emp late
_ (
V AL
Ġst yle
Ġin clude
Ġn um
i k
Res ult
- \
A l
qui re
ok en
t d
Ġex tension
N O
i ew
Ġa fter
Ġv ariable
di v
ed ge
bo ok
un CP
a uto
Ġh andler
M an
Ġth read
co pe
at tributes
ĠAN Y
Ġresult s
Ġth an
S ub
Ġre t
c b
con structor
Ġdata base
m as
Ġor ig
Ġm o
Ġin fo
l ong
iz er
le ft
t ree
ĠO ption
x root
xroot d
word s
D o
ol ling
Ġ lambda
tic le
D i
start swith
der r
n p
si de
m ulti
G G
er o
U M
t xt
Ġa b
ex ample
Ġcal led
A n
Ġchar ac
g r
S A
Â ¶
D B
C K
p lot
si ble
Ġa x
" ):
St ate
) .__
ĠC o
ĠW AR
Ġ[ -
Ġ ],
Ġ' <
Ġal so
Â ĭ
224 84
Ã ¬
In ter
o pe
en ter
22484 847
pri mary
Ġw x
an g
Ġpro gram
] ]
Ġf rame
Ġbu ild
Ã ©
D is
dev ids
el se
sta mp
R un
__ __
linen o
T h
f y
q z
Re turn
ĠN ot
um ns
C ount
Â ī
T O
IG HT
Ġ% }
user name
uti l
P re
c ap
error s
L ine
and ard
Ġex tra
16 6
to ols
Ġre f
ĠI S
I mage
Ġ Z
Ġin formation
t ask
ca le
Ġat tributes
O ut
R ec
ĠEx ception
lic y
C reate
Ġd ir
Ġbe fore
Ġa uto
L I
h a
ex cept
l t
Ġdistribu ted
Ġd ictionary
ra g
Ġf ilter
R ANT
ĠR es
c r
b l
O r
IN TER
P er
Ġ" \
mo te
Ġ% (
po sition
pro t
res h
Ġpro perty
iv ed
Ġb ec
Ġli mit
Ġ ĠĠĠĠĠĠĠĠĠĠĠĠĊ
Ġli ke
gn ore
Par ser
Ġ ass
Ġcust Profile
i mp
Ġa ct
Ġf ail
(' \
" ],
as on
do main
> \
AT ION
v ate
jo b
/ %
C ode
Ġw ri
Ġbo ol
Â ı
le t
Ġg lobal
Ġ err
ĠWAR RANT
to m
Ġ1 2
an ts
T YPE
de code
r ary
P ack
Ġbe en
Ġde scription
Ġso ftware
Ġe mpty
Ġa p
Ġex ist
B U
b a
Ġal ready
Ġre present
Ġpro vi
Ġw ant
A uto
Ġ' __
res ol
Col or
16 7
s ql
Ġ te
') ])
Ġtest s
k ip
Ġcol umn
Ġde tails
Ġd on
Y R
A RE
o ver
ĠP O
Ġ sel
mer z
Ġav ailable
Ġl ong
nt ax
child ren
= %
Ġ ĠĠĠĠĠĠĠĠĠĠĠĠĠĊ
e f
st ack
ST R
M eta
Ġreturn ed
ĠW e
sup port
Ġen viron
Qu ery
Ġpas sed
ĠT HE
exec ute
Ġn e
Ġsh ow
test s
P tr
p orted
Ġcol or
st op
has h
H TTP
Ġtw o
> </
vis ion
ĠI t
OR T
in ce
IN E
{ %
S tr
ĠSo ftware
Ġitem s
Ġ' ',
se ction
V iew
O S
Ġpo st
Ġ' -
Ġpass word
f d
Ġs ocket
Ġen v
Ġma in
sh ape
h andle
IG N
tr act
ER R
Ġreg ister
Ġ ĠĠĠĠĠĠĠĠĠĠĠĠĠĠĊ
ĠH TTP
c d
ĠN ame
a u
s rc
Ġattr s
oi ces
message s
I nt
co der
E ntry
h en
ĠA dd
f in
Ġ utf
sub scription
Ġ" '
ĠC om
E nd
od ing
for ms
N umber
di st
at tribute
Ġto p
ĠD E
] +
m g
ol ume
dle ware
M ap
( \
D AT
le m
u ff
Ġw idth
er red
__ ,
. ')
P I
] ))
in sert
-------------------------------- --------------------------------
me tadata
Ġc md
Ġv ar
ĠI mport
c lean
ad i
t z
Ġstr ings
Ġj son
Ġ ĠĠĠĠĠĠĠĠĠĠĠĠĠĠĠĊ
ri c
Ġ $
ĠU ser
ĠType Error
Ġse nd
O M
L oc
Ġ temp
con trol
t uple
Ġerror s
vi ous
ri de
Ġpo sition
Ġre ce
com ment
Ġtype s
S H
ĠU n
Â Ĭ
Ġv is
Ġt ask
" \
'] .
ÃĲÂµ ÃĲ
Ġf ull
ex c
un ittest
Pro perty
T oken
Ġde bug
Ġn ow
c allback
ren der
w idget
Â ĸ
b it
by tes
v p
B rain
al og
} ,'
Com mand
Ġj ust
ex ists
Ġren der
r s
- %
Â ®
0000 0000
Ġco mple
S y
set up
ic al
ub lish
ta gs
Bo x
sys tem
//// ////
Ġse arch
Ġre q
std out
O ption
f c
) [
bi lity
ust om
ex pected
we b
r t
bo ol
me dia
f l
tain er
), (
ma th
al s
Ġby tes
cl as
Ġlog ger
Con text
f ont
a e
Ġe mail
Ġmethod s
gra ph
con ds
a iled
n on
Ġi gnore
row ser
FA ULT
ver y
Ġ la
Ġs ingle
N S
im um
Ġsys tem
Â ł
de st
ter min
e k
Ġ{ "
Ġr andom
ref e
C lient
Ġdi ffe
P age
ĉ Ċ
For mat
Ġadd ress
Ġb et
in s
arg v
Â ľ
man ager
L e
rec ord
ge st
Ġun ittest
ab el
end s
Ġkey s
I mple
re sp
ug h
G R
w ise
Â Ł
Bu ffer
12 8
Ġ' _
Ġ late
Con nection
at om
attr s
s ume
re st
IL ITY
He ader
Ġc las
ach ed
) ;
Ġ1 00
Ġrec ord
FORM AT
Ġcreate d
] ),
T able
p c
Â ŀ
1 01
y ear
ĠI D
Ġp la
s ort
Ġc oding
W idget
Ġbec ause
Ġ ..
ex tension
ch ed
Â ķ
f lags
Ġoff set
. ")
'} )
Ġs che
Ġpar ameter
in clude
he et
99 99
re l
Ġ language
S ER
) /
t mp
Ġ service
O W
Ġm at
Ġfollow ing
Ch ild
or ies
Q t
re al
/ >
M B
te red
Ġthe y
ĠN o
# !
Ġn umpy
th read
Ġstr uct
f ull
Ġw idget
a ded
Ġapp lication
" }
d c
de c
de red
) ',
ĠCh eck
4 00
"" ",
G ET
lic ense
c ase
Po int
arn ings
ic s
-- -
c ul
ap t
Ġst d
ĠH ttp
p g
w in
s q
oi ce
ex it
Ġt mp
AG E
r ule
X T
Ġra w
A ction
Ġc allback
Def ault
oc i
xb b
': '
Ġpro ject
Ġ 32
c p
s m
Ġ RE
B oolean
c er
re p
Ġr ule
Ġset up
s v
L en
ste ad
G E
entic ation
Ġre ference
sa fe
L IC
O K
al led
b ot
Â ļ
f low
te x
Ġprovi ded
Date Time
0000 0
le s
in itial
w indow
Ġst a
uni que
Ġa pi
Ġ1 6
AC K
ĠD ata
' ^
method s
Re f
O n
pl ug
G e
Ġm y
Ġin teger
m ask
. *
qu ote
E ST
s age
sy nc
Ġen code
ro ugh
) '
Ġo b
AA AA
Ġ_ ('
z y
Ser ver
E d
wa y
E L
arg uments
O per
. \
Ġs imple
de sc
op t
ĠAn y
ĠF OR
Ġ" "
ĠRe turn
Â ¬
Ġv oid
we en
Ġt ree
AC E
v es
IN T
Ġ select
C allback
time out
ut able
I ter
> '
Ġthe m
Re g
li mit
P B
ge d
Re turns
tr ue
i tion
in dent
dis play
Ġs cript
ex tend
log in
bu f
st derr
KE Y
si tive
Ġhas h
Ser vice
Man ager
pre c
Ġin stead
Ġdis play
ĠDe f
Ġ2 0
Ġdoes n
t w
ni code
sk ip
te p
op ts
in valid
W indow
Ġre sp
ro p
u red
Ġf e
Ġac cess
Ġspec ific
Ġ1 4
og raph
h i
pro file
ac count
g ame
ERR OR
ext ra
) "
dentifi er
Ġf ont
ĠImport Error
se q
ser ved
re ction
Ġcust om
cur sor
w er
Ġt rue
az ure
F O
e ff
ĠQ t
group s
Ġnames pace
it or
] *
result s
` .
EX T
lan g
at ter
Ġt ri
z one
y n
I LE
app ing
or ig
Ġre move
b utton
Ġimple ment
z ip
re quired
ph a
Ġlo cation
w n
t ml
i str
tifi c
ĠB ase
d ump
ĠC reate
Ġoption al
ra int
m m
f s
Auto Field
AB ILITY
Ġcontain ing
li ce
http s
k s
g t
__ )
f n
Ġe ven
st orage
ot o
================ ================
Ġbu ffer
D oc
ol ute
L ay
Ġcom ment
Imple mented
ch annel
W ith
h er
I ES
w d
un ter
g round
Ġauth or
Ġa bs
r ing
T rans
' ",
Ġ ~
at z
St ream
Ġex c
Ġc l
( {
w x
M any
A Y
xb f
FI LE
a mp
mo st
S p
P RE
def in
wa ys
al ias
t act
Ġ1 5
M O
Ġs ave
s ocket
dition al
Ġle ft
la tive
log ger
di stri
Ġs ure
end ing
Ġs ql
ys tem
G ui
en gine
#! /
j a
id x
ut ure
bo und
Â ¦
module s
I X
ĠV er
ĠC ol
mb ol
C ur
ab c
Test s
le ted
el lo
ĠA ll
s ample
set s
a red
p th
si ve
at t
op s
Ġat om
Â Ĳ
Ġdo main
Ġver bose
xb a
ick le
Ġs m
OR D
names pace
w rap
= {
Ġde lete
S D
3 00
lic k
G ener
88 59
IN D
qui res
p ng
Ġad ded
del ta
In put
>> >
Ġfunction s
Ġcur sor
. '
. ',
sign ed
u de
b c
Ġper mission
M ENT
h elp
uf fix
ĠF ree
################################ ################################
Ġf eed
Â Ķ
Ġm is
Pack et
Ġb in
il der
S ET
f r
Ġnode s
pre ss
Ġ vi
Ġtime out
ĠAt tribute
lic it
ir s
ING S
Ġlo okup
ÃĲÂµ Ãĳ
Â Ļ
he ther
, "
Ġp ublish
w ri
Ġde v
g reg
ti fy
St art
ver s
ĠOption al
Ġtag s
S u
m ory
Ġfin ally
T ION
sp ort
ĠWITH OUT
Ġse quence
vide o
$ ',
comple x
F ound
S ON
Ġdefin ed
pro perties
le ar
Ġurl lib
S QL
Ġ ','
() [
P AT
Ġm on
L ink
ist ory
re t
Ã «
O f
li p
N s
m ac
/ {
. %
Ġsta tic
c ategory
12 3
v as
le g
re lease
o se
d t
34 5
qz vp
17 2
node s
ub e
Ġch unk
cle ar
ĠG e
c ted
sp an
) \
Ġp k
i ble
c lo
} }
um my
clas ses
ĠF ound
b ind
PO ST
d ar
il y
Ġmod ify
row s
Ġopt s
v ariable
inst all
Ġu ti
ic ro
distri bu
lo ader
r andom
il tin
in a
add r
St atus
******** ********
ĠD ec
c ard
S ource
Ġh ref
Ġse rial
wa it
V ar
Â Ĺ
tic al
ce d
ÃĲ Âº
Ġ" /
Ġc re
aaaa aaaa
EN D
k nown
sh ip
ĠA PI
li ke
Ġcon trol
u ation
d ic
t otal
P UT
s pa
Ġthe se
F eed
Con trol
OD O
Ġs ite
---------------------------------------------------------------- --------
M ulti
sc reen
lic en
Ġlo c
re r
Pro tocol
Ã ¢
(" %
ren ces
c cur
Ġs a
Ġf ree
Ġmessage s
B utton
(' %
Out put
Ġbet ween
Ġd own
12 7
ac cess
I B
Ġf lag
f actory
Ġur i
Ġs um
is ion
ĠF ile
AN D
point s
vi der
ĠN ote
Ġs kip
Res ource
0000 00
F actory
ĠH T
ord in
## #
if t
UT H
Ġimp lied
ĠAr gs
Valid ation
t ab
Ġuse ful
M o
al low
Ġg data
CO L
' "
Â ĺ
g lobal
Ġac cept
A s
g h
u x
f etch
n a
Ġt otal
Z E
Ġde c
' re
fi ll
p attern
n ormal
Ġz ip
Ġp attern
h y
Ġre l
Ġter ms
t x
F L
ĠKey Error
Ġse ction
Ġn ormal
F C
Ġw ord
do uble
v o
ĠI nc
pro xy
ĠS e
4 04
1 10
EN SE
ent ries
sc ale
es sion
Me thod
17 3
at ures
17 77
s heet
Ġlate r
it ch
las h
ĠA R
al t
Ġx range
Â £
e a
de vice
th is
var s
Ġc lose
Boolean Field
g ress
! !
ile r
k er
Ġw indow
Ġclas ses
Se lect
ver bose
ĠNot Implemented
" ])
'] :
Ġc lean
Ġm ock
Ġcal lable
f b
ĠHT ML
id den
O F
is ted
H O
ĠP er
gle xt
Â Ľ
D own
Ġse cond
ĠA pp
ste p
I R
ke ep
B O
as ic
ĠFound ation
Ġs rc
ĠS er
an not
IT E
A ll
{ {
mon th
Ġdiffe rent
Ġcon ver
De vice
H ER
ĠE X
Ġ: :
Ġb ound
S O
per i
Ġre al
Ġuser name
ti tem
lo okup
1 15
et s
ĠN OT
Ġh and
istr y
doc ument
view s
Ġuni que
Ġre place
en e
s l
xb c
c ent
I f
o ok
as y
ĠDef ault
le x
ci i
pp ing
I F
Ġ( (
sh ort
an k
u sed
Ġexp ression
Ġf lags
an gle
Ġst ack
no te
ched ule
so ft
5 00
Ġlo ok
( %
ĠE n
ex pr
ct ype
cre t
A g
Ġ ÃĲ
Ġ_ ("
a it
R o
com mit
T C
Ġinter face
Ġ1 1
ĠCon fig
Ġcontain s
], [
p tr
bo ard
ĠAttribute Error
Ġp op
u ally
Â «
DE FAULT
ma tic
Ġs pace
tr an
Ad min
ed i
li te
Ġst op
lay out
s ue
F unction
1 17
ĀĀĀĀĀĀĀĀĀĀĀĀĀĀĀĀ ĀĀĀĀĀĀĀĀĀĀĀĀĀĀĀĀ
ĉĉ Ċ
Ġfor ms
s ure
Ġcor rect
Ġsh ort
Ġ[ (
c at
25 6
Ġex ists
f p
Ġ" :
c m
ri ver
m me
Ġ[ ])
MA X
( ['
n one
YP D
Ġre port
d raw
CH AR
w all
Ġe val
_ )
str act
exception s
Type Id
RO M
or ld
In valid
M odule
dir name
MP L
us ter
sume r
atter ns
DI R
Ġpro vide
1 19
ĠD jango
N N
ach ine
T emplate
') ],
n ap
Ġc er
s ted
Ġt race
DateTime Field
st ats
F N
com mon
ĠHttp Response
BU G
Ġh tml
16 5
14 2
\ "
lo op
Ġab out
pos it
L abel
CT ION
tra ce
g d
Ġmulti ple
action s
1 12
li ght
licen ses
RA W
age ment
Ġwh at
Ġen ume
"} ),
Ġde serial
Ġch annel
am s
si mple
Ġre lated
P HE
z er
p oly
Ġconfig uration
F rame
Ġ height
Ġcol lection
LE U
( __
'] ['
bo ve
Ġrece ived
Ġ join
content s
ik i
Ġwe b
tem s
change d
ti ce
Ã Ľ
an el
ir c
im g
Ġ' #
di g
Â Ĵ
UL L
e val
i tes
Ġp olling
ow er
S ec
ĠL ist
Ġ> >
Ġf il
X ML
Ġin valid
key word
ee ded
A SE
Ġ} }
e m
Ġcontent s
I E
") .
TE XT
c ry
Ġf p
ĠG o
M ET
O ne
Re ad
Ġkey word
ĠD O
Py thon
Ġt ra
Ġfor ce
1 18
ĠRes ource
] ['
v a
o uld
u ter
_ ,
ap ter
Ġp lugin
Ġw hether
S ION
Ġf oo
Check er
Ġorig inal
y load
di ff
W idth
U RE
se c
i ce
pl at
00 01
Ġs w
ase s
g or
clu ded
Ġ3 0
Ġme mber
den tial
Ġoper ation
as ter
df mp
i lity
__ .
ur al
ĠPO INTER
a ce
NE SS
col umns
Len gth
UL AR
men u
s r
12 5
Ġ& ',
ĠF IT
po ol
Ġad min
ĠF ield
1 13
App lication
in es
8 00
Ġbe ing
den tity
Ġa bove
ti m
xa mple
Ġf ix
Ġ edit
_ .
PO SE
Ver sion
ĠP ART
ume ric
P AR
',' ','
y p
Ġth rough
or ter
Ġcon vert
len dar
CH ANT
PAT H
Ġ" ,
ro ll
is o
16 3
de nc
ER CHANT
ix in
A SS
men sion
en tity
tain s
L L
} /
Ġp ipeline
ĠE xample
U D
W ARE
Con st
17 9
) ],
Ġac count
C S
S imple
Ġdefault s
un it
L Y
on s
re port
refe rence
ĠA uth
Ġen tity
Ġ' --
u ce
N ew
sg i
ĠFIT NESS
UR POSE
get text
Ġin dent
ĠO n
__ ':
ax is
ĠS IGN
Un less
m ock
Ġs uccess
pen denc
: \
ĠP URPOSE
in ation
Ġenume rate
Ġw arnings
Â ĳ
k et
Ġb lank
IC ULAR
'] "}),
ĠString IO
Ġelement s
ur ls
(' -
bin ary
ĠPART ICULAR
ĠS O
Ġ" <
m ol
ly ph
cre en
as cii
Ġb uf
ĠT o
sche ma
ge om
ĠNotImplemented Error
Ġ kw
ON E
g i
mid i
Ġcharac ters
1 32
Type Error
Ġback end
33 33
Ġs ince
Ġ1 3
Ġe very
create d
Ġg raph
In stance
g is
di tions
ĠT ODO
Ġh ow
- >
Ġw ould
1 14
Ġd raw
Ġn etwork
ro t
ERCHANT ABILITY
id dleware
b f
ĠX ML
ĠS QL
Ġ1 9
ĠB O
ĠT ext
16 0
Ġd type
Ġme ta
N D
( **
element s
b d
LE CT
ue ue
Ġp h
mo ved
Ġs orted
Ġst ri
RE E
Ġb ar
Ġlib rary
on d
30 9
z z
'' ']
Ġ4 0
s cope
ĠS T
Ġpos sible
B J
ho me
tic s
ra ises
Ġass oci
sp ect
''' ],
Ġpart s
Ġdev class
ĠT emplate
10 9
ca st
Ġ{} ),
al y
ac tiv
ĠA l
5 09
AP T
85 7
ĠO pen
B ack
option al
ĠA s
tr ack
TE ST
ten ded
Ġs pa
ĠCo mp
Ġag ain
Â Ŀ
posit ory
D F
Ġw ay
p ipeline
en u
Â ĵ
us ing
f lag
F ilter
E C
Se arch
Ġbo th
+ +
36 00
j s
F loat
ĠWARRANT IES
ĠD ict
user s
17 5
ra ise
d type
Ġc types
i ent
Ġf l
n ess
u tes
inter face
Ġst ore
Ar g
Ġco uld
Ġre pr
DAT A
ĠP o
Ġcharac ter
ĠRe quest
C ache
Ġn ull
e q
Ġby te
ĠO r
10 4
": "
13 9
h ex
' d
se p
al ign
ĠB ody
ifi cation
ĠA d
Ġcomp onent
Ch ange
S pec
Ġset Up
Ġthe ir
st at
Ġ" .
n om
gor ith
le ep
() ))
s ten
cre ment
Ġp l
12 0
) ])
Pro cess
I AL
o red
Ġe q
25 3
Ġsp lit
M S
w arn
D ir
Ġcon structor
tific ate
Ã ļ
Ġw rap
load s
con vert
v ing
Ġout file
STR ING
c ss
pri vate
sh ot
~~~~ ~~~~
n u
ĠD oc
Ġc lo
) ",
m k
Ġse n
Ġ ti
mp t
P C
Ġsu ite
un g
00 1
Ġo ur
k ind
Ġlo op
Ġ" __
10 5
ll um
`` .
direct ory
Ġme tadata
Ġpath s
Ġap pro
Des cri
so me
14 9
' [
18 0
li ties
U E
Ġ --------
ĠM ERCHANTABILITY
17 0
Ġs ample
co okie
Ġax is
Ġ' ')
AC T
Ġf ailed
n b
Ġenviron ment
ĠT h
Ġdocument ation
Ġde p
c la
b ad
Ġd one
ance l
[: -
Ġw ho
Ġcon f
Ġb el
Ġpro perties
Ġpublish ed
Ġal ong
Ġmis sing
end swith
par ts
ĠP RO
ti st
k t
f older
ĠT H
dir s
r ack
f er
Ġ ĠĠĠĠĠĠĠĠĠĠĠĠĠĠĠĠĊ
arg ument
Ġ lineno
Validation Error
O pen
greg ate
Ġ queue
Ġcom mon
ces sed
Ġallow ed
Ġse par
llum ina
Ar ray
ĠCon struct
25 0
ri tems
Ġpro tocol
Ġpre vious
Ex p
ran ch
t t
Ġu id
cur ity
Ġsu ch
Ġset ting
I llumina
S APT
ari es
" '
gener ic
N BC
B L
Ġre direct
Ġuti ls
SI ZE
p ly
ur ing
Ġs ort
V ariable
on ic
ĠBody map
x fe
col ors
ĠDec imal
adi us
Ġgener ate
re set
re gex
Ġal ways
= _
Ġm ask
di o
Ġst andard
Ġtoken s
r l
ct x
r type
en um
Ġs tep
W arning
ce ll
Ġre lative
per mission
ĠR un
Ġk ind
Ġst orage
) (
P a
Ġcan not
Ġsup ported
pub lic
M in
in te
CO DE
ha vi
---- -
O G
Ġin dic
al k
ou se
pro duct
pa per
time stamp
Ġact ual
ic on
Ġd t
(' <
lo y
Up date
Ġma th
N etwork
Ġi pv
UB LE
quest ion
resol ution
ĉĉ ĉĉĉ
ĠWARRANT Y
si g
S o
T IME
ĠS E
ti ties
Ġ 60
US ER
10 7
ĠQt Gui
Ġde sc
M IN
ĠVer sion
4 09
ĠGo ogle
ex er
se quence
Ġf inal
default s
ch oices
Ġupdate d
iv ar
ĉ Ġ
se conds
ĠN O
mg mt
10 2
u ction
oper ator
AN G
sup er
Ġ ĠĠĠĠĠĠĠĠĠĠĠĠĠĠĠĠĠĊ
ward s
av ed
Ġbase d
ĠU se
Ġpoint s
Ġf n
P ORT
fail Unless
di ces
201 0
Su ite
/ ',
ch unk
Ġ( %
se cond
up per
C D
st ar
Ġ job
T e
ish ed
Ġp oly
ho ok
al i
Ġbe gin
ak es
play er
t ten
/ (
plug in
____ ____
> ',
i er
P S
80 7
Ed it
Ġother wise
i re
ph er
Ġre verse
Ġvariable s
T ask
`` ,
defin ed
v olume
'] ",
Ġm apping
* (
ĠF ROM
p x
pro tocol
H ttp
in v
Ġc a
w here
UT E
re verse
by te
ig ration
re direct
ac cept
B B
ad o
u ch
s d
Ġde code
ĠM y
Ġid x
p ol
x F
Ġu ses
Ġi p
ro ss
ty le
Ġwith in
Ġu int
Ġ- =
6 00
Ġpro xy
Ġw ar
p id
um b
Not Found
ĠB y
ee k
add ing
A nd
Ġres ol
Ġco okie
Â ¢
Ġencode d
M ixin
1 16
D O
co ls
Ġ ĠĠĠĠĠĠĠĠĠĠĠĠĠĠĠĠĠĠĊ
li m
so le
z h
Ġg ot
we ight
Ġ escape
ĠI P
M M
ate way
Ġal ias
Ġn eeded
prec ated
p ref
C ore
\ '
) +
01 2
B ar
a fter
or ity
ĠD RAW
L S
Ġpla ce
Ġper son
no red
Ġs c
Ġtr ack
ĠQ u
Str uct
LO CK
Ġuser s
c enter
Ġpro file
Ġexist ing
Ġ{} )
Ġre tri
HT ML
Ġ Error
ĠDRAW INGS
distribu te
es ted
ĠBO X
m ar
M od
an e
ĠS H
Par se
valid ate
Ġsel ected
Ġ4 2
ist ribu
s uccess
16 65
f alse
Ġob tain
code c
Ġspec ial
Ġgener ated
17 8
12 9
doc s
sche mas
ite ritems
Y ou
Â İ
Ġp lat
16 69
for ce
Ġpre sent
Ġsh ape
plat form
Text Field
ĠS ub
Ġpack et
1 55
Ġle t
b ab
te ct
Ġspec ify
ĠX XX
D C
pa re
fl ush
Ġsche ma
Ġ( -
Ġrow s
gorith m
resp on
r ad
g f
15 0
Lay out
f uture
ĠD o
e lem
ist ration
' %
Ġb it
I mp
mat rix
Ġr v
update d
g ments
M ax
MPL ATE
Ġ ĠĠĠĠĠĠĠĠĠĠĠĠĠĠĠĠĠĠĠĊ
Ġinstance s
data base
( {'
Iter ator
> "
ro y
Ġdeserial ized
Ġex t
Ġc lear
Ġy ear
ial og
ĠS h
Ġbo x
s core
"" ,
label s
ĠO S
pk g
S ystem
Ġ" _
Ġat t
Ġ" -
k i
Ġrun ning
Th read
Pre fix
Ġ> ',
class method
FT WARE
I Z
O bj
r and
Ġg tk
Inter face
ĠC lient
S L
p ush
######## ####
assert False
Ġ license
am l
ĠI mage
14 0
ix el
comp onent
99 9
ign ore
Ġ[ [
co s
13 5
Ġinst all
13 7
Ġ edge
/ '
.. ..
00 3
Ġimplement ation
, )
g ger
| '
Ġre ason
{ }
M T
M enu
fa ces
= {'
J o
b reak
str uction
r on
N G
e ve
pro p
app s
Ġpro duct
w ner
00 2
j ust
me s
Po licy
ĠW indow
. ':
resource Group
ad ing
_ ):
a ff
Ġm ost
arch ive
SP ACE
con tainer
P ER
u uid
U SE
Ġ1 7
stri ct
Ġ2 5
di stance
ĠA c
'] [
00 4
__ .__
Ġs im
P R
il la
12 4
G B
w b
Ġover ride
lo ts
. ",
Ġs q
201 2
Ġun it
link s
g b
() ):
av a
token s
d r
N OT
Ġbut ton
su ite
Ġassoci ated
Ġg en
Ġname d
AG S
ex pi
Ġto o
it le
g on
per ly
5 25
ĠM ode
pub lish
mit ted
g a
h s
mod ified
10 3
Ġraise d
pro vider
el if
Ġ2 4
14 4
col lection
Ġv ari
c ustom
IC AL
Ġan other
ma pping
Ġs cope
Ġf ill
ST ART
back end
ĠL I
IN FO
Ġmat rix
Ġw in
() ),
L A
inter net
Po sition
Ġtrans action
MP LE
F ont
lo aded
com ments
script or
Con tainer
per son
Ġbin ary
ag ent
ĠJ SON
P lugin
package s
d at
ER S
C F
Ġo prot
E V
Ġse q
g ment
ÃĲÂº ÃĲ
w arning
up lic
Ġ/ >
Des c
Ġh igh
N V
down load
Ġin v
yn am
mas ter
m un
sel ected
Ġb ad
11 1
w s
Ġse nt
Ġwar ran
Ġsub class
Ġapp lic
ĠG E
Ġrequest s
Ġu sage
si an
N et
s ity
be gin
ou gh
ma g
S ession
se cret
path s
pro to
Ġ< <
ON T
sq rt
14 7
AT OR
ĠDO UBLE
u ted
19 2
` ,
c ut
own er
Ġc ategory
h elper
69 2
f g
ĠM ake
P h
L INE
Ġcol umns
De lete
Ġ keep
t one
. )
A F
Ġmon th
Ġvis it
Dis play
Ġmatch es
Ġde termin
pe ed
= ['
2 20
D ATE
Ġsu bject
Ġset attr
s ock
Ġabs olute
Dec ode
ĠL o
13 0
feed s
to ol
ĠSO FTWARE
Ġd ay
30 7
TE MPLATE
m c
Ġwarran ty
(" \
s is
si m
Ġe qual
S tyle
P ri
A UTH
10 8
am ily
pla in
I I
mid dleware
sign al
Ġmodule s
an ti
Ġd ig
Q ueue
D ialog
00 5
Ġpar sed
Re ader
---- ---
ĠT O
Le vel
(" /
M ac
( ('
16 9
W rapper
p b
Ġoper ator
Ġstd out
G T
A x
Ġlo ader
E E
Ġh ope
IS O
w sgi
_ :
fi ci
ac y
] ',
Descri ption
//////// ////////
z ure
Ġre mote
inter val
man y
resource s
is tered
ul ation
W ri
Ġse conds
AR K
Ġc r
sk i
16 33
ĠC H
Ac cess
13 4
la zy
U nicode
ĠL E
M et
P ort
Ġre distribute
Ġb its
_ %
ĠC ode
ĉĠ Ġ
24 0
Ġsign al
Ġchange s
p ing
ĠO TH
que sted
Ġde vice
Ġcon ditions
di m
15 7
or iz
g y
ccur s
out file
T YR
100 0
R el
ro le
Ġlo cale
Name s
ex port
ĠI O
G C
Ġchange d
Ġw rapper
" %
R ou
m ount
DE BUG
Re ference
32 0
Ġw ait
icro soft
W ORD
Ġc tx
j pg
ĠA p
Ġno te
r up
[ ^
)) .
ifi er
SG I
r b
Ġpri mary
* .
Ġre quire
Ġex it
AR G
un ct
w iki
comple te
ĠM ulti
15 9
F R
ntax Error
ĠS y
B lock
wall paper
99 3
12 2
200 6
"] .
() ]
get attr
R IP
re v
s lug
Ġ5 0
image s
ce l
L exer
loc ale
En coder
M atch
ok ia
10 6
C RE
re ader
event s
ĠW hen
ok ies
ĠCol umn
IT ION
al le
ul ate
200 5
f time
__ ()
l g
86 8
dump s
Ġcode cs
ar ge
Ġre quires
ro ke
ud ing
an guage
ĠN ode
ĠU nicode
16 64
Ġ2 9
ST AT
s ur
14 3
g if
Ġp e
17 67
Ġcomple te
pe ar
H elper
in ternal
de ograph
Log ger
f lat
' m
ge o
Ġpermission s
U I
Ġcal cul
Ġvi a
Ġch oices
ĠM e
Ġb ind
R ule
ble m
ĠR a
Ġi g
se ek
=" %
k es
SE LECT
Ġvalid ate
Ġk now
04 3
Ġtrace back
po licy
Ġu til
eg in
Ãĺ Âª
Ġm any
cl uding
ĠU N
D S
00 7
Ġwri ting
it al
65 9
Ġ" --
AR Y
OR S
Ġevent s
Ġno tice
Ġcurrent ly
e ver
L ic
Ġi prot
Ġ' )
B E
b rowser
C l
read only
Ġme r
z en
ring tone
al pha
Ġre st
fo und
IM IT
ĠU p
edi rect
n an
Ġcor respon
time s
ir d
Ġn et
o auth
me th
ĠH e
ti o
S ite
VER SION
g re
P E
S ign
13 6
ut or
32 7
Ġauto matic
re mote
16 67
z ero
ĠU ni
Ġt ab
12 6
Ġg l
ad ded
+ '
sc an
ĠD I
Ġp ut
Ġ 64
Ġchild ren
Ġright s
Ġsa fe
00 9
po se
b its
ed ia
Ġ{ %
ar is
in c
re ce
in teger
g g
h our
cess ary
ss l
trans form
Option s
bu ck
Ġin te
k a
ass word
bo sity
Ġp atch
16 8
Ġp ublic
Ġnumber s
gener ate
havi or
ĠIn dex
in f
d om
ser tion
Ġp ickle
Ġcal ls
AP I
tr l
du ce
ĠN umber
ser v
Ġde cor
eg g
Pro xy
sing le
C al
stream ing
template s
P ost
Ġm ime
p to
04 9
d y
17 4
ĠC F
ol ution
di gest
Ġde leted
d uc
Ġlog in
reg ion
ĠD i
Ġbase string
ĠM A
Ġin cluded
Ġoper ations
ĠLic en
Ġw ords
ter al
Ġet c
se e
Ġco ordin
s leep
Ġlo ck
Ġ entries
Ġme dia
j e
ER T
ynam ic
ĠWindow s
qu iv
log y
x ad
ti tion
tri c
Data base
Ġdi ff
Ġchar set
19 9
Ġtr an
16 55
rag ment
Ser ial
ĠT ime
us age
ateg ories
15 4
18 9
To Many
xf b
page s
ag raph
=' ',
Ġin sert
fil ters
ĉĠĠ Ġ
h n
20 7
Ġpk g
Ġin it
2 34
S ocket
Ġst ored
Lic ense
6 55
Type s
Ġwe re
che my
Ġmo ve
be fore
R ange
") ;
on y
Ġfe ature
A b
str ings
de p
m u
i ti
to re
c lick
d st
ites pace
re quire
Ġexp ect
Loc ation
d one
') (
Ġ1 8
at rix
Rec ord
h and
Ġb ot
f inal
By te
} .
Ġ head
SC S
P H
Ġ} )
bo o
+ "
ĠPar ameters
xf c
Ġinst alled
16 4
Co mple
String IO
x ed
Ġp lot
co unter
__ ":
Ġme ans
ser ve
20 4
B egin
F e
one s
un ch
en ce
AR B
O O
Ġsche me
ĠCon tent
z a
ff set
ac le
Ġchar s
ra m
N T
s in
i an
se par
Ġex pr
14 6
Ġexception s
f name
bu iltin
M y
ut ing
Ġz ero
00 8
ar r
f mt
nap shot
xf d
88 9
39 8
la tions
l on
16 54
Ġre moved
abs path
re po
A E
Ġac tive
Ġth ose
res sed
g an
exp and
Ġis n
l n
87 5
ac ter
[: ,
Var Int
T Y
ch or
Ġ' [
, ))
o ols
Ġdistribu tion
t ty
Ġrepresent ation
ĠB E
ĠO ther
s uffix
Ġcomp ati
un pack
Ġ mp
M OD
wri ter
Dec imal
Ġneed s
de serialize
18 4
xe f
Ġsign ature
me an
Ġexec ute
g data
20 2
Bu ild
Lo ader
age d
Ġbel ow
i ted
Ġm ight
s n
([ ])
Ġsub process
) -
dential s
ge titem
32 6
M D
Doc ument
= ='
Ġ ?
ter m
ĠL og
v m
resh old
Ġtw isted
Ġdirect ly
con tact
E mail
15 6
Ġtime stamp
h ello
PB ED
re quen
pri ate
Ġex tract
Ġme nu
HER E
19 8
lo ur
2 35
19 7
ĠKey word
Ġun til
ph y
k o
Ġex pi
c mp
er ies
3 84
Ex ist
CON T
h ref
p lan
w i
Ġs cale
, ),
con tin
ff ff
trans late
ĠU P
] ])
Ġad ditional
To ol
88 6
Ġman ager
Ġig nored
Ġ2 3
t b
P Y
gra de
14 5
p ted
T race
18 5
B e
Ġ he
M AP
v or
UT F
Ġ[ ('
Ġg lob
ĠN ew
b asic
Ġre cur
il t
xa e
xd b
ar Down
Do es
dis patch
RE CT
da ys
Ġm d
Ġfol der
D R
v s
37 5
xc b
RE QU
ĠRe g
Ġ5 00
cf g
Ã Ń
wh at
O ver
Col umn
trans lation
h istory
Ġma il
xc f
nom ial
Ġ' {
L i
Ġre gex
[: ]
Ġdo uble
G raph
set default
F in
play back
ĠLicen sed
00 6
| \
log ging
Ġcontain er
ÃĹÂ Ļ
exp ression
Ġwe ight
xe b
lib rary
17 28
ĠK IND
Ġo wn
IL LIC
REE K
YR ILLIC
200 9
xd f
la p
Ġd iv
64 7
handler s
18 7
for med
A OD
32 4
F ailed
in ja
ate rial
Ġf ig
De le
Ex tension
U ID
b m
Ġcommand s
vel op
r ong
j k
aaaaaaaa aaaaaaaa
V ector
vis it
p df
Ġac c
3 04
W rite
her it
ate r
f ree
Ġp r
19 4
et ail
char set
ĠL oc
Ġre set
ver age
Ġdi stance
b atch
mb ed
3 01
" />
ran k
Ġis sue
Ġre main
St orage
ix ed
Ġsome thing
c ar
arg in
ou th
ff ect
Ġge ometry
IG IT
69 7
T itle
cal led
Ġapp ly
Ġin ternal
Ġc op
ĠA sync
Ġ{} ,
en abled
ĠMode l
Ġ' \\
in x
Ġid s
che ma
Ġexp licit
Set tings
IC E
pi x
j ug
ToMany Field
ch oice
de pth
le c
Ġre lease
ĠAuth or
M iddleware
Cur rent
Ġlo wer
Ġst ill
13 8
xa a
ĠL IC
Ġtime s
") ),
ĠOTH ER
Ġf alse
LO G
Ġper form
x ce
] ):
Ġ layer
me di
unk nown
Ġb l
ne g
de lay
Di rect
fa ke
v ari
gn u
22 2
p n
: ])
OW N
ation al
Ġg lyph
Ġappro priate
ro ute
M on
res ses
Ġf actory
su bject
RE AD
ex clude
E B
N ote
i pe
: "
Ġq s
r m
S ta
dec imal
Ġset s
Ġ# :
15 2
o ted
ĠLIC ENSE
Ġthread ing
F Y
Ġconn ect
C re
Ġg rid
C an
25 2
h igh
si fi
F ail
Ġdec imal
Ġu s
un its
66 6
D D
re ed
Ġwork s
29 8
t ar
35 7
' >
Ġauth entication
vel y
Ġor d
Ġdel ta
i od
Ġplat form
Des cript
Ġen able
ra ys
Or der
B R
fici ent
345 67
p u
/ "
as sign
run ning
W eb
Ġmatch ing
R edirect
ĠCom mand
te cted
ser vices
ĠS pec
z A
20 9
ge ther
Ġw ell
av ing
ĠT rans
trans action
Ġle ast
time Error
xa f
) ')
Ġreg ion
') },
E P
Ġal ign
c en
H BC
it ter
subscription Id
xt ure
13 3
Ġd a
x ec
p atterns
pa ces
Ġ ])
de rer
] ],
01 0
Ġne cessary
is instance
Attribute Value
60 9
34 4
ĠA C
Ġdefin ition
re vision
ĠThe se
Ġas sign
U ni
sum mary
ĠO ut
20 5
M ark
B ad
t od
)) ))
H ost
control ler
t n
Ġter m
x ab
Ġc y
ec h
ifi es
Ġ google
Ġbe st
S cript
ĠM eta
C R
w rapper
Ġ" ",
55 4
Ġsh ell
orig inal
ĠI MP
Oper ations
Ġb oolean
app en
ĠLE FT
Rou te
ĠGe o
li ance
Ġ ))
CH E
Ġp lt
Ġt ake
Ġs ide
e v
sign ature
Re ce
Ġf i
Ġtest ing
r pc
Ġre served
M ID
b lob
or ary
Ġcopy right
19 5
: ',
i ver
Wri ter
il ing
CL UD
ĠI mp
Ġv olume
CLUD ING
ren cy
Ġm ac
P FN
Ġcorrespon ding
y y
T ABLE
W ork
89 8
sche me
ĠV ariable
r f
i i
C all
Ġi dentifier
16 2
R ow
jug ate
ue st
y es
ĠIn ter
Ġcase s
x html
ac ing
( """
br ary
pre vious
20 8
E CT
ĠB u
Ġstate ment
ĠE lement
extension s
N um
LIC ENSE
ĠC YRILLIC
ĠF O
65 7
RO P
Ġb ug
w o
25 4
20 3
al loc
18 3
Ġs uffix
Ġt z
are a
re ason
order ing
RO L
ĠD B
85 9
Descript or
C ho
de cor
base s
At tr
Ġf lat
Ġlist s
av ailable
Not Exist
si c
E z
ale ct
Ġdi mension
W e
15 3
val s
NAME SPACE
Ġc ap
Ġd id
A li
Ch annel
sh a
I mport
assert Is
Un it
ar m
SC RIP
ĠCom ment
[ (
tic k
n okia
ĠR ec
xx xx
From String
OL D
tifi cation
ĠO GR
Ġsy ntax
E mpty
IN PUT
U rl
up load
p as
14 8
88 8
Ġqu ote
pa ir
67 5
P rint
read line
Âª Ãł
x fa
ex tract
op h
att ach
or n
Ġf etch
Ġap pear
con tains
Ġr ate
Ġt yp
cor rect
re a
01 9
ĠP ost
S V
Ġex port
Ġ( )
Ġpro p
Er r
FI X
pendenc ies
dig its
S R
mis sing
me t
Ġdown load
) ?
ĠM o
] =
can vas
C opy
S up
Ġass ume
ÃĹÂ ķ
buck et
) '),
Ġ' '.
P os
k b
back ends
t f
compile r
Ġen sure
PRO C
CT YPE
o om
Ge ometry
Auth entication
05 3
il ar
M I
base name
By tes
n umpy
h idden
ĀĀĀĀĀĀĀĀĀĀĀĀĀĀĀĀĀĀĀĀĀĀĀĀĀĀĀĀĀĀĀĀ ĀĀĀĀĀĀĀĀĀĀĀĀĀĀĀĀĀĀĀĀĀĀĀĀĀĀĀĀĀĀĀĀ
pro c
11 11
ĠR IGHT
Ġex clude
ĠIO Error
sel ection
Does NotExist
Ġon ce
ch o
; ":
22 9
b ig
Ġpar sing
Ġ es
ir tual
Ġt akes
v ector
Ãİ Âµ
en der
Ex ec
30 8
Ġtable s
ĠD is
GL U
xc d
si red
o tes
ĠAp ache
ĠPro tocol
33 3
Ġver ify
ler t
si st
un e
Ġav oid
tiv es
Ġe lem
z illa
ĠM an
S um
und le
# ------------------------------------------------------------------------
60 7
viron ment
ĠS imple
Ġrepresent ing
Net Device
'] ),
AB IC
b um
> ')
pa yload
SS L
) **
reg istry
T op
con jugate
Ġme mory
d l
Ġde ri
Ġlabel s
a j
ĠM essage
Ġs ig
red ic
me m
M sg
de li
Ġfil ters
MB J
24 9
Ġapplic able
Ġde scri
ĠD ate
ch ain
Ġact ually
I VE
oriz ont
al len
Many ToManyField
oc us
Ġex press
+ =
xd d
01 5
Ġat temp
x ac
plug ins
Ġd st
(? :
ĠCON T
Ġ ------------------------------------------------------------------------
UN D
U C
ĠD IGIT
de leted
Ġl on
Ġp ixel
I V
F E
64 9
ĠU SE
B r
org an
P T
Ġ ValidationError
Ġi m
In st
Ġd uring
var type
ro l
valid ation
xe e
ol low
ul ated
85 4
comp ute
tran sport
x de
t l
Ġdef ine
ĠG REEK
/ ')
s lice
ol l
Ġ1 000
DE F
22 7
Ġn eg
Ġter min
Ġautomatic ally
tiv ity
O ccurs
b ed
Ġh elper
' <
Ġ2 2
ro s
M ask
r p
vi e
n ick
25 7
17 59
Ġpri vate
B in
( ["
Ġgroup s
, \
12 1
. '),
33 7
Ġapp end
15 8
"" ")
spec ific
Ġdata store
Ġs can
xd c
Ġ ĠĠĠĠĠĠĠĠĠĠĠĠĠĠĠĠĠĠĠĠĊ
ap ache
Par ameters
xd a
St ack
Re move
CE SS
Ã ¯
g it
200 8
str ftime
Ġpre v
Ġre quested
Node s
Col lection
Ax is
gener ator
200 7
di rection
Ġto ol
f ri
30 5
18 6
HO ST
re et
i ed
d uration
command s
55 6
Â¥ Âį
y e
y nc
25 9
(' --
Ġwri tten
Comp onent
ze ug
MO DE
ver ify
Ġdoc test
(' .
PB E
ff f
resourceGroup Name
H ello
2 77
er ry
F unc
mb ols
OR IZ
RO OT
si x
Ġtrans form
32 5
Ġcom ments
sc al
################################################################ ############
sy mbol
In itial
PFN GL
Ġre lation
A v
al th
fe rences
AG ES
CON F
li sten
20 6
ro zen
AAAA AAAA
wh ich
static method
de tail
xe a
19 6
Ġal pha
67 9
s rid
orizont al
Ġmax imum
Â¸Â Ļ
app engine
clo sed
Ġme an
Ġit self
mo b
Â¤ Â°
18 2
d river
Ġ## #
ys is
ĠQu ery
Auth or
Ġy et
k zeug
Ġ3 4
LE TE
xc c
Ġcom mit
ĠR ed
Ġst derr
w eek
plot lib
Se quence
64 4
Ġp lay
sub class
pa g
89 7
ĠC ustom
fir m
37 4
Value s
W R
V ID
test ing
Ġ 80
en able
01 4
24 4
and s
Ã ª
Ġd ot
Ġpo ol
Ġ' *
M u
Ġp layer
== =
Ġc at
man agement
01 1
ĠUR I
ĠC ont
ĠO per
') ]
Com ment
33 9
17 81
du ction
an a
char s
for um
complex conjugate
uplic ate
Ġ ĠĠĠĠĠĠĠĠĠĠĠĠĠĠĠĠĠĠĠĠĠĊ
r n
r d
p ad
Ġpa yload
av as
in ner
17 65
07 4
AT ED
rule s
li ct
Ġst ats
Ġin cluding
Ġd ump
Ġgo ver
ĠIn valid
Ġi mg
39 7
al ysis
N ext
ĠGe ometry
aris on
Ġc la
Ġpackage s
Ġfail ure
Ġeval u
89 0
peri ment
R ect
ĠData base
ex ist
Ġpre c
Ġ4 04
26 3
(" -
Ġ' $
30 2
Ġrule s
in line
Ġ200 6
Ġ" $
si tes
Ġcomp ile
Ġdis able
Pro duct
ĠT ag
Ġpar tic
( ''
h older
LI ED
encode d
cs v
AC TER
avas cript
Ġ201 0
He ight
19 0
ĠA S
04 4
Ġg ame
Ġ2 6
Ġs ur
ĠW SGI
ar ticle
Ġs lice
24 7
C UM
st it
Ġextension s
p olling
par ameter
bl ue
87 8
T arget
zer os
lo go
Ġversion s
sh ell
Element s
2 16
Ac cept
M ock
se curity
ĠE V
red uce
p or
iz ard
Ġimage s
P assword
Ġgener ator
34 9
C ategory
ĠG roup
19 3
de s
( ',
TR IB
al chemy
Ġcall ing
Ġpy game
ra tions
HE AD
Ġal i
Ġbe havior
O p
n y
Ġs aved
R ate
99 7
14 1
Ġc i
se ries
C AL
l c
Ġst at
ĠDE FAULT
g ree
84 1
Ġxml ns
Ġs creen
ĠS ystem
b al
L T
over ride
Ġstruct ure
re lation
24 5
tw o
84 9
b g
cl one
ol ler
Ġro und
S Y
At tributes
am r
89 5
i dentifier
T ran
environ ment
ĠL IMIT
Ġpa irs
ĠEx p
37 9
Ġmod ified
m ut
Ġex act
65 4
Ġ' +
Result s
Ġ3 1
ĠE ND
id ual
F a
Lo op
bot tom
Ref Count
ĠO UT
ĠThe re
Un known
is sue
ti le
Ġ //
Loc al
name d
G RO
Ġpa ir
PO INT
and id
Ġbas ic
our se
Ġ-------- --
Ġreg istered
ĠT Type
Ġglyph s
q s
Ġprovide s
as ure
S c
35 9
requen cy
Ġconst ants
uc ket
Ġcomp liance
D raw
Ġh appen
ĠConfig uration
Y Y
Ġal gorithm
function s
D ITION
NU M
> %
lo or
Ġ3 5
Ġ ĠĠĠĠĠĠĠĠĠĠĠĠĠĠĠĠĠĠĠĠĠĠĊ
Ġcon struct
ĠW HERE
: ",
w kt
ĠF orm
') [
S tore
ĠL ine
LI ST
vis ible
Ġde precated
d n
Ġ layout
x ca
G I
Ġo k
(" <
77 01
Simple RefCount
Ġb atch
M ain
2 64
fe atures
G A
Ġlink s
te ri
Ġ video
ys ql
ls o
Ġf r
Ġsuccess ful
Ġdi rection
Ġ' "
29 7
iter al
cal ar
s lot
rep ly
Ġlimit ations
27 9
chr on
o v
( ':
On ly
sy mme
Ġi con
Ġk nown
Ġquery set
W ifi
app ly
al f
01 6
U LE
ph one
Ġiter ator
m or
= ',
ÂģÂ ®
Con n
18 8
ĠIMP LIED
Const raint
se ct
cl ar
peri od
pe at
Ġ201 1
60 5
cer t
ĠT able
Ġ2 8
table s
Ġtemp file
copy right
Ġsup p
Ġend point
Co okie
: -
Ġar ound
67 4
Ġ3 6
34 7
Ġstri p
tri es
80 9
06 2
_ *
boo lean
17 29
Ġpage s
stri ction
Ġpro bab
project s
d x
n orm
s chedule
B z
u ses
Ġp atterns
le v
Ġt ar
Ġconnection s
En tity
ĠO N
b order
a h
ĠI ni
PO INTER
Ġro le
V AR
i dentity
S m
map s
ĠQ U
mob ile
ĠUp date
j or
Ġe v
ut c
Ġ lang
Lo ad
P U
Ġsm art
Ġse en
Ġo ccur
CO M
x E
67 7
R andom
2 32
2 39
Ġd at
si cal
Ġtuple s
ith ub
' ll
Ġraise s
A V
---- --
c ached
F oo
Float Field
Ġo auth
con sumer
T F
Ġ_ (
Sy ntaxError
Oper ation
Ġin spect
REQU EST
Ġ jo
Ġen gine
Ġrec ent
Ġc ached
04 1
pec ode
0 39
22 8
Ġex tend
30 3
s apt
33 4
S ITE
Ġ2 7
sapt one
Ġst ar
En coding
88 7
const ants
get value
A tom
pro gress
li es
ĠB AS
den ce
27 5
ĠL O
la ce
2 14
29 4
ro id
87 9
r u
ch an
Ġ ĠĠĠĠĠĠĠĠĠĠĠĠĠĠĠĠĠĠĠĠĠĠĠĊ
Ġiter able
Ġte arDown
di mension
ĠFO UR
Ġun its
Po sitive
= \"
refe rences
ĠD AT
D el
exp ect
ot or
01 3
Ġsy mbol
f fi
I SE
am ma
et ri
qu are
ue ss
Ġp ur
bu ilder
ma y
fe ature
Child ren
ĠIn teger
18 1
Ġgover ning
Ġt b
spec ial
22 6
EL D
Config ured
u dio
13 1
ĠPar se
', ),
is ten
Ġexp and
Re gex
Con s
B ACK
Ġb order
F lag
Ġcomple x
Ã ĸ
:` ~
= ""
Ġallow s
Ġp ick
Ġm aster
ĠN ULL
Ġ lin
W AR
OR Y
g mail
Ġup load
ĠPo int
ÂĤ ",
local host
bl ack
Ġ( _
Ġorig in
Ġback ground
Ġmer ge
Ġla w
ĠO bject
ate ly
P D
ac ity
([ [
Pro perties
T ri
rest ype
ĠRun timeError
B ind
mon oph
E M
**************** ****************
16 37
monoph onic
Ġ virtual
Ġ3 8
ĠS pa
al ler
b re
quen ces
ÃĹÂ Ķ
un der
Ar gs
is dir
s ol
ro perly
me mory
5 12
const raint
fail ure
b az
Ġb lob
IC ES
a fe
Ġfile names
Ġ' &
Ġm ag
co me
Config uration
X ml
sy m
resol ve
T AG
Imp l
co ords
ĠA UTH
Ro ot
Ġno thing
O ffset
Ġtmp l
? \
ĠUn less
Ġre ct
35 4
Ġv ector
ORIZ ONT
pro g
L ast
v ol
En ter
Ġstart ing
Ġsh util
"] :
ces ses
Ġpro to
Ġf ake
fa st
3 77
Ġtemplate s
ale nt
Per son
ORIZONT AL
g lob
Ġaction s
10 24
b ff
dis k
Ġagain st
TR P
15 1
Ġadd r
Ar ticle
sen der
Dele ter
' +
re lative
back ground
Par ameter
ĠM ARK
Ġcol ors
04 7
map per
Ġinitial ized
iz es
pl us
Ġin side
ti t
66 66
88 5
Ġag reed
G o
Ġf d
if est
LE D
assert Not
FL AGS
ex act
ĠS ite
Ġsh ared
Ġge om
pla ces
pen dent
ĠAC UTE
04 5
ĠM ark
permission s
istribu tion
mo us
Ġas ync
DITION S
er ge
al ity
60 8
Ġview s
Ġma de
Ġimple mented
22 3
W N
x B
(' _
arg types
F irst
89 4
Ġvar s
Ġre ader
m ime
Ġ Ãĳ
ur ity
27 4
" })
Ġsel ection
list s
wh ile
[ \
ĠCON DITIONS
x C
) ")
Ġmap per
mer ge
Ġcon tact
Ġreg ular
la vor
ĠD AM
.. /
sh ift
roperly Configured
B it
pendenc y
config uration
ul a
ca lendar
ĠBAS IS
w arnings
ac c
Met adata
Ġe st
2 25
Ġde scriptor
read sheet
Ġo wner
SCRIP T
:` .
SS ION
de tails
mark up
c ff
ĠB UT
Ġdist utils
x A
ĠIni tial
count ry
base d
Ġh our
c math
ir cle
Ġclo sed
g tk
(_ ("
ad io
55 5
ip ient
f amily
tri cal
i bility
M is
sc ape
Ġi o
ĠAR ABIC
29 6
File s
re quires
Pro gram
2 33
ĠI tem
clean ed
MB ER
F D
... )
end point
b an
Ġmark er
84 4
Ġch ain
80 5
Ġs imp
Gener ator
std in
Test ing
n r
ĠC O
67 6
g reen
55 9
Ġn orm
C M
no tify
Ġdis k
30 6
` :
In te
Ġro ut
] \
cl uster
ĠPro file
84 0
Ġle x
asy nc
co d
le cted
Lay er
x s
Ġh ex
config ure
CH O
ex ternal
H andle
ĠB o
Sh ow
04 8
mun ic
ĠOther wise
ĠCONT ROL
con dition
Ġcomp ute
2 99
c ms
Ġcon sumer
Ġimp orted
69 4
De bug
n ail
g c
ĠOut put
] '
ide o
Ġa ut
is m
pre cation
W ord
ti d
quiv alent
32 3
RE D
f actor
pro j
Ġp ie
ĠT e
C annot
Ġen abled
Ġf it
ES IS
A MPLE
pref erred
Ġcom bin
CL ASS
put VarInt
525 45
t c
St op
p ure
Ġs sl
UR I
Ġ ####
r um
U ti
state s
ĠC OP
Ġde sired
P oly
Ġco unter
r st
02 3
m ore
Lo okup
NG TH
Ġlo aded
60 3
ry pto
Ġhand ling
d rop
f req
Ġ" +
FORMAT S
87 4
allow ed
h d
32 8
'] ))
Ġ ._
04 6
Ġre p
ony mous
ĠAr g
ĠOn ly
rite ri
ten ant
Def in
Ġ2 1
XX XX
B P
ep copy
ut down
L ock
Bu ilder
ge os
ET IME
ctype s
Ġsupport s
ĠS ome
2 37
r v
Ġu gettext
Direct ory
SER VER
ĠIndex Error
Ġs ock
Ġgo od
ĠT ry
Ġex tr
ĠTest Case
C er
ap s
u da
Run ner
wh en
PRO TO
ĠS P
LE NGTH
me ri
69 5
PAR ATOR
umb nail
N ING
16 32
Ġs lot
p ick
In dent
Ġa st
format s
S pace
at trib
b ut
ord ing
g ri
get Logger
ING LE
Ġget text
64 5
u fe
s hould
crement al
Ġh ook
Ġany thing
" ',
top ic
si z
) }
Ġro t
Me mber
ti ces
d ff
ams ung
p anel
Ġconst ant
return s
16 60
29 5
0 33
Ġk lass
Pa rent
Ġglobal s
ge s
ex tr
U se
row se
ĠE vent
77 7
12 34
0 17
N on
176 309
L YPD
op le
no tes
r adius
q name
s orted
2 88
Ġurl parse
ĠTH IS
[" _
> ,
% %
p name
bo ot
gu i
abs olute
Ġd f
Ġt t
state ment
igh b
M AT
S end
Ġdest ination
Ġpro gress
Ġre po
server s
ap ro
Pro ject
ĠS p
IP E
k ing
Http Response
Ġdis patch
99 8
A K
' (
Ġs ol
pre v
2 12
ĠLIMIT ED
60 6
ĠC an
Ex ists
code cs
m ing
Ġbo ok
tic ket
24 8
H OD
ad a
64 0
PL YPD
li me
Ġ200 9
L ANG
Ġinter pre
MP TY
k ill
Ġpro blem
ĠCh ar
T rack
< <
Ġc ause
V is
ac i
li de
85 0
comp ati
Ġh istory
34 6
1777 30
65 6
([ (
Ġw arning
55 7
g ot
rup t
iv es
comp ress
Rec o
duc er
ĠR FC
39 4
Ġbu ilt
url lib
Ġne ver
Ġdig its
ograph y
Fail ure
trace back
sh ared
port al
\ .
16 63
Â° ",
I t
Ġfix ed
2 19
Ġmark up
Ġ 00
Ġconver ted
ĠL es
B ASE
35 0
ĠL i
ra ft
con ver
b ro
reate r
host name
k el
ig rations
Ġin ner
Ġorder ing
Ġali ases
k ed
dest roy
AN CE
I con
etail s
M atrix
Pro p
16 1
PRE SS
Ġvalid ation
{ "
b eta
Ġf name
pre sen
Ġrec ords
36 3
t or
Ġpartic ular
f ollow
Per mission
in dices
ĠA lso
87 6
Ġ ^
e mit
U ES
Ġexample s
80 2
24 6
T ra
Ġbu iltin
17 83
n umeric
LO W
99 4
17 84
ĠF unction
() ;
ĠV ERT
u it
Ġde pth
ce ed
33 5
wrap ped
Se lection
Ġhttp s
ali ases
y aml
ĠGE OS
ĠImp roperlyConfigured
er kzeug
Ġconst raint
44 9
ac lass
Ġdecor ator
re cur
ĠVERT ICAL
200 0
? ',
ĠP re
Ġdi alog
Ġt urn
ĠRe ad
B ody
ĠL e
Back end
ax es
k os
ĠW eb
Ġcompati bility
VAL ID
82 6
ĠGener ic
20 20
Ġfe atures
T emp
01 8
99 5
69 6
ĠCH AR
li d
Ġse curity
ĠOS Error
ot a
Ġ" )
C a
mark er
Ġdetermin e
add Callback
Ġtime delta
K T
S chema
Ã Ĥ
84 2
n or
u ab
exec utable
D A
S UB
M ULT
M edia
Code c
ari o
pri ce
Attribute Checker
n eed
J ob
64 8
1665 12
ri g
25 8
esca ped
v ance
Ġcomp iler
W S
ĠLes ser
data resource
UN CTYPE
Ġp ref
cry pt
o ot
22 1
v id
ad words
C lose
data set
ec ho
ry pt
en g
assert In
Ġs core
ĠO Auth
IC ATION
AS P
C ell
Ġup per
ĠF ind
pro gram
J SON
'\ \
Ġw orld
b ranch
Ġ3 3
Ġblock s
DI RECT
} \
Ġr ank
ex e
& #
Ġ 77
ĠW H
d ummy
Ġcollection s
b mp
67 8
E xt
C AC
2 13
M icrosoft
match es
oper ation
Ġr c
ĠL OG
2 17
Ac count
N ONE
Ġre actor
G IN
Ġtrans lation
ĠI s
v ec
Ġre ferences
Ġg ra
37 8
key words
ĠM ock
Ġ'. '
tra in
ĠC al
89 6
(' .')
orig in
LY S
Ġper iod
Ġc enter
c wd
di ffe
65 8
AP P
27 8
st ub
po sed
ul ator
Ġlo w
a vi
R GB
ĠD on
Ġme m
l v
ed u
Ġst uff
ĠSt op
Ġ200 8
si b
80 3
39 5
Ġ' :
Ġ{ {
Ġf uture
T uple
p ower
j i
urn al
Ġsen der
Co uld
66 3
activ ate
80 8
ri ft
el ls
Ġ( ?
a o
c n
__ ',
17 18
!! !!
24 3
Ġcomp are
version s
co res
Ġb ranch
ud o
PRE FIX
Â¤ Â¨
cul ate
a w
Ġwork ing
99 6
par sed
sen sitive
gd al
ab ility
p us
Ġb ro
Ġsq lite
an tity
M ON
Ġ" ")
u db
late x
. /
O GR
Ġcheck s
Par ams
entic ated
+ ',
rec v
] ["
et ag
dec la
div idual
Ġl at
Arg ument
69 8
AL I
N C
fa iled
g fe
w ifi
NotFound Error
Ġatt ach
ÃĹÂ ľ
(_ ('
Ġre ally
ĠPO ST
me sh
di an
sh ake
ĠProtocol Buffer
ch art
edge s
Ġtime zone
Ġ Ãĺ
se titem
a de
2 15
ge ometry
67 3
port s
ĠE ast
Ġen um
entic ate
script s
Ġ* ',
al most
Ge o
Ġan gle
st andard
Â¸Â Ń
p m
B Y
Ġli sten
Ġf low
P P
g z
am ount
Le ft
ot ype
64 6
i dent
ker nel
Ġun known
x FF
code s
an on
S ingle
A I
sel ine
ĠN ow
ateg or
B ound
Ġ5 9
Ġm id
Ġle g
sis tent
di rec
Ġth ings
c ity
ĠC lass
li er
l and
ĠAr ticle
spa m
ec tive
Ġback wards
pa irs
A ST
Ġcon dition
to gether
27 6
Ġn ested
co okies
Ġvari ous
Ex it
block s
t u
p ending
" },
F S
clu sive
En um
ĠRe move
Ġcan vas
19 1
P anel
ĠExample s
Ġdirect ories
sertion Error
Ġa zure
Ġsupp lied
Ġa mount
05 9
el f
Do uble
ĠIn put
ĠC ur
AL A
c ancel
go us
17 1
Decode r
Ġ4 09
04 2
En abled
s lash
} ',
pack et
Ġse c
" +
ĠSer ver
ce pted
Comple x
set ting
Ġgener ic
ph p
c v
Ġcer t
it ude
80 6
sp ar
66 8
Ãİ Âº
','',' ','','
F ind
w ap
1663 80
lin t
27 3
r Ãĥ
Ġprocess ing
D T
b us
F older
AN S
erry py
ch a
Ġz one
provider s
tz info
Cur sor
init y
L anguage
ĠO ver
c nt
27 0
task s
di alog
ĠB SD
LE X
C lo
Ġinter val
]) .
17 69
36 8
u ac
G rid
ti p
PAR AM
32 2
GRO UP
C UR
Ġresource s
Ġwho se
Ġle ss
Ġbound ary
la h
Âļ ÂĦ
Ġt y
________ ________
St andard
av es
ĠP oly
subscription s
Ġp id
apro f
Ġsy m
D AY
M ake
ine tics
Ġch r
ic ally
RE G
h at
Ġi den
35 6
ÃĹÂ ¨
time r
Ġd rop
======== ====
ĠA sian
Default Deleter
Ġb rowser
Ġ4 5
N ULL
Ġc fg
ac quire
Ġop tim
sample s
Ġcl uster
M apping
AS N
26 2
24 1
sub process
out ube
DE LETE
Ġcon s
pro ps
ĠT EST
Ġstri ct
an aly
IN ST
En able
st roke
84 5
84 3
"> <
Comp iler
Ġbase s
Po ol
rid ge
ag gregate
process or
} '
03 8
x D
or ing
ĠH ORIZONTAL
9999 9999
Ġdi rec
vir t
symme trical
Ġdoc string
s lots
is file
Ġ' '),
X Y
Ġse cret
65 3
u aprof
Ġf ace
C B
ROP oller
m ysql
multi ple
05 4
Change d
ight s
global s
i tions
TH R
inter faces
37 6
g ithub
c li
Ġen tities
05 7
velop ment
r strip
Ġp lan
04 0
23 8
Ġcop ies
Qt Gui
Ġmat plotlib
i us
Ġ' (
comp are
Ġi deograph
G S
def ine
86 3
Ġb ucket
Ġcl one
P e
Ġpy test
sub mit
Ġre v
Ġp ad
84 6
s f
p ow
list dir
F low
@ @
Ġcorrect ly
02 6
mo ves
Ġver y
Â¸Â £
Ġacc ording
65 0
Ġbot tom
32 1
Ġwh itespace
on ce
vel ope
Ġver bosity
Ġnew line
Ġge o
T er
col lect
g res
RE S
m time
17 27
C or
IT S
normal ize
p ickle
ST ATE
xt ures
per m
Ġconver ter
ap pro
ateg y
Ġf mt
te am
ĠCF UNCTYPE
sh are
Ġin line
ĠEX AMPLE
Ġac tiv
Ġch oice
Ġc sv
st o
85 6
Ġ archive
j ar
Ġ5 1
Ġ6 00
x i
t v
LE FT
pri ority
ĠTest s
V ICE
N ormal
Ġ 55
member s
w orld
par ty
Ġchunk s
02 8
li teral
Al most
ver sed
pi e
h r
w atch
ĠCh ange
Ġhandler s
Ġun less
I FI
Ver tex
Ġan sw
I ST
(' ',
Ġpo inter
ĠB ad
Ġ200 7
Ġsetup tools
cre ation
84 8
================================ ================================
Ġre pository
widget s
Ġc apt
ĠO P
Ġwri ter
ĉĉĉĉ ĉĉ
sy co
co gn
ĠS INGLE
ĠRes ponse
Ġp or
p an
Ġinst anti
Ġ3 9
Ġcre ating
Ġ""" <
Ġcer tificate
ĠE ach
Ġdata set
Ġf actor
Ġreg istry
Ġ" [
M achine
Ġg ive
YP ES
UN T
Ġn d
ĠS ign
u dd
oper ations
Ġur ls
/ $',
Ġan not
Ex pr
o logy
ĠLI ABILITY
Format ter
allen ge
Almost Equal
o ma
ĠF IX
Ġd ummy
A ER
Ġ Valid
T ex
ÃĹÂ ŀ
scri be
33 6
st ock
Z Z
__ :
Ke ys
Pack age
L C
time zone
B rowser
Ġtra iling
Ġse ries
sup ported
back up
__( **
unct uation
Ġformat s
Ġkey words
di f
COL OR
N A
Ġin dices
C ustom
ls Type
Ġimple ments
] {
scal ar
07 9
In f
2 10
Ġpla in
Ġw rong
('/ ')
te ction
ans wer
ĠPer son
gous kos
44 4
m ot
frame s
f act
34 8
Item s
Ġex ternal
py test
39 6
h ide
cap t
on ical
FI ELD
F l
Ġde le
' ',
ÂĮ ",
A meri
Ġimport s
Log in
sm all
ly ing
> ",
ĠS ec
ÂĤ ÂĴ
MET HOD
Ġ( ('
* \
Ġc b
Ġb ig
k y
il li
24 2
Ġret val
69 3
Ġ'/ '
F OR
lo pen
ĠS ession
V irtual
m ul
L iteral
Ġp ush
Ġbu ilder
K EN
b ine
h ist
qui et
Ġsql alchemy
an i
ĠW ork
t m
201 9
Ġof what
der s
se mb
Ġun pack
35 3
Control ler
S ave
Ġt s
99 2
Ġpo licy
ĠN E
ĠS tr
ÂģÂ Ĺ
CONT ENT
Ġz ope
In formation
fig ure
Ġth ree
? ?
165 993
Ġe p
contin ue
1765 48
Ġm iddleware
br and
k it
173 692
34 3
EN CE
37 0
ir th
Pro mpt
j avascript
S ample
lay ers
u z
LO AD
vo ke
Ġ10 24
D est
pe g
Ġda ys
Ġs lug
Iter ation
ti re
Def erred
Ġcon t
Ġcontrol ler
len code
line ar
Ġlet ter
/> .
ab stract
ĠL ay
Ġw arn
mo ving
ĠCHAR ACTER
99 0
82 8
T P
39 0
MA IL
P IPE
w alk
O B
DE X
ĠDoc ument
AS K
Ġc ard
Con ver
64 3
uti ful
u ad
iter ator
ÂģÂ Ļ
n ed
77 5
: ],
Ġma kes
cal c
Ġcomponent s
Ġfail s
Ġn one
Ġspa ces
content types
di e
V ideo
r aries
R C
comp at
check er
ĠS up
35 8
Ġe quivalent
77 9
pro cessed
ĠDE BUG
Ġwe ak
YR IGHT
Ġcre ation
ON G
ome r
Ġcal ler
Ġlocal s
Ag ent
Â¤ Âķ
ĠL IGHT
ten ce
vision ing
ar row
Bin ary
r adi
ĠEXAMPLE S
2 18
Ġsh ift
Ġ) .
T ab
ĠH ow
per cent
ffer o
ME DI
EV T
set Text
D V
ri ve
loy ment
Ġdef er
Ġget s
Cho ice
ĠA ffero
y outube
c ategories
al lation
ĠT min
ĠC IR
F B
process ing
unc ate
u df
Ġsum mary
w ar
for ward
ue b
Ġren dered
rozen set
VID ED
failUnless Equal
ĠU sed
S M
85 3
Ġsim ilar
L IN
ul k
er nel
Tran sport
Ġ4 01
07 5
FF ER
publish ed
Ġw on
ise d
ĠT max
s amsung
ĠIN CLUDING
pre p
AER ESIS
Ġcoordin ate
ut ors
Ġwe ek
ĠT C
ĠDI AERESIS
Ġ1 28
55 8
Ġpre tty
37 3
ar ange
pl ural
ĠA nd
G lobal
n x
m achine
ĠFIX ME
Ad apter
60 2
Ġretri eve
Par am
M AC
25 1
Ġresol ve
Ġs v
87 3
b log
TR ACT
', )
Ġ4 8
SO UR
77 4
Ġsub classes
ĠS Cons
ĠRa ises
local s
29 3
P art
39 3
Ġe ffect
201 3
Ġra ther
process ors
write Field
re pository
dentifi ers
AR D
33 8
AB ASE
b rowse
Ro le
Ġt a
02 1
te le
bi lities
ĠLo ad
Ġ' ':
P A
85 8
pix el
precation Warning
v Ãĥ
distribu tion
E Y
ĠSe lect
ĠB LOCK
ĠC lsType
query set
ĠS Y
' ve
Ġa m
sy ntax
= "",
at ar
C jk
co ord
D IS
change s
d p
Ġare a
S tep
st mt
Ġp ub
B asic
ĠG ET
Ġcheck ing
ef ficient
') ))
Ġsm all
Ġtri gger
Ġpre pare
OP TION
Ġhttp lib
ri s
Ġsource s
UM N
Ġm achine
co un
S ome
l ar
ĠRe quired
ame ra
co st
Ġro ute
Rece ived
Positive IntegerField
33 0
Ġwrap ped
def s
89 3
Ġn or
se ed
Ġo uter
Ġf ast
CO MP
_ ('
ĠPro cess
Ġar rays
s z
sec ure
Qt Core
k u
b old
th rough
de pendent
wh ite
ĠBu ild
Ġ ĠĠĠĠĠĠĠĠĠĠĠĠĠĠĠĠĠĠĠĠĠĠĠĠĊ
G D
P t
Ġapp s
time delta
ĠJ o
S cale
Te V
I deograph
variable s
compati ble
> =
ÂĢ ÂĤ
Ġmin imum
Ġbet ter
Ġsh a
un link
s peed
1728 22
ĠB Y
82 3
A pi
ĠF irst
Z ip
ir ror
23 1
ok ed
Ġde lay
83 8
ĠGL enum
dig it
de scriptor
H H
27 2
09 5
Ġde al
edit or
im ate
Ameri ca
Ġneg ative
ss h
ĠM ap
GE OS
Access or
Field s
05 6
re es
Ġag ent
List Result
)) *
ĠSer vice
f k
ER Y
Con tains
the me
Ra w
u aa
S kip
Ġme t
( ""
vel oper
C trl
pe ak
Time r
ĠT R
n chron
P lease
([ ^
au dio
ĠS ource
Un ified
Ġp adding
oo se
34 2
ĠF ORM
Const ant
Â¸ Âģ
S creen
Ġt rain
Ġ ul
mme di
05 8
os sible
Ġprec ision
Ġ4 4
conn ected
Ġor m
com ing
55 0
Ġstate s
F lags
O ther
Ġover rid
Ġs te
H ash
doc test
ul lable
29 0
ĠL anguage
Ġse gment
U CT
1660 33
F LEX
Â¤ Â¸
Ġ --------------------------------
54 7
tod ay
us ted
d v
ĠC or
Ġ qual
con sole
S im
Ġs alt
th at
wa v
ĠEV ENT
Ġremain ing
Ġ_ ,
Pro vider
ss on
source s
in ct
Ġar ticle
34 0
ĠM odule
Ġsimple json
Ġ 75
Ġs calar
po inter
ĠI nt
tern ate
09 8
C opyright
H elp
ar c
ea utiful
s ch
Ġrun ner
Ġc ore
'[ ?
find all
L im
Test Suite
VAL UE
ĠA uto
1777 18
ad ow
AC TION
inst alled
K B
uc c
Ġcol lect
R ed
20 21
So up
Ġs ci
Sm all
NO DE
C G
Unified Ideograph
Cjk UnifiedIdeograph
STAT US
h int
28 1
exist ing
C lean
^ ^
+ )
Con vert
Ġl arge
redic ate
Time out
Ġtask s
D ictionary
B l
t ach
wb mp
Ġax es
} ".
ĠDAM AGES
w ml
2 30
07 8
instance s
ĠU SA
c irc
sp ection
ns ity
IC T
mi ted
Ġm s
ĠT w
MOD ULE
pa y
Ġcon trib
Ġadd ing
N e
u fa
U sage
.* ?
fin ish
Authentication Error
ac er
ACK ET
sq lite
W W
Ġc one
Ġpro j
Bo ok
Ġs chedule
ĠA b
syco pg
22 22
te l
ĠPRO VIDED
c red
; '
S izer
Ġmember s
tit ude
67 0
sw itch
orn ado
88 3
CUM FLEX
ip pe
ar b
Ġretri e
Ġp ag
re try
r fc
cod ings
Model Admin
Ġvi m
cat alog
05 2
Ġth ing
T YPES
S ection
Ġcoordin ates
__( *
co eff
55 3
mbed ded
ĠT ABLE
= &
34 400
ĠCOP YRIGHT
P attern
u ous
Ġ 65
Ġqu eries
str ong
fix ed
Ġp i
ref resh
Ġexplicit ly
ref s
Ġreturn ing
Ġ ĠĠĠĠĠĠĠĠĠĠĠĠĠĠĠĠĠĠĠĠĠĠĠĠĠĊ
L D
as is
A X
Ġle ading
p w
ĠCIR CUMFLEX
serial ization
+ \
Sec urity
Ã¤ Âº
q n
Ġinclude s
Sta tic
Ġshort Desc
ble ms
Ġtop ic
ĠP ath
Ġprobab ly
M C
Ġpri ority
cal ls
Query set
Ġsend ing
ar tist
G IS
pre pare
CL DC
Ġ 79
39 2
R Y
Ġnode list
O wner
Ġcheck ed
D W
f tp
Ġli teral
ĠS hould
DAT ETIME
26 8
ĠCon text
is ation
67 2
ĠP h
Re port
ĠT oken
Defin ition
dis able
77 8
bound ary
Ġone s
Ġal t
channel s
Ġcode c
_ ='
Trans form
G ateway
Ġa ble
Ġ" (
ĠCon vert
Gener ic
AS H
eff ect
52545 34400
Ġ( [
06 8
_ ))
Ġ -------
S IM
assert AlmostEqual
hen ius
b es
imp l
AN GE
Ġnormal ize
tri cs
Ġread ing
ĠDefault s
66 2
Do main
p red
b est
C s
Fin der
dest ination
J K
d ash
ĠSt ream
u v
09 7
check ed
go od
ĉĉĉ Ċ
setup tools
tro ls
** *
O FF
Ġ 74
Ġi dentity
R en
nb sp
Ġu uid
b and
1669 50
sp li
> .
su ally
Ġexec ution
uc k
NU MBER
C las
UN K
in o
ĠEX PRESS
k k
ph i
Ġdis abled
! "
Ġf id
ĠMe thod
({ "
Ġf act
andid ate
U ST
+ -
Ġt xt
ph oto
=[ ],
RA Y
ĠSt art
Ġre ply
ac l
ce e
Q Application
Ġattemp t
Ġ= >
BU FFER
Ġlon ger
L a
lim iter
Queryset Equal
able s
u o
ĠAd min
P hy
Ġin f
35 2
C ourse
s ame
gan ization
ub a
r henius
TER N
R PC
tic ks
ĠS R
y er
Ġfor ward
P ASS
Ġ4 7
AD D
gra tion
Ġ{} ))
Ġs lash
Ġcontin uation
Ġen tire
L G
po ch
n Ãĥ
SH A
ty pecode
Ġ2 56
Com mon
A ct
rec ords
pol l
ub b
Â¤ Â¿
ĠM on
Name space
et c
] }
W H
activ ity
Ġpri or
ver bosity
s id
ns ure
or th
ot os
Ġre vision
Ġg c
count s
TEXT URE
kw ds
u dent
M erge
ĠTC list
En gine
H IE
Ġ question
Ġexec uted
auth ors
ra tio
org ia
Ġ200 5
Re mote
ol ds
request s
Exp ression
A fter
en c
69 0
s b
88 0
Ġserial izer
ĠP lease
Ġm uch
at ural
Exists Error
ost on
Ġag gregate
Ġsw itch
j u
ra b
Ġd river
Ġse quences
MID P
I A
sp h
Ex pected
assert QuerysetEqual
I dentifier
l st
in ator
Ġ ĠĠĠĠĠĠĠĠĠĠĠĠĠĠĠĠĠĠĠĠĠĠĠĠĠĠĊ
AR M
in ux
Ġarg v
s napshot
03 1
CHO ICES
To One
uf b
= ('
07 3
bo b
T otal
Ġtype d
/ ",
ĠS SL
ĠI Python
,' \
Ġpro perly
an ded
Ġapp lied
l b
component s
36 2
Reg ion
P op
TE X
ĠR el
1664 08
p ur
29 2
ph inx
09 4
ĠD ummy
m ust
Ġl n
44 7
S Data
z i
B A
W C
Âµ Ãł
Ġ4 9
Ġin dividual
Ġderi ved
ĠAs sertionError
ĠRe served
G en
str ument
_ [
S w
m ouse
set Object
Ġco okies
} '.
pe er
Ġevery thing
Content Type
T une
pre view
29 1
Ġ arch
Ġd ue
aaaaaaaaaaaaaaaa aaaaaaaaaaaaaaaa
int ain
e Error
ordin ates
ĠF e
qu it
Ġdoc uments
ur ther
man age
Y LE
In cremental
201 4
Ġhost name
AS C
Ġansw er
wh itespace
Ġs ymp
AT T
q t
ĠU TF
= \
en ded
Ġformat ted
Ġtrans late
~~~~~~~~ ~~~~~~~~
ip v
set Up
thread s
cover y
Ġdir s
defin ition
06 3
L ines
################################ ################
Query Set
node list
ĠPro duct
54 9
Ġn il
L isten
input s
Ġpop ulated
act ual
ient ation
Ġen ough
Ġsign als
; \
CHE CK
ĠT ask
iz ers
ĠQt Core
Ġc v
O IN
ĠHttpResponse Error
Ab stract
th reshold
Di stance
Ġcy cle
d ns
In ternal
split lines
str s
Ġ3 00
Ġp name
Ġch art
COM MENT
fi xture
P M
Ġcon version
to k
############################################################################ ##
const ant
Ġg d
Ġ4 3
Q Q
M igration
ale s
ET HER
Struct ure
ĠSH ALL
V M
uc a
ced ure
Ġa wait
table name
R I
format ter
Ac tive
A rea
Ġpre vent
Ġun signed
IS ING
Â© ",
Ġ9 0
S IGN
55 1
ÂĢ Âģ
separ ator
ÃĺÂª Ãĺ
S K
07 6
cs rf
File Name
CONF IG
Ġs uc
142 857
Tag s
account s
Ġpro c
Li brary
Ġl st
Ġs outh
64 2
Ġh y
k lass
Ġc api
34567 89
Ġthread s
Ġen ter
Ġr adius
RE F
cla use
17 88
Ġh ard
ĠM od
ĠE ng
ĠDoc Test
PO S
176 201
arch y
r gb
cal lable
ĠO K
Ġde pendencies
N ET
CO MM
b ra
form set
om an
ĠResource NotFoundError
Fe ature
work er
clu sion
MEDI A
Ġinitial ize
w as
in i
ĠSt ate
ĠLI ABLE
=" _
Ġcheck er
45 2
ĠC all
S W
() ``
Prompt Reco
re main
xy z
Ġv m
ĠB oston
"] ["
index es
cla ime
---------------- --------
v codec
ĠEn vironment
74 9
CRE ATE
an te
is ode
Ġcon ven
Ġe asy
j peg
o site
Ġmime type
get ter
re name
Ġp ower
c ate
Ġ Ãĥ
Ġi mmedi
g lyph
i en
vide s
R ight
ĠR ights
Error s
ad cast
ĠE OF
ĠAR ISING
ĠResource ExistsError
cy cle
Ġwho le
TO KEN
B UT
ĠC OM
Ch ain
Ġch errypy
te ll
O DE
ĉĉ Ġ
ĠPer mission
Ġf ragment
for ge
File name
ĠT ORT
ci pher
f un
65 2
Ġ ls
SOUR CE
ĠN AS
sw ig
Ġ ĠĠĠĠĠĠĠĠĠĠĠĠĠĠĠĠĠĠĠĠĠĠĠĠĠĠĠĊ
87 0
={ }
_ '
ĠClient AuthenticationError
F r
par tition
Qt Qt
spa tial
17 34
P r
ĠWH ETHER
tro op
gen e
iz ing
54 5
Ġf type
Ġcone q
Ġshow Indent
Ali gn
b et
ra se
ĠNO TE
c lip
ĠMy SQL
ĠCon st
COL UMN
f m
Ġk inetics
Ex port
GL N
Ġd s
Ġc c
Ġval s
Ġm u
ÃĹÂ ¢
ĠCON TRACT
ict ure
un ded
Ġ( \
b p
Ġgener al
87 2
read s
ma jor
= ["
b ri
alle l
se ss
ai lab
Date Field
Ġfl ush
L ong
' /
, %
Mo ve
ĠM OD
ĠS UB
//////////////// ////////////////
Ġc atch
tri p
Ġiter tools
R IGHT
E l
.... ....
inc ip
herit ance
Ġc mp
ĠH andle
Ġs ix
ns or
add Widget
_ {
fo ot
fin ished
ĠO ne
Se q
n n
m utable
etri eve
Ġwidget s
pe ated
* ',
l r
d m
Ġspa tial
Ġ ri
l Ãĥ
de ck
Ġto k
17 62
ĠD OWN
Ġprovi der
ĠCon nection
A IL
172 868
45 6
p time
ten ds
ALI AS
16 34
4 01
=[ ]
at al
Ġd uration
s ince
an ging
[ ~
, (
85 2
ser ted
ffe red
setObject Name
88 1
ĠSpa tial
ĠDAT A
Ġet ag
ÃĲÂº Ãĳ
Ġpro cessed
g ateway
c u
at ype
Ġc t
reg istration
Ġpixel s
SE PARATOR
Multi ple
In line
) """
Ġw erkzeug
D LE
86 2
T ON
Ġc irc
77 6
Ġadd resses
AA A
Ġstate ments
AT TRIB
e ps
ou ter
DAT ABASE
201 8
G Data
ib ling
] "
uc b
ome tries
ĠF ILE
Ġpl ural
de epcopy
Con f
37 2
ĠSe arch
k an
Ġci pher
ue d
a ma
44 5
Ġd c
ĠH older
06 1
c as
Char acter
comp any
G RE
pa red
"] [
ad j
49 7
Ġan ame
] -
T ube
__ ),
ue f
MET A
iter able
74 7
ĠSt atus
ol ver
Ġin tern
. '''
sv n
Ġab stract
Ġsy nc
re at
} ),
VER T
Ġp t
bound s
s rs
O b
ÃİÂµ Ãİ
17 63
m icro
Ġl l
N ull
ĠW ith
17 87
Key word
Ġedge s
ĠB ook
ĠV iew
li ve
st and
ing er
un ion
to ur
ailab ility
Ġde tect
? '
66 1
Set up
ae mon
avi g
ĠD IS
h ave
Ġas signed
S N
cer tificate
O BJ
sc ene
T r
P K
fin ite
sr f
Ġcalcul ate
book s
Ġe mit
gre es
e le
ver tex
ty p
n ested
Re quired
a ac
77 3
cur rency
Ġdiffe rence
Ġse p
st or
G ER
Ġopt parse
ĠT race
ĠD ist
Ġc ar
Ġet ree
P lan
sm art
U ri
leg ate
ment ation
S ur
Ġc lick
ur a
an chor
sifi er
C lear
Ġg ran
tr al
let ter
55 2
S IG
Ġpo sitive
ĠF ake
P layer
BL YPD
ph ab
ac ted
34 1
I p
Ġsymp y
diffe rence
ST YLE
W ISE
Ġdebug ging
ĠAt tr
'), ('
QU E
ĠC ount
Con tact
ĠOption s
('' )
)* (
or ator
Ġc s
ĠS TR
ĠP age
Ġn ick
co ur
a N
ĠLoc al
Ġm argin
section s
End point
ĠC ho
current Time
Ġwork er
leg al
con struct
an cy
host s
IM AGE
ĠStop Iteration
44 3
ĠP ri
Error Format
Ġhand led
() ])
Ġin correct
[ %
P ublic
, ,
si a
ub f
al p
VE L
H as
09 6
uc f
75 7
k inter
ua f
: /
ĠJ ava
ĠURL s
ĠP ack
ĠI F
89 2
ste ps
ub c
Sp lit
) |
Ġdefin es
ĀĀĀĀĀĀĀĀĀĀĀĀĀĀĀĀĀĀĀĀĀĀĀĀĀĀĀĀĀĀĀĀĀĀĀĀĀĀĀĀĀĀĀĀĀĀĀĀĀĀĀĀĀĀĀĀĀĀĀĀĀĀĀĀ ĀĀĀĀĀĀĀĀĀĀĀĀĀĀĀĀĀĀĀĀĀĀĀĀĀĀĀĀĀĀĀĀĀĀĀĀĀĀĀĀĀĀĀĀĀĀĀĀĀĀĀĀĀĀĀĀĀĀĀĀĀĀĀĀ
jo bs
Mo zilla
Ġdisplay ed
Ġlong Desc
Ġre striction
Ġme mo
" %(
do ctype
i ro
0 25
Request Handler
Ġs n
m al
Ġvis ible
36 1
QU AL
Ġg u
27 1
Ġ1 02
err no
Ġh it
Ġcur r
ĠDe lete
A ss
builtin s
Un able
A sync
S uccess
TEST FN
st rap
ĠM edia
Ġmin Occurs
Ġexact ly
R ST
ĠAdd ing
Ġan s
CAC HE
en coder
Ġsq rt
P lay
Ġhash lib
set Key
W h
par tial
Ġrepresent s
. "),
resourceGroup s
FF FF
Ar ch
file path
=' '):
Ġd om
W A
ta x
st an
ER IC
59 7
Ġload ing
Ġb c
Ġqu otes
al g
Ġerr no
Âģ ",
pro mpt
L P
ect rum
Ġsepar ate
Ġh ome
log ical
g p
Ġmeta var
79 7
le nt
di ag
Ġt ail
man aged
uc d
Ġfl ask
cee ded
Ġt m
r ator
fi re
ud c
window s
ĠPro ject
Ġn umeric
uf d
s li
sur face
con s
Ġfig ure
ĠK EY
ad apter
LO CAL
Create d
Ġs peed
Header s
ro om
! ")
pt s
Ġp ending
Ġreplace ment
65 1
Ġedit or
sa ver
clean up
Ġ* =
Object s
ĠLay er
05 0
read lines
Ġloc ations
P ublish
26 1
Ġ" {
spar se
Ġcla use
du ced
set attr
1727 91
Ġspec ifies
o th
Â° _
Â¸Â ĩ
3 000
Ġ tes
ver tical
/ (?
se en
Ġtran sport
Ġo l
ve y
bi an
s alt
Ġform set
MON TH
63 8
Ġrecur sive
ĠE d
rad io
17 80
d ynamic
d z
Ġ1 398
> `
struct ure
={ },
Ex ample
Ġ/ ></
ĠG RA
Ġf rozenset
connection s
neg ative
88 2
ĠIS O
ĠM ay
} {
ĠOTHER WISE
SER T
67 1
c lock
') ):
CO D
uf c
() ).
Ġcre dentials
Ġcat alog
ho use
Al low
s aved
Ġsuccessful ly
b tn
ĠF oo
Ġ4 6
Ġcode s
Ġrelation ship
Ġth row
cur r
ĠCustom Constraint
s nd
FL AG
ME SS
ĠD es
pe dia
ua e
w ho
ĠGE O
Ġstart s
ĠE N
Ġback up
G EN
'[? ]',
Ġsub scription
ub d
33 1
Tune Z
AP E
ÂĤ Âĭ
Ġmin utes
ĠN on
phy sical
OP EN
Ġm ut
ĠS u
ĠE mail
N ORM
file no
=" /
ue c
W O
click ed
or dered
\\ \
y thon
ĠB e
ect ors
mon itor
m q
] (
1767 02
F UN
Ġpro mpt
ba seline
li z
64 1
li fy
In it
el low
__ _
let te
M AN
Ġtemp orary
Ġm aterial
ĠFor mat
Ġu i
Ġpar tial
Ġmax Occurs
ĠF in
Inst all
qu ot
Ġs k
Ġsci py
ĠAr rhenius
Ġf s
16 53
TH ON
Ġ 99
re size
C ard
ue e
Ġ""" \
07 2
ip s
ph ase
CO OK
86 1
ĠE mpty
Serial ize
Ġ ;
ĠGRA VE
88 88
Set s
R out
B ot
Ġexec utable
Ġreport lab
Ġ ke
Ġpoly nomial
ex tent
Ġnd array
Ġconn ected
: </
Ġbec ome
dis abled
Ġplugin s
'] ]
C V
44 0
AR CH
Ġ escaped
ĠR o
8 22
ĠB oolean
Ġman agement
m x
met aclass
En code
3 12
Mis sing
qu oted
ĠPar ser
Ġindic ates
Ġ" ''
Ġ Ã¢
H I
Ġcol s
d ll
( '''
(" --
spli text
Ġla zy
setKey frame
t abs
g gle
bi b
sc roll
Ġ Value
Ġglob s
U sed
l u
T LS
or ph
ter ms
istribu tions
de t
") [
it able
En vironment
d k
87 1
select or
Ġmatch ed
AD DR
ĠHttpResponse Redirect
min ute
ĠC ity
th rift
ĠAUTH ORS
Ġ'% (
Ġsepar ator
valid ators
target s
B LOCK
op tim
NE CTION
R ing
XX X
re peat
Ġ200 4
with out
200 4
is tent
Decode Error
Ġversion added
0 24
v c
Ġnil lable
Ed itor
str ptime
1783 65
DEF IN
ur lopen
85 1
loc ations
ac ters
16 66
er os
D jango
Sec ond
Ġta ken
69 1
screen saver
h orizontal
Ġc p
RO W
59 4
p adding
00 02
VAL UES
roll back
Ġsystem s
)) ),
Ġh idden
r ss
Ġ5 4
cre te
tern ative
ten tial
3333 3333
HttpResponse Error
prec ision
IL D
Ġis o
ig rate
M ay
0 37
[ [
names paces
ĠQU OT
ĠC re
Ġdi gest
clo ud
82 1
Ġe as
ĠHe ader
number s
uest ion
#------------------------------------------------------------------------ -----
Ġor dered
b id
ĠE a
logo ut
serv ation
St ats
Ġc ategories
he alth
Reg ister
K it
th eta
ĠSE LECT
mod ify
IN AL
M ul
M SG
44 6
Ġdid n
check sum
Ġupdate s
eg gs
S CE
bind ing
ue a
Ġrun s
ĠN etwork
2 80
q a
M ag
t Ãĥ
assertNot Equal
Ġcon side
Ġe ar
vers al
Ġvis ibility
ro spection
claime r
Ġcon sole
O C
Ġw sgi
Ġcheck sum
B S
de coder
hour s
C ategor
f v
load ing
05 1
Ġalign ment
er gy
Ġp rom
J ECT
T S
35 1
Ġde clar
ab out
ST O
add Test
h u
Ġunder lying
0 34
Ġar r
tri gger
Mod ified
Ġpass ing
in ted
n f
rand int
C ancel
c ion
ĠB ack
Ġexpression s
Ġca lendar
ĠDe le
F ull
Ġi de
L ib
Ġre d
expi res
Par tial
T ODO
; ',
ĠM ac
d h
37 1
ĠA L
45 7
en tities
Ġu sually
ub y
> ")
Ge om
Ġm igrations
Ġmap s
ur lencode
Ġ 67
Ġ !
par agraph
ID ENT
Ġby groups
Ġ\ \
3 11
cp u
Ġre try
Ġstar ted
= """
mp ath
NO RE
ti s
(' #
di alect
ter als
Ġs i
en sure
Ġk ernel
Point s
Ġ 97
ĠSt andard
ĠA CTION
mk dir
P ickle
13 01
Ġbegin ning
Ġindex es
Ġcer tain
Ġpe er
Ġhandle s
R L
Ġro uter
IN IT
on ts
Ġp lease
D OWN
Ġformat ter
O ri
AL IGN
int o
ĠQUOT ATION
2 11
char acter
=' %
. </
ile nt
Ġp ip
et ree
li a
Ġsimp ly
1 0000
O Auth
att name
r ating
FILE S
mag ic
bb et
multi part
ĠIP v
w t
ic a
ĠA ction
Ġinput s
/ *
ĠE nd
Ġ4 00
S ee
lib s
work ing
ri t
> """
74 5
Ġh ist
import s
tic ast
an o
Ġresult ing
k Ãĥ
pag ation
dir ty
Ġfin ished
Ġcreate s
V olume
ĠL a
CL A
Ġdir name
sta ff
################################################################ ####
3 60
al bum
177 053
... "
Trans action
lev ant
ĠE ntry
po li
qu ent
79 4
w ant
44 8
bbet char
sph inx
CO UNT
V V
h ow
00000000 00000000
align ment
Ġthe me
Ġn ullable
b el
v oice
Ġout side
An y
j j
U tf
ĠSy ntaxError
U U
Ġdoc s
ÃĹÂ Ĳ
ti vely
y a
ar ing
we ak
Ġj inja
Ġframe s
con firm
Ġfunction ality
k ick
09 1
Ġc ancel
session s
L R
ĠT LS
child Nodes
ĠA zure
ĠB R
17 32
89 1
sign als
lic ies
con t
NO WN
49 4
S chedule
ven io
re present
g pp
ĠE MPTY
ĠA SC
0 35
ĠS kip
style s
, [
Ġdiv ision
39 1
09 3
ĠG raph
f ocus
S pa
bit rary
ĠI ter
l m
com bo
LANG U
cut s
; "
R ot
th umbnail
ifi ers
Ġb r
resh ape
83 1
hex digest
Ġdis claimer
ĠSt orage
Ġa ren
mun ity
AR RAY
ĠHow ever
es h
Ġr and
Ġsy mbols
z oom
Ġso up
ĠM ax
Q P
h ar
ĠH E
Ġlex er
ĠN UM
ind ic
Ġw s
com bin
run ner
non ce
1763 04
E MAIL
Ã °
ÃĹÂ ĳ
decla red
at ory
r al
sib ly
tran sition
59 5
ĠL ink
h it
4 03
organ ization
x m
0 32
" ')
79 5
Ġpy lint
data store
Ġ 95
sv g
cry ption
M Y
capt ure
Ġoverrid den
HEAD ER
ag ing
gr al
b undle
Ġ{' ':
Ġcon sume
D ist
c gi
u sion
stri cted
Ġdo ing
Ġconfig ured
ToOne Field
Ġg uess
extr as
Ġf ri
Âª Ã£
p at
late st
obj s
c id
0 29
vance d
gri ty
r r
mid p
u an
mm ar
Ġ 84
b box
T CP
u ate
oc ity
W ID
un til
no st
Name d
Ġad apter
ĠIn st
og ram
ĠB eautiful
b z
Ġf urther
Ġd ynamic
SH ORT
u lo
Conn ect
en s
RE AM
C AT
5 01
auth entication
ĠM IT
Ġshould n
Ġcomp iled
Â¸ _
Ġpla ces
ĠT E
2 60
ur tle
post gres
Ġg r
SO CK
sp y
Ġc ross
Ġst roke
f lash
ach ing
4 80
ĠQ ueue
a ther
ĠM atrix
1654 15
on al
unct ools
STR UCT
j ava
Ġr ing
ĠIn stance
ĠG iven
bal ance
--- +
ms rest
b at
ĠRed istributions
Ġ ec
lex er
LE VEL
ro u
Re set
Ġcount ry
ĠRe ference
or a
F etch
h w
54 6
u tions
ou ch
Pri vate
EN TER
ĠCol or
79 8
IN CLUDING
Ch unk
BUT TON
IC Ag
C Y
l ator
ograph ic
Ġ7 0
Window s
ÂģÂ «
Ġreplace d
Ġcontain ed
Ġan aly
c ing
ob ile
Ġinteger s
Ġconfig ure
we et
P G
dered Dict
3 14
Ġserver s
flat ten
ĠF oreignKey
b en
Ġth reshold
SP AN
Ġpar a
Ġse ss
Up load
Ġfin ish
y m
mis c
Ġf ew
Ġex tended
20 33
fetch one
) ==
Ġpro blems
oc ial
Ġconf lict
IN VALID
Ġv ol
Ġp print
man ifest
C enter
4 13
Ġd y
AL LED
Ġse ver
T w
P lot
ke in
Ġm ouse
Ġrout ines
Re p
17 33
Ġstd in
li ps
C md
Ġre strict
l strip
ĠT ri
h g
pri v
Ġs napshot
Ġcount s
example s
Ġc are
Ãĥ Âº
UN I
Tag List
de ri
[' {%
Ġcompati ble
Rout ing
sp i
In sert
end or
Ġ ĠĠĠĠĠĠĠĠĠĠĠĠĠĠĠĠĠĠĠĠĠĠĠĠĠĠĠĠĊ
AP PS
de ps
D b
P l
IF ICATION
con fir
) (\
ARM ErrorFormat
ST ER
Ġ ser
ĉĉĠ Ġ
__ ))
Ġ( ...)
ked irs
m argin
Â¸Â ¡
ĠMA X
in ess
Sy mbol
Ġtarget s
Ġe gg
py c
Time s
Ġ er
f h
Ġ'- '
Ġp ipe
ĠTemplate SyntaxError
pro d
Ġnames paces
< =
Ġsample s
ue s
Ġdi alect
n z
', )),
Ġ" (('
da e
ĠV AL
full name
Ġn x
Â¥ Âĩ
Ġnode Name
: ]:
ĠV ector
D Q
07 1
li s
Ġgo ing
4 35
po ses
167 807
et ools
de precated
Ġq n
16 35
for ma
Poly gon
ĠA ss
Ġre duce
Ġg reater
07 0
'] "})
at o
ch dir
pi pe
16 72
ES C
ĠCont rol
SE QU
SET T
S U
ĠArg uments
Ġ"'' ",
} "
Ġdate s
Event s
er ce
Ġsh are
an cer
[' _
Categor ia
c ies
ĠS ta
99 1
$ {
P open
Ġindic ating
W M
star ted
Ġfollow ed
Co lour
Ġste ps
Set ting
^ \
Ġconside red
Â¸Â Ķ
edit able
D one
ĠEx tension
Sign ature
Ġadd s
09 0
DEFIN ED
(' \\
Ġb oto
Ġcomp arison
w izard
N MP
176 886
Ġ" &
Ġti le
ve red
date s
Ġrun time
Ġdef erred
or acle
p d
ri cal
Sh ort
p in
Ġ<= >
con v
Option al
G PL
Ġdimension s
F IL
qu eries
16 56
decor ators
Ġ_ \
ĠM ain
def erred
Ġ" ".
fore ign
pl t
vent ory
** (
se gment
Pro to
== "
tific ations
incip al
Ġf ul
Index Error
Ġ| =
er ature
k g
Ġ' :'
Xml Element
coeff s
Ġsh own
1653 64
ĠA tom
Ġsub stit
lit tle
3 65
lec tr
Ġs in
Lim it
Ġevalu ate
ĠP ossible
xxxx xxxx
P ixel
u str
Ġ ÃĻ
Ġan chor
Ġiter ation
ĠF rame
DE D
Ġserial ized
S B
t ls
T here
rece iver
AN Y
VER TEX
AD MIN
Ġn b
Ġto ols
range s
initial ize
w m
ist ic
Ġs rs
ĠF loat
la ve
r h
Action s
Ġc ast
CF G
assertIs Instance
De serialize
o res
SG e
Ġdep ends
ĠThe y
spec ified
ui tes
pla ys
Ġs r
a ys
MA IN
spa wn
0 64
Z ero
# :
1729 49
EV ENT
Ġin d
ĠA LL
Ġre start
'), )",
3 10
cre dentials
iv ing
ec ke
Get TypeId
uti lities
Ġr pc
EC IAL
ID E
cho ol
j id
! '
fetch all
rig inal
ORD ER
min or
Ġimmedi ately
Ġspec ification
si der
b all
lat in
ime n
si vely
Â¤ Â¤
ff b
Ġmag ic
Ġtime r
Ġde li
Ġstatic method
pa gin
M ail
Ġ5 7
ler ance
3 32
. +
ĠGL int
is ing
Ġpar agraph
and box
' ")
ĠN S
ĠW rite
h l
Ġ ĠĠĠĠĠĠĠĠĠĠĠĠĠĠĠĠĠĠĠĠĠĠĠĠĠĠĠĠĠĊ
2 69
) ':
T D
sc r
de pendencies
so up
Ġwh y
get cwd
Ġde tail
si lent
ĠM icrosoft
Ġdraw ing
App end
To String
code name
18 00
Ġh ad
95 7
QU ERY
IP S
age s
sig ma
User s
ĠContent Type
ÂģÂ ¯
"> %
STAT IC
de le
' (?
pro tected
P olling
ro les
L ROPoller
0 36
g id
x p
po lation
Ġc StringIO
ec ause
limit s
F LO
EX P
C y
AB C
ug ht
f lavor
AG G
uff ff
ER O
1762 86
b ank
mt ree
ĠH OLD
Inter rupt
ĠApp lication
ĠRe port
ff a
Ġ 87
Ġimp licit
W E
Ġj s
re aded
16 38
mark s
/ ?
! \
riteri a
cogn ized
2 36
li o
AT OM
Ġm k
c x
Ġd ns
0 27
Ġ0 2
ĠAttr Map
Ġrate Course
Ġp oll
str uc
scri ber
Ġas k
0 89
cl dc
0 22
in crement
A H
T OP
ul let
fi d
op ener
17 23
WAR NING
M ARK
Ġfail ures
ÂģÂ Ħ
leg end
f type
Ġserial ize
75 6
file obj
AP H
loader s
Ġdi ag
spec s
Key Error
Ġresp on
D N
Ġwait ing
W PBED
Ġcom ma
] ')
655 36
ic sson
ĠRes ult
74 6
Ġd uplicate
ĠN umeric
CE PT
open id
2 67
ĠGL uint
Ġ%} {%
Ġco ver
ĠN e
54 3
he el
text ure
Ġd x
de clar
47 6
cate n
79 6
v t
po six
Ġdefin itions
Ġf o
in dered
f ac
{ \
Ġline ar
Sy nc
B IT
j w
et ter
all close
Ġm ar
ĠElement Tree
ĠC a
re ment
ĠT ree
Ġper mitted
sh utdown
her ited
Ġlook ing
ct l
SE SSION
ĠF eed
termin e
ang ul
R ender
la in
77 77
ful ly
AOD SIM
PH A
Ġco ords
2 84
__ [
Ġ 94
bo th
Ġc m
un signed
ĠP ass
ÃĹÂĻ ÃĹÂ
Ġexpi res
( ("
ĠP Y
TRIB UT
Ġtran sition
C LO
v l
v r
7 200
Re al
ad tz
week day
Ġg it
Ġ( ),
Ġb g
''' })
B ER
E val
Ġf a
ca de
U til
ĠOper ator
attach ment
200 1
Ġclean up
O k
gener acy
ĠM in
Ġpro per
re store
166 841
0000 000
NE W
UB E
Ġ* _
ĠP DF
Ġ[ ("
ĠCur rent
Sum mer
Ġte ll
Ġretrie ved
gu id
Ġc ss
from Utf
ĠP L
Ġe f
al one
Ġe qu
ĠF ilter
con tain
Ġgran ted
59 6
Co ord
sy mbols
vi ation
An gle
D L
ad m
Ġhelper s
su ch
st ime
r x
C ar
OR K
st one
listen er
Q CD
ĠL INE
lo ss
un defined
Ġs rid
Ph one
gle t
7 00
As sign
Ġover write
desc r
Ġs leep
Ġresponse s
ĠLi brary
B F
" ;
with in
g amma
Ġhigh light
se udo
mor ph
"> </
> [
ap er
Y E
)/ (
H tml
S cope
ix map
C lick
Ġf h
59 8
ro uter
b n
ĠP unctuation
WID TH
ĠPost GIS
Ġqu oted
AAAAAAAA AAAAAAAA
pa bilities
55 55
Ġlog ged
Ġz eros
Ġoutput s
de gree
Ġh old
Ġlog ic
wri tten
U G
url patterns
Re pository
log s
A IN
Ġ" *
ma kedirs
17 64
Â¸Â ¢
ti a
min utes
frame work
TRIBUT ORS
add resses
Ġiden tify
ĠS ER
Av ailable
Ġc au
: ")
Ġdig it
Ġ 85
ĠC ache
Ġ5 6
us ters
- ',
Ġad j
Ġrece ive
n es
Ġa udio
DW MP
SCS MP
SCS NMP
One ToOneField
ĠT YPE
Ġinter faces
av g
Ġme sh
1781 00
i j
Ġper cent
Ġor g
S ys
S UP
compile d
tist ics
57 6
Ġr s
IN DEX
ĠM is
Ġde generacy
Ġweight s
ĠD etails
ĠC l
ex periment
Ġappear s
resol vers
pro x
] |
Ġc gi
p f
az y
49 5
Trace Source
ĠTh at
ur ope
ti ally
Ġg ui
By Name
Â¥ ÂĢ
ĠC A
ON LY
Tag Name
Ġte am
rece ived
R T
chr X
Ġrec ipient
Me mory
Ġ ĠĠĠĠĠĠĠĠĠĠĠĠĠĠĠĠĠĠĠĠĠĠĠĠĠĠĠĠĠĠĊ
19 99
ĠT emp
presen ted
Ġget ting
' %(
f requency
i prot
'' ')
ĠV ER
Ġch o
F ree
Ġt x
Ġinst allation
Ġ6 8
17 15
do es
h old
Ġman ually
press Route
Ġassign ment
L M
21 10
* ,
f ragment
ĠN AME
lin ux
Ġaccept s
Ġfi xture
(' __
G UI
xx x
Ġh ack
qu antity
Ġ* ,
ro uting
ĠL abel
Su bject
tab stop
45 0
i ence
Ġen dif
3 15
Ġth ough
Ġp df
ĠE T
Ġc wd
2 65
ĠCF G
iz ations
Ġf ab
W ait
Ġn l
ĠP lace
NORM AL
Clean up
Ġs ilent
ÃİÂº Ãİ
Ġmap ped
M G
part ner
I dentity
Ġf oreign
Sh ape
Ġh aving
167 898
int s
IN SERT
spa ces
Ġx s
Ġzip file
mm utable
ĠOr acle
ST REAM
Ġ services
Ġlook s
ĠP rint
Ġver tex
g m
Ġ-- >
SP ON
ĠA P
AT TR
Con structor
ÂĮ _
Create s
WR ITE
Ġc li
Ġ% %
son yer
M IC
EN G
el come
W in
IG NORE
ĠTrace back
) ``
Ġoper ators
m gr
IND OW
Ġ 88
sonyer icsson
Ġc he
| |
Ġspecify ing
Te X
Ġf req
KEY WORD
17 68
z on
Ġtry ing
Ġhour s
dis connect
DIR S
check box
Â¸ ",
chunk s
Ġf allback
head line
f Ãĥ
Elements By
B D
Ġlate st
si zer
output s
ĠD raw
0 69
ust omer
Ġc ity
Ġph ase
v an
as c
c w
Ġup grade
4 05
Ġde pendency
54 8
i co
OBJ ECT
re load
ĠCON TRIBUTORS
ver ts
Ġse ed
r df
Atom Base
Ġme th
F ill
R SA
Ġin crement
Re lease
position s
Ġfile system
T UR
por ation
l te
s cores
ĠB asic
$ ')
P TR
et ry
b ing
publish er
ur ations
Ġre store
Ġg ives
Ġformat ting
ed String
ns wer
LIN K
('/ ',
Oper ator
Ġ ----------------------------------------------------------------
v d
3 19
d ating
vi ded
ĠG D
01 01
Se gment
COOK IE
Ġwindow s
j p
Ġto day
RE MO
at qz
2 87
G O
new s
} },
Ġ[ %
unc p
Ġlib raries
Ġs s
l lable
Ġst ati
RE C
Ġb ib
ĠB ar
ĠS ince
i ma
74 8
] '},
ad ditional
Ġcon sist
Ġst ub
/ .
Ġper formed
T ry
No tify
Se lected
am b
S ibling
Ġinter active
0 77
p ect
c pp
op ro
level s
St ub
D iv
comp arison
AT URE
Valid ator
H igh
S F
HO ME
Ġi rc
0 88
Ġp ol
Ġsh all
de ad
ag ers
0 55
B atch
Ġno se
Ġ ed
cel ls
++ ++
Ġpie ces
parent s
h alf
size i
Ġplace holder
kel y
tw isted
at alog
ume n
SG IX
Ġle ave
ĠPro perty
ĠS im
Ġ2 000
ĠW hether
T K
de cl
P ay
n ume
de tect
Listen er
C ap
Ġ" ":
Decimal Field
ĠPar am
Ġsp an
Ġdep ending
Ġp anel
match ed
3 18
Ġend s
ĠCode c
3 86
Ġdecode d
D etails
card s
C i
c ross
a ign
Ġ ĠĠĠĠĠĠĠĠĠĠĠĠĠĠĠĠĠĠĠĠĠĠĠĠĠĠĠĠĠĠĠĊ
R UN
ar s
C alled
2 89
H F
j Ãĥ
AN K
Ġbl ue
el ve
Ġtz info
Process or
readsheet s
Ġx y
IFI ED
et ing
t ol
de mo
ĠBy te
IC K
Ġ Ã¬
z ph
Ġmod ification
D en
xml ns
hook s
Ġad dition
17 89
Ġno va
board Interrupt
, **
49 6
Ġ"% (
Â± ",
Ġauth ors
DLE WARE
] ;
Ġc ut
ma le
Ġframe work
() '
Ġar bitrary
Ġdistribu te
Be fore
Ġvalid ator
ad mi
` )
ĠM ust
re actor
ĠHOLD ERS
2 85
al a
mode rn
L AB
gener al
E LE
+ )/
v in
A sc
3 55
Ġme chan
Ġcop ied
Ġ3 02
me trics
check s
Ġis subclass
Ġmid dle
3 13
Ġat trib
CA SE
cry pto
fe at
Gener ate
B AD
Ġlo st
at an
ĠCo okie
MESS AGE
ĠT IME
fi xtures
Ġ-- -
T ick
ĠS ET
ret ch
Ġstati st
; &
z o
abc def
(" _
ĠP a
PASS WORD
site map
16 68
U V
i den
Ġ ticket
Ġpar tition
weight s
Y es
=_ ("
Ġ200 1
Uti ls
Cer tificate
a res
k m
Ġbase name
medi ate
ch allenge
Mon itor
Ġc ells
vi a
f loor
ĠC p
Ġf requency
A p
Ġ 69
si e
09 2
Ġn args
s an
Ġre tain
Ġp b
pa que
Ġc nt
V S
r g
ĠP e
Ġlevel s
Ġi dentifi
Â¨ ",
Ġi dent
direct ories
vers ity
al gorithm
efficient s
apt or
Ġdescri bed
Ġlanguage s
FORM S
ĠDele ting
L eg
ĠVariable s
serial izer
t an
'' )
remain ing
Ġassume d
conver ter
ĠLoc ation
Ġpre ce
44 44
Ġev t
Ġin cre
1664 38
def er
Ġmo vie
AC C
ĠO NE
DE P
an onymous
################ ########
4 12
ĠDist utils
x path
:: -
Ġd im
us sian
ĠTe am
test user
star ter
lec ule
Ġco st
Author ization
b irth
vid ing
no op
Ġ" \\
3 64
COD ING
Ġpy py
Mul ticast
il ls
Ġapplic ations
Ġen c
Ġg reen
k l
Ġsec ure
The me
Â¸Â ļ
S CHE
al o
/ \
Ġin serted
D U
RE L
FI RST
Act or
9 00
:// %
ĠPoly gon
Program ming
75 8
Ġe ver
fi c
Pro gress
per ms
h h
de coding
get ElementsBy
IFICATION S
ten tion
ĠT EXT
AUTH OR
Ġref resh
ast ype
Ġdec la
ow ski
Address Value
U UID
Ġc ms
SETT INGS
high light
17 10
y ou
Ġscope s
Ġren derer
< !
Ġs olution
G ame
ass oci
Ġsign ed
Ġe g
a codec
h ard
ac on
are st
1669 22
I FT
co lour
Ġrout ine
ĠUN DEFINED
M F
S can
al ter
ick ness
ĠAttrMap Value
sh al
ti vi
me mo
me asure
B IN
Ġco s
decor ator
86 01
Element Tree
17 95
par a
f ort
re m
Ed ge
fri end
: ')
ro py
pas te
ĠC ategory
Attribute Error
Â¸Â ±
Prefix edString
Â¤ Â¦
EN SION
Ġmask ed
"" ""
AL F
Cre ation
'" },
O ff
Ġ que
__ '):
ĠSe quence
FA IL
B a
st ation
79 3
ASC II
Ġbro ken
Ġ' </
1655 70
IP V
P ACK
ĠCont act
Sh ell
d rag
fi ed
ĉĉĠĠ Ġ
R R
ĠAd ditional
mac ro
IL DE
Ġparent s
Ġ 63
So ftware
Not Implemented
Ġph one
ĠInc rement
sa mp
IE W
ame nt
Ġp s
an ted
on gs
doc string
Jo in
IN ET
ĠBR ACKET
T AGS
Ex ternal
Â¸Â ¥
Ġre versed
ance stor
ak ing
ap is
ĠM IME
ĠP lugin
P lace
,' .':
Ġfile obj
Ġm igration
go ing
RE SS
Ġt ries
build out
75 0
LANGU AGE
Ġ\ "
L V
I ENT
Ġread y
Ġcontrib utors
ĠAc cess
B ro
75 3
char map
Ġpie ce
ĠC OL
Ġreg istration
CLASS ES
ĠNo tes
ph onic
c trl
). """
Ġo ccurs
Ġnet loc
ĠDes cri
ĠB lock
present s
rot ate
PARAM ET
ippe t
x sd
O ID
regex p
w ik
or rent
Ġtrans fer
Ġnext char
M esh
=' /
Ġfloat ing
NUM ERIC
ING E
sub net
spec tive
Ch art
n m
Ġpro duce
Y our
] /
n ers
ÃĹÂ ©
se g
Ġp red
support s
glob s
pri me
)) ]
on ds
Ġcomp ression
siz es
ĠCor poration
R adio
vari ant
Ġe ff
comp ound
FR INGE
Âĥ ÂĪ
lic ations
Ġsever al
a len
Ġco me
USE D
Un expected
ns up
valid ator
inter pre
ĠEng ine
Ġother s
Inter val
p ot
te t
id le
if th
al ive
al ls
sub type
auth enticated
Ġbuild ing
! ',
77 2
sw ap
st age
poly phonic
d ictionary
Ġmem cache
Ġma king
ĠHe re
Â¤ ÂĤ
1666 99
Packet Metadata
Ġ5 3
Ġt ornado
or se
th ree
Top ic
SGe ometry
w ind
sub title
ĉĠĠĠ Ġ
ĠApp le
Sign al
Ġindic ate
Ġjo bs
up grade
Ġp d
Small IntegerField
contin uation
// /
Ġposition s
ol ve
ĠV irtual
IN F
ĠD OT
super user
Ġvalid ators
Ġinitial ization
= (),
Ġr hs
un ce
Ġpro ps
: ].
la unch
FRINGE MENT
Ġun used
run time
deli very
Ġnormal ized
20 17
Ġmay be
ĠSet ting
Ġ% .
[ ]
#################################################################### ##
inter active
Ġscript s
h an
fin der
thread ing
ĠAr ray
ĠZ SI
Ġ Ãł
Run ning
ca mp
ud ge
Ġman age
"] ]
ĠAl low
annot ation
mp eg
Ġman ual
ĠName Error
P ower
? )
cap tion
ig ure
Ġend for
ate ver
ĠC alled
di ms
con sume
th ia
lock ed
59 3
'] =
Ġimport ant
ten cy
ard own
ÂģÂ §
4 32
ĠJ OIN
(( -
ch at
c ircle
Test Runner
14 400
ad or
ĠCommand Error
Ġ(' ',
Ġad just
fi ce
P ARE
c atch
ĠAb stract
0 20
SPON SE
an alysis
Ġb box
Ġ`` '
117 8
ĠTh read
rank lin
Group s
constraint s
ic i
F il
ĠB ut
QU ARE
Ġac cepted
ĠDe precationWarning
ul se
ase d
Ġb undle
E F
SE CRE
ĠU ti
; ')
B lob
ug gest
ĠCreate s
Ġto gether
ĠGener ate
ĠF rom
Request Context
Â¤ Â¯
Com bo
cal ler
OUT PUT
200 2
Ġac ross
A UT
e ven
m igration
go ut
") ]
A U
some thing
S elf
ighb or
Ġcomple ted
Ġchannel s
id a
se quent
la w
Ġp ow
Ġp db
6 18
ur o
ĠM igration
Ġread only
DE C
par ame
bs olute
ĠMOD IFICATIONS
v lc
Ġde part
ĠDIS CLA
GR AM
ĠT ILDE
ĠAdd ress
u u
pro b
man ual
jo urnal
helper s
ĠN ON
ar ily
Ġ tick
DI FF
recur sive
17 94
0 87
R ON
iction aries
et o
57 8
ĠASC II
"] ),
AT I
l arge
Ġf ar
ĠS UC
ren derer
/ <
atom s
Ġal loc
Ġsy mme
([ ],
file Name
77 1
nor mpath
Ġg ateway
a verage
Method s
/ -
oc ab
Ġchar ge
Ġf unctools
m ix
Ġrece iver
Ġde limiter
Ġ5 8
Ag gregate
question s
Reg istration
g ge
F ROM
Ġ4 1
]+ ',
w ave
45 8
Bit map
ĠEx tended
ĠE nsure
; ",
li g
et y
ÃİÂµ Ãı
4 15
mo oth
Ġbo ot
C N
ĠSet s
INST ALLED
Ġc rypto
E lem
f q
Ġ5 2
ff t
ÃĹÂ Ĺ
com munic
Ġposition al
={ "
I K
L ost
ICAg ICAg
Ġco lour
Ġf amily
n v
Ġt p
br ack
ĠCON NECTION
C ity
Ġskip ped
Ġen codings
und o
e y
Ġ1 01
Ġno tes
Ġ1 27
Ġmime types
am ing
D ummy
rag ma
74 3
get Attribute
Content s
Ġfull name
s quare
tr uncate
direc ted
4 36
H istory
j ected
trib utor
} $',
pass wd
... '
=_ ('
Field Descriptor
ĠP R
Ġt k
Ġp is
uc lide
2 66
le ts
Ġ 82
el t
tic ip
Ġ 66
Ġf our
jan g
cre ator
nd ic
ro bot
ĠU sage
Ġmac ro
le y
Ġ200 3
play ers
y our
EN CODING
poli tics
Trace back
Â¸Â §
Ġbound s
'] },
ĠA RE
jo int
Ġre com
ĠUni on
} ')
ĠVer ify
no tification
TIME OUT
GL uint
Re place
tod o
sp ose
ĠIn ternal
ĠRe gex
Ġ""" )
nsup ported
SECRE T
Ġpro cesses
ak er
lo ok
IM AL
Ġ ent
Node Container
B ig
st ra
PL AY
Reg istry
ar ound
ĠS phinx
166 554
edi ted
T X
ach es
min imum
i dentifiers
ĠN eed
b lah
ĠE l
Ġa verage
pre tty
^ -
un expected
ĠComp onent
Ġpe ople
wiki pedia
W INDOW
Â´ ",
D river
ĠSet tings
Ġcal c
Object Base
0 84
Ġtermin al
ĠS ave
20 22
Ġproduct s
C ENTER
in y
mo x
Ġ ERROR
author ized
Ġ' '))
44 2
cur ve
Dis patch
At trib
Ġget opt
ot ing
M ore
ge orgia
Ġno tification
ÂĨ ",
L F
An aly
Ġb a
ch ecke
(' ^
ce ler
ĠA BO
ĠRec ord
FLO AT
tw itter
Bo ol
1780 98
GG GG
ĠSer ies
Ġp sycopg
en cy
Ġpro duction
CON ST
fr ont
Ġpy gments
ĠABO VE
Ġun expected
Ġra tio
Ġ' |
Ġw alk
need s
can not
ĠC lear
Ġs an
lap se
W hen
mut ation
74 2
exp licit
make Suite
oly nomial
ĠDo es
Ġme asure
0 30
D H
6 12
Ġlet ters
n av
ĠC AR
Ex tent
' *
func s
kick starter
Ġp tr
Ġ1 80
IT ER
O US
pa use
Member s
Number Field
1724 00
B al
Ġ 89
Ġc lock
Ġg zip
ĠF ranklin
read able
Ġy aml
Ġd ash
sk y
At tach
man ent
L ite
ĠA g
ĉĉĉĉ ĉĉĉ
EN C
Ġre presented
dae mon
ap sed
D istribution
Pro ber
Ġc lip
Object Factory
Ġstyle s
ĠA li
Ġe m
Ġb py
Model Form
pop en
Ġmark ers
U A
OPTION S
ĠOption Parser
modern politics
ex tended
mi tive
54 2
Ġtri m
m Ãĥ
Ġp nt
Ġopen ed
m aterial
no va
Ġen coder
1638 17
work flow
Dis k
Ġinv oked
pa ren
Ġm icro
201 6
Ġ little
P DF
co ordinates
Ġre levant
Ġsu itable
W B
y ield
Pe er
! ')
andid ates
ĠX SData
Ġdeserial izer
getElementsBy TagName
ier archy
d on
Ġd u
166 049
p rom
ĠM ag
+ (
ar ante
3 16
Ġreal m
$ '
User name
Trans lation
Ġlimit s
Ser ies
pn fs
Ġfile path
GL enum
Ġth ird
ĠDate Time
Ġuti lity
un quote
foo bar
ĠF loor
LE N
UP DATE
ĠW ri
h p
Ġ[ {'
den ted
de g
bin s
d ry
ÂĶ Â¨
sy n
scope s
AP olynomial
he st
F ixed
ĠNAS APolynomial
length String
expi re
inger print
G Y
M ASK
13 07
Ġnorm ally
C la
W SGI
ĠProduct s
re view
Ġf un
ELE MENT
MID DLEWARE
3 85
men ded
Ġclo sing
l gdal
dis c
4 14
al ternate
f la
ari ant
Mark er
re tri
1729 52
Z a
ho od
bi o
Ġpl us
uff fe
Page d
77 0
Ġp hi
"> \
Ġman aged
H y
cap s
D ER
V IS
ĠTest ing
deli tem
Ġsub lime
Ġ' @
s ound
join ed
Binary Protocol
N L
radi ent
ener gy
ab i
en ume
Ġre name
3 89
c z
m ad
Ġstr ftime
Ġto l
Ġc pp
Ġme n
ĠRequest Context
C k
Ġma intain
vis or
temp t
ĠN et
ĠS c
ĠF l
= _(
Ġprevious ly
ĠGD AL
pe ople
ST OP
dimension s
? "
Ġ0 2110
Ġac cessed
rep orter
a lert
S lug
unc ated
ĠS end
Ġs quare
TE GER
Ġint ro
H A
Ġback ends
63 1
12 34567
op pi
Ġclean ed
Ġ- .
Ġli sted
gl Get
ĠM ED
]) [
ĠFe ature
Ġp p
Back ground
cry pted
17 14
Ġb al
ENT IAL
uff le
3 80
m w
Can vas
up s
alle ry
file names
sp ot
EN V
Ġro ll
E MPTY
Ġauthor ization
Ġsh ip
ĠR O
in ch
ĠE D
lat form
e h
checke qual
Ġflat ten
Ġc en
0 85
H R
97 6
Ġarg parse
R otor
po sitive
i mag
Ġcomp ress
0 67
LO B
fr ac
) >
E nc
w kb
95 6
phab et
Z SI
Ġgra mmar
H ub
ĠT hen
("" )
D K
Ġbound ing
assert Contains
Cl uster
K ind
Re ason
ÃĺÂª ÃĻ
has attr
ĠR ule
pa bility
Ġread line
o ct
ld ap
Ġprefix es
Ġma jor
wi max
si lon
Ġcan onical
3 99
[' __
Ġper mit
Ġ -----
fail If
Ali as
z ed
g uess
coun tered
Ġsub mit
aj ax
Ġconn ector
inv oice
w ill
ĠP assword
ĠT er
li terals
p lier
for mer
Ġte x
PRE C
riteri on
Ġpur poses
re moved
Ġwrap s
ĠE num
qu is
min us
(': ')
W ORK
L ATIN
Cer t
49 8
F ace
3 69
3 67
Ġhere by
qual ity
4 19
Ġ* /
ĠTw isted
ra mid
Ġ'$ \\
B T
ad just
le ave
Ġpa y
Â¤ Â®
graph ics
ĠP ER
av or
one y
havi our
0 65
* )
in spect
ĠW orld
Ke ep
Ġrequire ment
phy si
47 8
Q uestion
Ġweak ref
H AS
S ort
dist inct
ĠF ifth
max imum
loc ator
Sp ectrum
k d
not ation
############################################################################ ###
ĠI DE
ĠFree Q
Ġlink ed
Ġco mes
ĠS afe
':' *
Ġpur pose
PROTO COL
2 82
ti tions
16 78
mark down
H ex
Ġ(' /
te in
Ġwh ite
!!!! !!!!
S UN
] ?
ost ream
} '}
tic a
Ġsub set
k ml
ĠF L
Q Size
Ġph oto
ĠM atch
Http Request
Ġfil led
uplic ates
C apt
Ġ ĠĠĠĠĠĠĠĠĠĠĠĠĠĠĠĠĠĠĠĠĠĠĠĠĠĠĠĠĠĠĠĠĊ
al ways
AC H
4 24
lo dy
Lookup Table
Ġplat forms
sub plot
Ca lendar
3 87
Ġ= ================================================================
Class From
uto ff
ex istent
Char s
r sa
Re vision
Ġb eta
Tests From
Ġex tent
hy per
ne u
Ġ`` __
ĠMan agement
)) /
H and
pi oppi
id om
ms gs
doc uments
ordin ate
Rel ated
fi dence
201 5
16 77
." ))
Ġsur face
Ġmean ing
Ren derer
c api
177 201
L IMIT
v ote
4 25
b asis
54 0
Ġstr ategy
parser s
node Type
b t
Ġpro x
ar a
EP SG
Ġre pl
nd array
or ientation
Se par
Ġin struction
ĠIN PUT
ĠH elper
95 8
collection s
ĠU sing
Ġcombin ed
Ġn ume
Ġh i
mode s
Ver ify
track er
Ġresol ution
postgres ql
Ġa ff
6 39
Ġpy lab
Ġsepar ated
mid dle
LI B
Â¸Â ´
: #
Ġv s
pro duce
IC ODE
ENG INE
BE GIN
g ate
os v
R F
aci Ãĥ
CE P
W ITH
ver tices
3 17
contact s
L AY
Ġn stime
00 03
imen sion
d cap
ĠExp ression
F ri
(' {
ĠSH A
Ġso ft
tuple s
Ġw atch
Ġmon itor
Ġf rag
Ġde ad
ti f
Ġapp ended
Co unter
Ġoverride s
w v
ĠInter face
Ġ3 30
case s
Ġp g
Ġp c
ĠW ord
qu ick
ĠG O
Ġmod name
w k
ĠGEO SGeometry
ĠYou Tube
Ġdoc utils
au x
D OT
Ġqu ick
Random Variable
ĠDi rect
ĠS chema
me tric
EL L
T wo
4 10
Ã Į
0 83
4 07
ch i
on en
T Z
ĠBeautiful Soup
Ġs heet
ig hest
co v
Ġf ore
J ets
bet ween
97 8
Ġmo ved
sk top
ur ton
lex ers
Ġd aemon
ĠIN C
Ġindent ation
rot ation
Path s
Ġh ide
ĠOGR Geometry
75 2
ci dent
run db
0 66
Ġ7 2
s al
Ġpri ce
as array
E VER
p ic
button s
^ {
Ġman ifest
Ġk ill
ou ght
in el
ST IT
F ake
r mtree
=' )
59 2
Ġmark ed
Ġh o
i el
ĠC SS
Id x
Exec ute
rec ipient
M EN
Ġin coming
D etail
Ġful ly
Ġref er
G P
struc ted
Ġprocess or
ĠJava Script
00 04
Sum mary
pe ek
language s
CUM ENT
Ġin iti
ĠM any
Bz Bz
ĠB it
Ġgener ation
cal culate
Ġtyp ing
ĠGet ting
ĠP AT
M a
n dim
H ad
callback s
l p
PRO CESS
79 2
Ġ(' -
j inja
Ġstack level
10 800
\\ \\
ffi c
arg er
; </
h its
Ġt abs
St at
real m
Ġch oose
Ġfil tered
gra ms
sub scribe
Ġup on
Ġa way
Ġ[] ],
Py Object
s Ãĥ
Ġto po
be at
ÂģÂ Ł
place holder
ĠGener ator
G u
([ ('
94 6
E scape
Ġhappen s
Ġar tist
ILE D
Ġperform ance
an n
ime lody
d jang
Ġ lab
17 26
Ġmin or
D P
Ġinte rest
ĠRe place
py class
ĠT kinter
to o
Ġsee k
u di
d up
Q T
grity Error
sub lime
r as
Ġc f
ĠIN TER
Re actor
45 3
Ġver tices
ĠE SC
i um
Build Tag
tri m
6 01
CT T
Ġ1 20
Ġde coder
A MP
BuildTag LookupTable
pay ment
Ġac tivity
4 37
Choice Field
(" .
F ire
ol ding
Ġas yn
D J
Ġdest roy
Ġperson s
Ġ1 23
17 2033
ĠAt tributes
Ġcur ve
zz zz
Ġc Pickle
Ġbl ack
ud it
Ġd ictionaries
Temp orary
le arn
ve st
Dest roy
Ġ ĠĠĠĠĠĠĠĠĠĠĠĠĠĠĠĠĠĠĠĠĠĠĠĠĠĠĠĠĠĠĠĠĠĊ
pro f
inte res
Ġreg ard
N P
Ġre peat
ĠW KT
Ġoccur red
g ap
ĠIN TO
Ġth er
greg ates
__ ')
d w
Ġc ent
ĠT OK
R adius
style sheet
t cp
X K
velop ers
EE K
Qu ick
on om
loy ee
Ġme tric
ĠNUM BER
ĠO FT
es ter
(" !
re z
FR AME
Initial ize
li fe
Ġsh ard
sh i
C URE
Ġcon d
Asc ii
ĠS tore
Ġe mbedded
Ġno tify
Ġlo gs
STIT UTE
ĠP IL
RE SPONSE
Bu iltin
Ġissue s
C b
54 1
Ġimplement ations
m v
s x
Inf inity
ĠC lo
ĠDe bug
ĠInitial ize
pag ate
Â° "]
Ġper m
Ġcon firm
Parse Error
Ġrender ing
XML String
ig nored
Ġtrain ing
Ġs li
db urton
44 1
W GL
ĠI mple
ĉĠĠĠĠ Ġ
ces sible
Ġ------------------------------------------------------------------------ --
ĠB rowser
A sia
Ġpack ed
ener ated
gl Vertex
R S
Z X
update s
Ġw ave
AL OG
p icture
ĠAc count
s un
+- +-
2 86
_ ',
Ġdi ffer
ĠA T
Ġ200 2
Âı ",
Select or
Ġselect or
ĠU TC
an sion
Con dition
BO X
Ġst and
Ġlisten er
(( (
ĠMan ager
Ġcon v
' />
Ġst age
IL LA
)) [
Ġro om
mp p
ĠS C
dict s
vide os
Conver ter
n ative
C irc
p db
gge red
ĠPar ameter
non zero
f V
Di ff
et ype
( "",
1715 78
b idden
ĠSer ial
Ġdi e
Ġauth enticated
Tri gger
confir med
clo sure
4 20
Ġread able
Ġfin der
ĠHE AD
Ġconstraint s
struct ures
pop up
ĠP ort
play list
ĠGL sizei
qu o
M X
pro files
H z
S en
Cur ve
m alloc
Ġre load
RE NT
ĠST ART
Ġin herit
Â© _
$ ",
Ġ' *.
uclide an
SI E
__ '
ri ck
i ff
r ink
ri ch
w c
nick name
st ory
Ġlimit ation
Ġco ord
G F
Ġm m
MP olling
col on
IME D
P bb
: [
opro ject
to uch
G V
FUN CTION
soft key
h ub
tmp l
Ġun defined
the re
4 02
pro visioning
ge bra
py thia
auto escape
Ġcalcul ated
sc i
4 29
ĠSP ECIAL
H P
115 6
Con struct
v y
Ġm c
equal s
Al chemy
annot ations
Ġex periment
Ġpor tions
de al
for k
mo vie
0 99
Ġreference d
Ġ" ('
Ġz lib
kein forge
Ġa lert
g ml
Ġli ve
Ġsen se
Di rection
_ =
log file
Ġli ght
IP PROTO
Serial izer
RE W
il k
F o
Ġfollow s
E nt
File Path
5 07
li sion
TR ANS
conf lict
P ass
Ġ ################################################################
ĠPy Qt
g ray
n atural
require ment
S k
Ġal bum
Tag Iterator
te arDown
TH AN
ĠVER SION
py gments
to c
go ti
inter section
; ">
Z one
lo p
st reet
/ #
F ragment
ĠN ormal
74 1
Ġ ut
C JK
u er
ST D
P AGE
tool bar
hi tes
Ġpy class
ti ent
Ġ2 04
u ma
Ġh uman
H AND
ĠTOK EN
; ':
Ġ1 0000
ClassFrom XMLString
CHAR ACTER
LAB EL
Ġst mt
Ġ ĠĠĠĠĠĠĠĠĠĠĠĠĠĠĠĠĠĠĠĠĠĠĠĠĠĠĠĠĠĠĠĠĠĠĊ
S i
ff d
ighb ors
ĠStr uct
CC CC
Ġdirec tive
75 1
Ġload s
177 074
open Search
4 16
(' </
ĠD er
Ġcur ses
yy yy
Ġun ion
Ġsig ma
en ame
Ġpath name
l legal
'] ):
' -
n eeded
AC CESS
Ġ tenant
Ext ra
M ouse
Min imum
ĠB utton
4 18
sel ves
m irror
Ġsize of
SG IS
Sy llable
45 1
op rot
Ġpy glet
Ġpos sibly
v n
Ġa mp
Ġh alf
to ggle
morph ic
un used
u zz
( ",
Ġhigh er
Stream Reader
OGR APH
o bs
D ig
P F
4 27
Ġse gments
f w
ĠUni x
Ġ echo
Ġcomp uted
djang oproject
Go ogle
Ġmail box
the us
Ġtw itter
Ġc andidate
Over ride
0 81
A Q
Con sole
ĠKey boardInterrupt
B I
Ġ quiet
ch rom
Ġactiv ate
M LE
ata ble
hites pace
4 34
trans fer
Ġport al
ĠV M
17 1178
s ink
bo lic
3 88
: ,
ÂģÂ Į
f x
ÂģÂ ¦
ag g
6 25
k n
Ġ7 8
me theus
Rel ation
H S
R etrieve
Ġsection s
Ġthe ta
url parse
), #
6 15
tia Lite
Ġab ort
v v
im ated
P atch
Ġde gree
PAT TERN
Ġl d
Ġdetermin ed
ĠEx ec
Ġ# @
FE ED
ĠSh ow
Ġsee ms
Ġmin ute
Ġinterpre ter
ĠOver ride
79 1
St ar
Ġmaterial s
TUR N
ĠArg ument
ĠOr deredDict
align ments
Ġn ice
as te
ri er
lectr on
Ġ= ====
lic a
umen ted
d uplicate
ing ular
A O
sis tency
connect or
i max
Ġ' ').
Get s
Ġobtain ing
MT P
ĠM AC
F IN
Ġb b
Ex tr
te ch
$ \
Ġnon ce
Âĥ ",
ĠDescri ption
u j
Ã ķ
(', ')
ĠSR ID
ok er
5 05
d ark
RE PL
< >
ĠT uple
le af
ĠC er
} ",
PARAMET ER
J E
s ax
py plot
[ _
Exec ution
AC CEPT
ĠR oman
Stream Writer
f old
pr ing
D rop
auth enticate
As sert
y ellow
f action
ĠS w
f ec
in ary
ar rays
Validation Test
" /
ĠSUB STITUTE
require ments
h ot
h uman
4 22
C I
Ġman ip
Ġde epcopy
ĠM apping
script ors
Ġb log
IS H
' ;
ap ters
ĠS QUARE
Ġattrs D
Ġbo ard
P ush
j adz
path name
reg istered
ĠCa lendar
poly gon
IF Y
ĠC ED
Ġrot ation
1665 65
': [
ĠS U
IT LE
la de
b w
include s
oc s
49 3
d as
P cap
E U
ĠDISCLA IMED
view er
y l
Main Window
qu ad
6 67
ÂĦ _
ĠST AT
ĠDE VICE
Ġver tical
y o
F i
ĠCED ILLA
v card
SI X
Ġplay list
ĠUni versity
m f
schedule r
Ġth us
fail ures
Po inter
Ġcapt ure
ĠIncrement al
ĠS m
Ġsm tp
Ġre peated
1759 21
D ay
b ur
Ġwh om
Ġresol ved
web app
CEP TION
= ",
tele meta
Ġin tended
e asy
N ix
Ġrange s
CC SD
e of
' #
Ġatom s
0 82
ĠOr der
15 00
Ġtes ted
o sition
5 67
Â¥ Âĭ
T oo
} ))
pop ulate
Ġpro g
Jo hn
Ġty pecode
tmp dir
TO OL
SEQU ENTIAL
P en
ĠL ook
mo tion
Ġ serve
5 04
S ide
rou ped
4 59
l j
du ces
Ġ'* '
5 33
Ġsy n
Ġspa m
9 01
com ma
Ġs izes
Ġsen tence
ra ble
g oto
Ġsh utdown
; /
Ġ ĠĠĠĠĠĠĠĠĠĠĠĠĠĠĠĠĠĠĠĠĠĠĠĠĠĠĠĠĠĠĠĠĠĠĠĊ
18 000
Attribute Accessor
IT ES
UNK NOWN
h am
igh ted
Ġfor wards
Ġbutton s
sp midi
L ONG
Ġb s
ew idth
C ALL
r ated
Ġa ge
Ġpop ulate
sta ur
c ise
Ġpre p
ĠS UP
mu sic
ĠOpen GL
F ITS
Ġli kely
rec ipe
Ġ ve
ĠOper ation
I RED
ĠC LA
Ġ5 12
Ġop ener
x ception
ĠD istribution
fi sh
Ġtri ed
Ġbind ing
Ġ" ."
80 95
T lv
a head
ĠSE PARATOR
D RAW
Ġ$ {
Note book
Ġfi xtures
ac ion
Ġ7 6
Ġb rack
ta iled
Ġf k
ĠL ROPoller
IL INE
face book
p al
Sub scription
Ġz oom
Uti lity
=" #
dist utils
Ġform field
Sur face
E A
Ġst ores
Ġfr action
Ġannot ation
IL L
] )))
U an
normal ized
Â¸ Â°
rap pe
DE V
top ology
200 3
i ties
j ump
foo ter
par sing
Ġs it
[' %
short cuts
St d
ĠBE GIN
ĠAsync LROPoller
Ġ9 8
ĠIDE OGRAPH
ĠA x
Ġc ourse
O pt
k r
Ġsel l
(" #
Ġfile Name
ab o
W orld
comp ressed
h dr
Ġa ffect
47 3
Ġm time
Max imum
el y
OUT UBE
H idden
en crypt
Ġdirec tives
Ġmark down
Ġar c
Ġc red
Id s
H angul
AT ER
A W
Ġan alysis
" )))
Nix Vector
F ix
Ġf ac
ute x
1654 72
Ġsc roll
Ġp ull
U sing
Ġcon struction
Ġn ative
Ġ3 33
J P
173 198
g zip
F actor
Res olver
S afe
iter values
Dec lar
17 73
Ġw ifi
Ġcon trols
app ings
d de
ĠR PC
tri al
Ġpa st
] ",
Ġc as
Ġtri ple
u ary
URL Field
ĠH O
3 66
Get Value
Ã¥ Âº
ue l
ul ates
re start
RES ULT
Ġpro cedure
ĠDI RECT
' (\
ĠIn te
Ġde mo
match ing
t up
r find
De precationWarning
Â± _
GE OM
Trans fer
Ori gin
Arch ive
94 8
FIL TER
ĉĉĉĉ ĉĉĉĉ
G AT
ĠConfig Parser
Ġs aving
Ġgu arante
SE CON
[ @
pref s
ĀĀ Ā
st uff
""" \
k J
i h
Ġs ay
4 66
ten v
W D
ri ces
. <
Ġp at
17 58
Ġc pu
build ing
1734 39
( %(
DE SCRIPT
ick y
De p
ĠH ALF
ma ker
Rec ur
B M
Ġb ins
ĠW idget
domain s
b rid
5 02
Ġ ################################################
Ġno qa
Ġpre serve
tor rent
new line
W rap
Ġreference Type
ST EM
ĠOUT PUT
MI SSION
f allback
Ġp en
Ġcallback s
0 60
og r
un less
ĠL inux
decla re
4 06
e mbed
Ġb and
d Ãĥ
ami lia
author ization
ITE M
IN FRINGEMENT
E G
4 65
ime ter
ph an
Ġth ink
17 22
+ ("
Ġstatist ics
Ġf ire
arb age
Ġde tected
g w
mime type
Sc roll
f rag
T V
ĠJ ust
one d
re served
ĠSpec ial
012 3456789
Ġi r
ĠDE AL
at in
d raft
tri ple
Ġt d
Ġ"/ "
1784 21
Ġm i
ĠIN DIRECT
ĠPo sition
tivi ties
Z W
Ġcur s
Re st
4 39
R FC
47 2
1672 84
C d
am ble
Ġv ec
Ġsub net
H ook
F M
Ġo cc
Ġsub sequent
Â§ ",
e z
en ario
ÃĹ Â¤
ĠCON SEQUENTIAL
reate d
r w
imp orter
Ġauth enticate
um s
ĠF R
L AR
Ġ= ================
ĠU UID
ÂĢ ÂĻ
ĠA D
PY THON
may be
vari ance
C ERT
ati s
ĠN ull
per form
Ġcon sider
ff c
Ġsession s
Ġl hs
DESCRIPT OR
Map per
sub stit
Bound ary
no ise
um ing
ĠDe fin
sub mission
float ing
Ġre lations
5 77
ĠCon n
Ġup loaded
57 3
ĠF I
VERT ICAL
s ter
Ġs id
lan e
ĠF E
Ġ' ..
Ġatt ached
Byte Size
ENT RY
T U
H o
a ir
sh ard
writeField End
writeField Begin
Ġ 86
Sh ift
ĠCLA IM
Con sumer
ill ing
qu otes
6 13
UN ICODE
Ass oci
Ġs low
Ġpr inted
4 30
app le
Tag Buffer
cmd s
lan ation
Ġweb app
mask ed
ti fact
C SS
Ġw ish
hi er
ber t
T W
angle s
12 00
il le
Message Box
in formation
ĠTH AI
p ip
ph rase
Ġe ps
F it
Ġclas sifi
Ġto do
aaaaaaaaaaaaaaaaaaaaaaaaaaaaaaaa aaaaaaaaaaaaaaaaaaaaaaaaaaaaaaaa
ĠDEAL INGS
74 0
clo sing
Slug Field
Ġdo ctype
cap acity
Incremental Decoder
g rate
ĠCo mple
B G
T x
Ġcr ash
annot ate
7 01
? >
Ġqual ity
R M
6 19
j ection
Ġf aster
G iven
ce le
4 55
V ED
termin al
Sec ret
59 1
ĠO p
flow Error
b ulk
ĠI ns
Ġ',' .
Ġther mo
ÂĤ ÂĮ
ĠCom mon
appro ved
Email Field
177 139
ĠS to
Ġcho sen
Ġfrom str
gr ad
1655 67
NE L
177 878
ĠW h
Unicode Character
Row s
176 697
Ġdatabase s
ĠLO SS
To ols
GL IG
ĠMo ved
2 83
cour se
Data set
si mp
6 17
ad os
; ")
BACK END
t ot
ĠNON INFRINGEMENT
ar p
log ged
M IME
box es
Geom Type
CH AN
SG H
con ditions
ĠDef erred
1654 67
ant um
T ip
17 19
scan ner
Ex tract
h m
Ġattach ment
dar win
requen cies
Ġd ry
st udent
COMM AND
c rop
TT TT
GLIG ENCE
Ġt up
ĠZ ero
sp in
pro duction
YE AR
w p
ÃĹÂķ ÃĹÂ
q q
Ġr fc
Sp in
1795 63
avig ation
ron tend
Del ay
Ġpro viding
N om
CE ED
I AN
ab ort
Ġo mitted
Callback Impl
Ġ' ='
Re q
ĠSu ite
i lo
Ġ| |
ĠComp ute
4 17
ĠD ictionary
Clas ses
Ġtrans formation
('- ',
Ġread s
issue s
________________ ________________
row n
St ation
ĠP ut
Â¸Â Ī
CallbackImpl Base
to string
ĠLine ar
47 0
) ._
i vers
NO W
z c
Ġderi v
uz zy
Re ply
ĠPro xy
Ġde s
separ ated
ĠPy gments
') ).
In clude
ĠT op
List s
AR GET
lib raries
otype s
cnt l
config s
z Ãĥ
Ġ9 6
E OF
f ar
map ped
ĉĠĠĠĠĠ Ġ
ta ke
Ġw kb
expand user
var name
ĠGeo IP
cal cul
m ixed
ATE G
ĠG PL
7 29
ĠSystem Exit
Ġwork flow
lo rer
ild card
Ã Ĩ
ĠF ail
Ġpa ren
relation ship
REMO TE
IO Error
4 33
sen ce
Ġwork sheet
Sup ported
sp acing
ore ography
d hd
pe p
a co
log b
en te
Ġhow ever
S heet
Ġ# "
f A
quire ment
C rypto
6 04
CON TEXT
and as
178 160
Ġf tp
Unicode UTF
ĠO riginal
Ġclass method
ĠLa TeX
Ġf lavor
h Ãĥ
Ġ{} }}
ĠQuery Set
Ġen countered
][ -
Ġtr uncate
r split
Ġm ix
start tag
Ġdefault dict
ĠO ct
g iven
NAME S
Ġf all
pro blem
BO SE
s uc
parame tri
is null
Output Stream
4 85
Ġs ites
p lots
rol led
post s
LE T
n w
Ġf oot
ĠS V
load TestsFrom
M Q
7 05
5 37
r hs
Ġid le
Form Set
CC C
ol ated
Ġas cii
P i
hand shake
ho o
T L
Ġmer ged
} :
eck o
Ġmulti part
O TE
Ġdescri bing
Ġbe haviour
ro me
fo od
Ġlog ical
pp rint
Ġrec v
o x
dhd ft
Ġm ach
Ġoption flags
k now
th ough
an other
inter p
can onical
Ġd rag
Test Class
P ipeline
pie ce
Ġ( ))
ĠD own
Ġsub mission
1678 30
as ing
aa a
Ġla unch
stan tial
m r
Create ClassFromXMLString
ĠPRO FITS
Ġ[' <
second ary
L ight
Ġp hy
wait ing
1781 16
real path
Fin ished
Widget s
imp licit
un ix
/ ")
order s
ĠBy tes
m n
Ġpo six
0 86
ig en
Ġ%} ',
J son
ion s
p on
ĠG tk
Ġ{} ".
7 67
Li ke
Del ta
link ed
Ġsite map
boot strap
Ġ\ '
Ġst ory
om s
ĠM ET
Ġc x
3 82
8 000
it a
F ocus
til de
Incremental Encoder
Ġf cntl
Ġsub title
Y ear
Sup er
0 80
th en
5 27
P ress
N B
me nd
Ġn t
Y X
H ar
GE O
ĠM et
EXP AND
com bine
I MP
sub set
m sto
Lo ss
7 55
ĠNE GLIGENCE
18 18
1667 63
A Z
ub i
ise ct
msto ye
go al
block ing
Function s
ĠB ecause
Â¸Â Ħ
ĠReg ister
th an
5 88
T B
M OT
M ar
av ail
4 54
H ome
Ġextr acted
ĠID s
14 29
UB LIC
AL E
N ow
G LE
Ġd lg
| %
Ġgo es
R U
C AP
ĠA CC
Ġsy nchron
ĠT WO
, *
len d
k v
He ad
ho u
Ġpa lette
urn ished
Ġh orizontal
1784 79
ĠTH REE
1111 1111
B IND
ÃİÂº Ãı
etri e
base string
te ad
ĠDe veloper
ang ular
Ġexpi red
code d
ĠM enu
led ge
ĠI d
Ġsub stantial
Ġs izer
ĠConst ant
+ )\
set ter
E urope
'^ \
parse String
1667 01
Ġon to
msg id
Resource s
Ġ1 50
POS ITION
o la
QtQt QtQt
Comp ute
staur ant
Â¤ Âļ
Ġsub license
Ġregex p
16 13
Ġhost s
Uni que
form field
H i
Ġclient s
redirect s
ISE D
7 22
Protocol Buffer
49 2
MULT ILINE
V IEW
s qu
temp dir
W EEK
M neu
Ġe mp
append Child
K G
Gener al
am big
head ing
- (
( ...)
Âĥ Â«
Ġdefin ing
I OR
ĠSUC CEED
Ġrequire ments
5 29
Ġt c
in et
G tk
OFF SET
Ġre produce
f lex
Ġkw ds
Ġel t
5 24
* '
7 07
t te
5 03
Sup port
Ġro les
ĠMulti ple
resp ond
SIGN AL
Ġr gb
g ons
(' [
Line ar
sh p
16 04
e th
organ isation
Sw itch
la titude
PRO JECT
(' >
ul ong
mo v
z n
Â· ",
S an
as set
ro ut
dis card
cal ing
c am
ĠSet up
rot tle
Byte TagList
al u
177 875
Ġwh atever
in tr
Ġ ĠĠĠĠĠĠĠĠĠĠĠĠĠĠĠĠĠĠĠĠĠĠĠĠĠĠĠĠĠĠĠĠĠĠĠĠĊ
q p
R D
ĠUn it
Div ision
ĠSpa tiaLite
d rive
g hi
(" [
ot s
ĠSign al
Ġin string
field name
4 08
e qu
FT P
B reak
sp s
Ġp redicate
sh op
access or
Ġfri end
ĠG ecko
Ġxml rpc
Ã¡ Âº
Pro ducer
Ter min
Ġdecla red
17 12
am f
vi m
ar logb
B AR
ĠB lob
ĠC opy
? ",
font Size
medi um
Mon th
kw arg
Ġc type
gener ated
ĠLo okup
c amera
ĠB US
d temp
ĠU SER
re versed
AUTHOR ITY
tifi er
N eg
pos sible
F ault
Ġc d
86 13
fo x
# @
a tives
ĠG u
VAR I
6 69
Ġleg end
14 88
5 16
Ġde grees
e ach
ĠExtended Context
th ost
Down load
ĠDi stance
I H
R UP
ct xt
ĠTo ol
Ġvari ant
GL X
7 89
el ocity
Template SyntaxError
Ġtar info
Ġmechan ism
v b
ĠCheck s
r at
w rong
a qz
Ġn c
N aN
Ġ}} </
Ġb us
Ġ%} {{
11 01
B us
ĠM erge
communic ate
=" %(
Ġs sh
d og
Ex pi
ĠT ra
97 0
lo s
Rece ive
ri cs
Ġ1 10
******************************** ********************************
E mp
est ing
as signed
O ct
' ``
Image s
gram mar
s nap
ĠJ ob
L ow
gd k
utc now
raw data
) %
Ġ0 1
t bl
tion al
Ġintern ally
se quences
Ġby ref
6 20
Code Field
f el
a etools
Event Impl
ti er
Ġpy tz
Ġm utable
. ':{'
ĠESC APE
j un
re lations
t types
round s
Spec ial
CLO SE
Ġfr ont
TraceSource Accessor
vi te
Loc ator
M at
S MTP
F K
dispatch er
UT C
hen ning
ite ct
Ġlo ops
B i
Ġd up
() `
cmp v
MAT CH
Ġal le
z K
S core
sql alchemy
Ġc e
parametri ze
Ġdict s
79 0
e red
e u
Ġprom ote
set Level
ÂģÂ ¨
sc a
Ġcau ses
V ICES
Ġro spy
Ġre view
i map
MEN U
6 29
9 87
i mat
sub s
4 326
1769 33
Ġnew lines
> :
ci a
6 99
Ġcon sistent
= ("
Ġremain der
) "),
BL ANK
ren gth
Ġw ays
Ġcon fir
ON IX
MI MP
(' "
ĠL et
SCS MIMP
Ġsc ene
eval uate
Ġor gan
Ġ# '
Ġof ten
5 64
v g
Ġin file
let ters
'' .
5 34
trans lations
t un
v ault
Pa ir
6 14
option flags
j et
EXT ENSION
LOG IN
ID s
Ġproj ection
S te
G TT
() .__
[^ \
ri l
Ġt reated
i or
Re verse
g ain
Request Error
ĠSQL Alchemy
Sh ared
ge ometries
Âķ Â°
ĠChar Field
O H
T i
ĠG lobal
Ġal ternative
expi ration
ĠF ace
Ġimp orter
> """)
Ġ ĠĠĠĠĠĠĠĠĠĠĠĠĠĠĠĠĠĠĠĠĠĠĠĠĠĠĠĠĠĠĠĠĠĠĠĠĠĊ
Ġdeclar ation
Ġtrans lated
Ġs af
TR AN
get VarInt
Ġop code
ĠD OM
Ġhy per
For ward
mon ic
in herit
ĠS um
ĠACC ENT
pie ces
ex change
Ġrelease d
Ġl arger
P latform
ĠDE LETE
ĠP open
note book
AG T
Â¸Â «
ad r
DEC IMAL
de e
49 1
ĠIN T
IGNORE CASE
? ':
w al
s at
Initial ized
95 3
U i
g pu
x l
ĠAuth entication
LO C
Al pha
] ")
Uni form
Ġe poch
ANCE L
Cla use
47 1
ĠUn known
Debug Format
i mation
struct ured
w ater
fo ur
ĠHttp Request
D Y
Ġs ingular
W EB
SSI B
$ $
Ġdep loyment
Ġimport ing
Valid ate
Ġhand shake
sm tp
ĠS ingle
Ġf ocus
Hangul Syllable
Ġ""" ,
Ġ/ =
P N
Â¸Â Ĺ
param type
m igrations
Time stamp
ĠW ill
V K
t re
En ergy
Ġspa wn
5 87
m ass
format ted
Ġinter section
make One
Ġdesc r
1710 50
ĠRE QU
brack et
Ġpla ced
time line
Ġpo tential
Ġtw ice
static files
no ther
ie ve
1718 76
Ã Ī
5 20
ĠVAL UES
Â¸ Â¸
INE SS
5 35
Ġn om
ed am
97 3
6 28
comple ted
v oices
v box
Ġre ached
ĠMark up
H older
AL PHA
Ġg code
mo zilla
172 163
bid i
node Name
F ACE
c df
str and
ĉĠĠĠĠĠĠ Ġ
EX CEPTION
p redicate
ud y
Ġst s
direc tive
E O
ANG O
S OL
tific ates
Ġdele tion
DO MAIN
Ġol der
5 10
En v
sp here
ĠDis play
__ ",
BU ILD
ĠL ab
return code
ĠGL float
8 01
ĠP op
> {{
B RE
_ ("
t al
5 32
Ġ Ã£
g al
27 27
F ONT
num s
ALL OW
ĠU S
Ġw ants
un te
Man agement
Spa tial
G U
ate st
Ġ1 04
f ault
94 3
Ġ-------------------------------- ----------------
LA ST
S CO
ĠOGR GeomType
_ \
59 0
ĠZ ope
BB I
separ ate
i q
p ull
Z A
Ġc ircle
f lip
sh adow
ĠE QUAL
ua len
B uf
Ġr ad
Ġde sign
} ]
N ON
]) ]
14 39
ĀĀĀĀĀĀĀĀĀĀĀĀĀĀĀĀĀĀĀĀĀĀĀĀĀĀĀĀĀĀĀĀĀĀĀĀĀĀĀĀĀĀĀĀĀĀĀĀĀĀĀĀĀĀĀĀĀĀĀĀĀĀĀĀĀĀĀĀĀĀĀĀĀĀĀĀĀĀĀĀĀĀĀĀĀĀĀĀĀĀĀĀĀĀĀĀĀĀĀĀĀĀĀĀĀĀĀĀĀĀĀĀĀĀĀĀĀĀĀĀĀĀĀĀĀĀĀĀ ĀĀĀĀĀĀĀĀĀĀĀĀĀĀĀĀĀĀĀĀĀĀĀĀĀĀĀĀĀĀĀĀĀĀĀĀĀĀĀĀĀĀĀĀĀĀĀĀĀĀĀĀĀĀĀĀĀĀĀĀĀĀĀĀĀĀĀĀĀĀĀĀĀĀĀĀĀĀĀĀĀĀĀĀĀĀĀĀĀĀĀĀĀĀĀĀĀĀĀĀĀĀĀĀĀĀĀĀĀĀĀĀĀĀĀĀĀĀĀĀĀĀĀĀĀĀĀĀ
k on
Ġ( <
Ġc riteria
Ġcre dential
Par agraph
c g
ca iro
ĠE xt
Ġ[ ['
Ġcirc ular
5 30
ĉĉĉĉ Ċ
Ġcom bine
CUR RENT
j ax
oper ators
ĠSp lit
S ig
Ġ6 55
Uni on
el s
o h
mo s
Ġ xb
4 67
P ut
ĠAss ume
36 36
Ġc id
iti ze
ĠSt reet
5 39
8 04
man n
as n
fill Color
vo tes
ĠMethod s
7 68
GL int
ÂģÂ ķ
cur dir
Ġcor ner
1655 14
D ROP
) })
hand led
field sets
EN ABLE
ACT IVE
7 04
Ġh int
Ġpar ticle
5 14
b lit
Ġt urtle
ĠM MP
ĠA fter
rp m
HE IGHT
ĠCAR ON
Ġde ci
', ))
mat plotlib
Ġm ul
LE ASE
7 54
V C
b ridge
ĠAc cept
4 75
5 000
B its
l ings
tribu tion
94 2
Ġcomple tion
R x
ai ve
1781 10
Ġpro t
Message s
Ġa i
ĠG UI
Ġor ientation
resol ver
the ader
is digit
ĠIns tead
ĠAl len
Ġ( `
ÂĤ Â¤
Ġmo lecule
DI ST
"] ],
OP ER
be havior
R ANGE
bu ilt
p sycopg
Ġin verse
Ġd ic
Ġinte gration
"] ))
17 1156
PO P
, ],[
present ation
P adding
Ġindex ed
Ġfab metheus
ul us
IC ON
W atch
tt l
ĠV is
Ġfe at
F ER
J S
Ġ------------------------------------------------------------------------ -
Ġlist ing
Ġn a
Ġ1 25
ĠT rack
G ra
duc ing
1723 89
Ġfast binary
Ġc srf
4 64
19 97
Callback Base
right s
export Literal
$ '),
Ġuni chr
ĠL OW
Ac tiv
Run timeError
G ot
ĠC he
to wn
ĠR etrieve
s co
re pos
Re striction
Â¸Â ķ
re cognized
ĠAdd s
8 66
ut ation
d os
ĠMo ve
ĠS IG
ĠIn venio
ch ase
se gments
IN K
t as
Elem Number
index ed
ĠJ inja
Ġpri me
1759 75
pe m
Ġ ĠĠĠĠĠĠĠĠĠĠĠĠĠĠĠĠĠĠĠĠĠĠĠĠĠĠĠĠĠĠĠĠĠĠĠĠĠĠĊ
L N
Ġhook s
Ġpas te
Ġnote book
optim ize
ÂĢ Âĭ
57 1
di ter
a ws
17 13
4 77
Ġj ump
en velope
iz able
fr on
Ġp ane
Ġre stricted
IP Address
Ġf urnished
virt ualen
Ġinstanti ate
Ġobj s
Graph ics
M i
ÃĹÂ ¦
Jo sh
th ird
5 15
OutputStream Wrapper
cap ital
pro cesses
Per iod
pro vided
assign ment
={} ):
av en
dat as
5 44
en ch
OO OO
ab lish
IPS IS
Ġvis itor
Ġch anging
Ġprint s
Re pr
Ġw kt
k h
final ize
" ^
ac ute
o mp
com o
Test Result
semb ly
re w
OD S
An chor
Ġgener ating
9 49
st ored
sub dir
Ġresp ect
). \
cer ts
Ġt reat
12 345
so ap
to s
[: ],
rec ent
Ġ& &
he ap
16 59
orted Dict
# \
Dest ination
: &#
S hould
Br ush
c us
Ġg st
Ġef ficient
url conf
c rc
in file
h b
A ML
ĠL iteral
f ld
Ġbit map
con ti
ĠT CP
4 26
Ġ' "'
gr p
ĠP EP
mem cache
qu ota
52545 344
v endor
track ing
Ġsecond ary
Ġsuc ceed
fin ally
J ar
y r
Ġevalu ated
Ġp m
root s
de part
G CC
h op
Ġm ount
Ġ""" """
5 65
response s
1769 29
exec ution
ch mod
WA IT
5 74
K W
in ters
Ġregion s
With out
Ġi dentifiers
ĠRa w
o ber
Ġt f
Ġtoken ize
top ics
DO UBLE
region s
Ġp ragma
7 02
ĠA UT
An alysis
lin alg
Ġlate x
S UC
$ "
:: ::
ref count
D ark
U nsupported
S ound
ĠS ample
res ume
DE S
Ġpref erred
Ġ' "%
Argument Error
n op
Ġpolynomial s
av atar
ic Mock
Ġmode s
SA MPLE
override s
expi ry
ac ific
w ide
E st
Ġiden tical
put PrefixedString
Ġ' ?'
__ ']
h es
Ġd ct
57 2
Ġf g
b on
teri or
ĠC ar
Con tin
Ġh olds
dep ends
4 87
Ġreg ression
Âľ Âī
7 37
h om
Ġcon structed
Pro c
sp rite
6 24
Ġo c
bri ef
N eed
ass oc
mad graph
Bl ue
so ftware
function al
local time
d td
A udio
bar s
M aterial
S lot
serial izers
A AC
ĠAP Is
ĠM ail
1732 41
gorith ms
an go
uni form
y label
ÂģÂ ĵ
ĠMe mber
Ġorder s
Ġtable name
ĠPack age
J et
Ġuti lities
163 659
ac cepted
"" )
ĠUn comment
ĠL im
p itch
INIT IAL
F V
ĠBUS INESS
Ġs pi
oc ation
ce il
STO RE
8 64
re tries
db c
ep isode
Ġtrans lations
Ġinterpre ted
AUT O
Ġfeed s
ĠEx tract
h adz
Ġpag inator
Ġcon ditional
mon go
Ġb az
Âĥ Âĥ
ĠA DV
cur s
(' !
ĠW in
Ġpl one
Ġm appings
7 39
Q V
ĠIN DEX
Ġoper ating
Ġ' >
bb re
Ġoper and
p lic
Ġlo t
B SD
Add r
AT CH
ĠW C
Ġpass wd
Ġor ganization
Ġen cryption
k j
Ġbuiltin s
Callback s
p od
Ġin c
TR UE
ĠT ran
ĠL A
Fr ont
Â¸ ÂĢ
Ġc rypt
9 09
Ġ Ãİ
ar ter
Ġ# ~
P ART
pa ble
Ġde ep
u ator
Ġt ax
mc ached
O VER
d ro
C ut
Ãĺ Âµ
ĠGeo QuerySet
80 80
pre pared
ĠEn tity
Ġbecome s
Ġ6 2
si l
silent ly
ee p
t ur
m ic
ag s
virtualen v
Ġbel ongs
5 13
W GS
TEXT NS
BO OL
4 60
Ġ/ *
5 84
Âĸ Â°
Ġstruct ures
ĠRa ise
5 85
ph en
V A
5 18
4 79
Ġpoly gon
me tic
Ġ/ ><
illi seconds
ĠH EB
ĠSTR ICT
5 75
Ġprobab ility
M aster
if ace
Vis ible
IP v
Ġs parse
ph otos
ĠR adio
clas sifi
Ġex tends
ĠHEB REW
(' .',
de pendency
A ES
ĠD NS
6 10
Ġwas n
h ance
Ġbuf size
B and
Ac tivity
ĠN T
jw allen
Ġbin ascii
Ġc aching
]) *
Ġiter ate
ĠAUTH OR
Ġt xn
5 99
Ġar row
: ':
over lay
+ |
HTTP Error
Ġ 83
di vision
Ġeval uation
PREC ATED
Check ed
PRO GRAM
ĠEV EN
Dec orator
le ading
Col lect
w ell
.* )
Ġ1 99
Ġdis plays
5 08
red is
ĠC lean
00 05
]+ )/
Ġjo urnal
f ro
IDENT AL
Ġre fe
activ ation
Or g
I ts
pe s
ĠJo hn
Comple te
ĠR SA
file system
ĠEx pected
6 37
Ġprint ElemNumber
in heritance
Ġver b
l f
s Operations
f ab
Ġ ~~~~~~~~~~~~~~~~
5 23
tra il
ĠU I
0000 01
el i
w r
lin space
ĠT r
co erce
Schedule r
$ %
ĠV AR
ĠAl ways
Ġlower case
8 55
Ġex cluded
Ġre action
ĠOR DER
Ġ2 02
ĠS ection
ĠM SIE
7 18
+ '.
lo red
']) ),
Ġth umbnail
Pro vides
9 02
Ġperson al
Ġn r
reg ression
| \\
5 19
7 32
Ter m
ber ry
6 89
Temporary File
Ġqu it
& &
ĠField s
F n
ĠSP ACE
eta h
Ġgo bject
Web Kit
e poch
Ã Ĵ
SSIB ILITY
ech at
S UM
m igrate
Ġtext ure
Ex pressRoute
ĠW hat
C LE
d ri
Ġ ĠĠĠĠĠĠĠĠĠĠĠĠĠĠĠĠĠĠĠĠĠĠĠĠĠĠĠĠĠĠĠĠĠĠĠĠĠĠĠĊ
11 00
c um
fo lio
and o
D er
ĠT ex
7 09
an ger
ho le
G NU
th ought
Ġsh adow
B N
a ware
Address Checker
16 00
j d
ab b
Ġte ch
no unce
T ARGET
get Page
interes se
Ġtyp ically
4 74
ad aptor
49 0
Ġconver ts
Ġb old
ĠH OW
W IN
L inux
ry ption
_ ]*
dash board
Ġb an
Char acters
W izard
mod name
au ss
() }
4 84
ĠC R
Ġgd al
Ġpro visioning
P ick
ED AM
ra pping
U K
con cat
ĠSER VICES
Ġ[' -
D imension
Mu Had
Ġconver ting
s ms
ĠW AY
and roid
))) *
Ġjoin s
# ----------------------------------------------------------------
... ")
Ġre moving
chron ous
5 69
X SData
ta u
pro ducer
95 2
CL IENT
Ġ(' {%
Ġend ing
sd k
ĠCal culate
Ġextr as
ippe ts
Con struction
ĠGet s
in strument
) `
re late
E os
p nt
ĠADV ISED
de b
ĠR oot
gr adi
READ ME
le e
Ġd ll
E K
par allel
Ġ`` (
#------------------------------------------------------------------------ -------
86 18
Sy m
Sub Element
prefix es
ag ain
con trols
N Z
Ġw anted
att ack
Ġ:: =
ome space
ĠSup port
physi omespace
Ġd rive
ien ted
ĠSU CH
st al
Ab out
wri ting
CONT ROL
ĠAuthor ization
ĠSpatial Reference
use rid
ocab ul
Ġexec uting
8 65
S pring
Ġt rial
20 29
CODE S
D M
py game
Ġshow s
ic le
C MD
1667 82
H ow
om ial
Ġhe ap
ver b
ĠINC IDENTAL
Ġdistribu tions
in voke
ht c
Ġen s
Ad ded
bro ken
Ġ'< %
Ġ= ================================
ĠG MT
UN IT
No tification
16 12
se cs
out box
Ġedit able
start s
set Value
Ġstrip ped
co uld
Ġun quote
YP T
57 0
Ġin dependent
') ;
Ġcom munic
Ġ2 50
l hs
ĠTrans action
ER P
(" '
break s
97 1
use c
an der
NE CT
in der
open stack
ĠEX E
ur able
MIN US
ĠPO SSIBILITY
son g
Ġo id
8 77
comple tion
Ġn an
ip ment
un ge
5 17
work space
Ġsv n
Ġsuper class
t alk
ĠR ender
Ex tended
Ġmo ment
c ustomer
ev t
E nsure
)) /(
ĠSy mbol
+ /
gen ce
Ġdescri be
`` )
b v
4 99
Ġredirect s
o li
4 89
Ġ------------------------------------------------------------------------ -----
Ġ( ``
": [(
uf ficient
Ġp ress
u li
I ZE
ĠIn fo
Lay ers
Ġde velopment
() ['
Ġdist inct
lip se
Ġsm aller
ĠValid ate
lin d
tim ing
caten ate
Ġre ci
P ixmap
TT OM
S n
Ġin herited
bit map
Tra iler
216 00
- #
], '
6 64
ĠE ither
Ġopen ing
ĠDo main
arch ar
Ġde que
ĠTe mple
S Q
vis ibility
ro utes
Ġm irror
cur acy
Ġrecom mended
=' ''
member ship
D EN
Ġ served
is s
9 59
Ġd l
ĠSY LL
com m
ach er
con version
long itude
Ġre ported
pk t
Ġo ps
7 19
D uration
[ ::-
9 05
6 34
7 34
se ason
VER BOSE
../ ../
tran spose
G MT
Ġeas ier
g un
ĠGO ODS
serv ations
x label
(" '%
ĠF igure
Ġ02 111
' {
Ġv ectors
7 15
I FF
Ġ(' \
Ġlookup s
MPL ARY
mk dtemp
M H
vp n
# ================================================================
TE MP
. ],
ĠChange s
Feed Rate
plan e
In game
pos al
Ġt gt
1656 33
h atz
ĠSpec ifies
set Attribute
bind ings
Publish ing
Dispatch er
ĠH ost
Ġen ergy
T ES
13 54
5 06
Mo vie
RUP TION
Label s
94 1
US H
Ġcmd s
Ġpro d
Ġoffset s
ĠCh ild
ĠDAM AGE
7 25
Fe atures
ĠHOW EVER
5 22
^^ ^^
Met ric
dep loy
S ame
4 69
Ġsup ply
open ssl
Com mit
Ġle af
9 32
rece ive
ĠCOP Y
offset s
Ġro bot
m ate
in cluding
179 452
__ ["
6 33
6 27
bu st
Ge orgia
SCRIP TION
ÃĹÂ §
ĠDe velopment
Ġauthor ity
GL float
Cal lable
Ġg amma
alloc ate
Â¤ Â¶
int ro
) ''',
tin y
5 79
pro tect
spect rum
fi ts
-------- -------
Polling Method
8 14
id o
Ġto lerance
pa ging
([ -
(" .")
M R
ĠF ix
Ġport s
r ho
a ussian
en cryption
ĠByte Size
ar ator
IFI ER
QSize Policy
ĠIn sert
Â¤ Âľ
q m
9 37
xt ag
our s
ĠReg ression
7 20
get state
ĠE XT
Ġear lier
write line
Ġc le
', )",
5 66
PI X
SUP PORT
7 35
Ġdele ting
Ġexp anded
or ded
gn oring
Ġconven ience
Pro pagation
ĠCA USED
F inal
pr inter
fil tered
D lg
M K
ĠSta tic
Ġauto escape
assertNot In
857 142
k in
6 60
so lete
Log ging
font Name
G reen
Ġco efficients
]. [
ĠCho ice
= %(
Imple mentation
ren d
Ġ# ------------------------------------------------------------------------
SUC CESS
l ators
ATEG ORY
Z ONE
ance s
Ġo dd
elve tica
XXXX XXXX
vi al
ĠTHE ORY
) ()
EN ER
M IT
Ġexpi re
Ġrect angle
Ġtra its
+ ')
Ġtopo logy
Ġaccept able
String Property
f ed
ĠI ssue
SD O
train ing
SD L
25 79
X V
ti les
Ġcor pus
g cs
ĠB OM
h or
Ġattemp ts
d j
sing ular
Item Paged
Ġcomplete ly
ĠMis sing
m us
AT A
i et
Ġr df
Ġsort ing
li gh
flat pages
A ck
GEOS Func
Ġ" ['
9 14
D a
ĠL ast
7 44
Wifi Mac
W iki
Ġ[]) .
foot note
work ers
stroke Color
5 89
YP H
ĠS ize
OP T
y u
X i
ht m
CH ANGE
GL OB
ĠG ame
00 10
A ug
HTTP Server
7 88
ME MBER
us able
P ub
################################################################ ################
ĠS tep
ĠINTER RUPTION
cre dential
ĠData Frame
Arg uments
Ġms gs
Â¸Â Ĭ
V ec
8 25
UNI QUE
Quick Element
c andidate
Ġpro b
sv c
): ]
Ġ[] ),
n os
Ġin voke
Ġr m
Ez Ez
Image Field
fri ca
Lo ops
' &
pa rer
folder s
Ġapi proxy
T AB
al so
Ġdat atype
Ġide a
5 36
Ġcalcul ation
L etter
_ "
direct download
ST AMP
} [
De pth
Found Exception
watch er
Ġfloat s
ĠL td
Ġch allenge
ific ant
cap ing
C ost
EX EC
Ġclo ud
Ġtrans parent
D rag
M V
7 65
A nswer
k ar
ARE N
]) ),
IT IES
Ġsepar ators
ĠPRO CURE
Ġge ographic
ĠPROCURE MENT
max int
Sim ulator
BRE AK
6 35
V OL
in struction
buf size
sk in
Ġpas ses
te e
ĠEXE MPLARY
U l
Ġin heritance
Ġl b
ME M
Work er
6 84
URL Y
pen ame
ĠO GRE
Ra tio
deri v
X D
Ġme ss
04 30
ffff ffff
Ġstart up
7 24
Ġpre pared
birth day
itect ure
ĠR ational
ver ti
Ġel m
FY G
Fa NN
H LT
ĠCurrent ly
ren code
DEP TH
Ġshift width
sp readsheet
6 32
Fa ON
4 86
or ry
Ġannot ations
sub field
Regex p
Me m
Ġli mited
6 65
1728 01
5 28
Ġyear s
( .
Ġimp l
ber g
la m
web site
Bot tom
co ef
Ġpri v
FY H
OL LOW
str ategy
ut ron
Ġw iki
is c
tes ter
Test Loader
cur ses
lip tic
R SS
sy nchron
5 26
Ġr ating
Ġ Keep
fil led
Ġde vices
Ref resh
Ġb ulk
7 85
indic ator
7 59
c data
We ak
Ġmulti processing
ĠG Data
ĠJ an
retri eve
G N
7 99
ÂĤ ÂĬ
int rospection
7 08
sol ve
Ġh dr
7 69
ra vel
or row
L ab
ĠPri vate
D ump
8 69
} ")
Ã ¿
4 28
we ets
SY STEM
Ġin finite
9 69
q r
ÂĤ Â¯
Ġch an
166 888
' |
expression s
S Z
percent age
A ng
ec lass
CHAN NEL
######## ###
Text ure
de nsity
Allow ed
9 75
D on
Ġgener ates
J i
Ġan g
Ġbreak s
F ul
gradi ent
add QuickElement
') "
Ġ' )'
C r
co vered
Interface Address
): \
Ser vices
Ġfoo ter
Option Error
n il
3 83
Ġme di
c url
x or
ĠC RE
9 19
6 22
f ds
", \
etrie ves
ÃĲÂµÃĲ Âº
J ava
ĠC y
ĠAN GLE
Ġs atis
sist ant
ÃĹÂĶ ",
ĠE asy
Ġreason s
ĠR GB
ic ons
th umb
Ġiter ations
p res
pixel s
ni ff
Database Error
Vis itor
re quested
4 88
AG ENT
9 04
Ġg id
AG GG
Ġ Ã¥
Ġpick led
ĠSec urity
Y T
Bad Request
ĠS outh
P ane
L YP
6 86
95 1
Frame work
Ãĥ Âª
Ġoption ally
ĠRe mote
7 87
ĠC L
Config Parser
Ġpro ducer
Ġt ot
first Child
ĠT itle
Ġpar allel
o ser
i ces
T OT
Ġatt ack
9 89
over flow
8 19
9 67
rom an
Message Type
Ġra ising
Ġ[ {
A m
97 2
Ġbu ff
Ġexp onent
Add s
nd o
b ullet
Ġwhen ever
ĠA B
(' &
t g
Ġco verage
', ''
GData Entry
d ft
ilk at
ĠDirect ory
de grees
} %
gen der
amp aign
op code
T k
z d
Ġfor get
16 09
PO LY
fri ends
li der
Ġreport s
la ps
Ġun changed
Ġ10 22
Ġdiffe rences
sup p
do como
Â¤ Â§
8 29
ance led
ord inal
En tities
Ġinstanti ated
lips is
FO UND
CAT ALOG
Ġany way
Un its
dd d
Ġs light
) {
ĠAd ded
w g
release s
ĠA ct
Ġper ms
Ġs l
ch ilkat
OF a
176 308
166 895
Ver tical
v cs
Ġlat in
rup ted
C ENT
wer kzeug
@ %
CC GG
shape s
Ġ1 05
Y i
ĠM ID
Ġexpi ration
initial ized
Ġtrans formed
im ize
W ords
POINT ING
E H
4 38
ĠM S
ĠDer ived
8 39
Ġh ighest
ad s
circ ular
Ġnew ly
: \\
size of
Y K
Ġs d
7 03
1665 63
Ġdiv mod
Ġ6 1
co in
ÂŁ ÂĴ
Ġgroup ing
ĠC s
Ġ(' %
D ynamic
Ġ1 12
Ġdep end
ile s
pa lette
w ta
177 449
v tk
Rep orter
Ġ'_ '
RO UP
ĠCount ry
Align ment
ĠS W
matic ally
Ġvis ual
S a
dir path
Ġbuffer s
SCHE MA
Ġpor tion
=[ ('
ĠPro gram
de sign
7 28
MB OL
5 60
ho re
+ ----------------
fa vor
Ġback slash
st s
ĠAs sert
Fa O
get Name
Ġno ise
Ġcomp ressed
Ġro uting
List Entry
if e
L u
ĠA rea
ĠHTTP Error
Sy ntax
pagin ator
Or acle
err msg
[- \
W V
is ters
af ari
ĠT arget
Â¸Â Ľ
k args
Ġ layers
cor pus
9 22
8 10
c ube
Ġex change
si bility
h el
FA ILED
ĠH and
< \
char acters
167 675
fV ME
Ġli fe
RE Q
ma fVME
Ġ1 07
1794 34
client s
v lan
Ġal ter
Ser if
09 09
ver ifier
war ded
ĠSM TP
7 13
Ġ' '],
de limiter
_ ][
Ġm ixin
FaO OFa
es is
CHAR SET
fr action
ac teri
n h
D ot
ĠR ange
ban ner
8 18
ser tions
Ġso lid
4 11
Ġmap reduce
Ġshort cut
ob ot
Ġcombin ation
SE C
ib ot
Ġi i
iv ot
86 15
Api Error
9 10
Ġinterpre t
O ld
comp ression
start ing
Te le
Ph ase
ocabul ary
c art
t age
Ġt type
="" ):
buck ets
tp l
Inte grityError
run s
dimension al
8 67
Ġ' ('
al ia
4 23
fic ial
Ġ}} {%
Ġsp li
ĠCh annel
g lish
Ġwri tes
9 88
") ):
16 30
Ġmin imal
st on
ari an
Ġ licen
t body
Ġinter act
Ġserial izers
EST ION
sta tistics
1733 89
Ġvis ited
6 88
Ġh its
1768 60
ĠF lat
ĠSub Element
ĠNAS A
il led
E p
S to
ĠH indered
amp ling
ĠFunction s
c lic
00000000 0000
f an
Ġplain text
de legate
alle st
ach able
.', ),
CT TT
]] ],
m h
P ACE
vis itor
G l
Ġt orrent
ĠH as
Ġclose st
Ġpy ramid
6 16
mat z
CT C
stub s
Ġme trics
gl x
utor ial
Sec onds
4 68
dat atype
W I
Complex Type
cred it
1788 71
Ġac cessible
7 16
Ġapp lies
Ġsub mitted
9 07
co ffset
Ġmin idom
A zure
K R
ĠOpen SSL
Ġst oring
8 33
Di ag
9 84
")) ]
Ġpar ty
wik ibot
GD AL
Re presents
ro ve
Ġh ierarchy
Ġ> ,
ph ys
loc ate
Division Error
istr ator
5 357
P ING
=' ')
p ane
n at
Ġcust omer
Ġresol ver
CHAR S
product s
Menu Item
site maps
7 64
ST C
Ġp ure
C DATA
Default s
GLOB AL
ing u
il s
Â¡ ÂĮ
XY Z
> ]
par ticle
Ġt rees
Sub mit
Ġ| \
]+ )
ati vely
ĠI tems
Command s
CO ORD
base dir
M ix
j atz
Ġb p
id ad
Cre ating
In dic
8 27
Â¸Â į
Ġy es
REQU IRED
Ã¤Âº Âº
leg acy
" <
Ġcap tion
Ġsome times
Ġde nsity
CT L
de compress
5 80
lo pe
J an
Ġl xml
8 15
Ġ ĠĠĠĠĠĠĠĠĠĠĠĠĠĠĠĠĠĠĠĠĠĠĠĠĠĠĠĠĠĠĠĠĠĠĠĠĠĠĠĠĊ
Ġn av
Ġyield s
ĠCol lection
C ds
on i
network s
Ġref lect
ĠW erkzeug
? ')
A lert
The se
Ph oto
es c
Ġre li
I ssue
ban sim
hier archy
I deal
, #
ĠC SV
skip ped
8 34
Ġp lug
OUS AND
x sl
6 85
W HERE
TH OUSAND
ĠFL AGS
ri an
sess ment
py pi
00 09
de dent
Argument Parser
req s
law rence
h sps
[ ,
over write
(' (
R P
new lines
Ġm ixed
ĠUN IFIED
ĠBo ol
uo la
ĠRel ated
Ġco un
HTTP S
flat page
Ġm ass
ĠLog in
)) ):
ĠS OL
Ġproject s
Ġse g
of fice
Ġdispatch er
We ight
Ġ ----------------
h al
Pre vious
ĠCer tificate
ma k
Un checked
er ver
Ġnew Child
J O
(': ',
7 36
de veloper
mb ig
Ġ'. '.
w ers
Ġtab stop
ĠCON F
Ġ ValidationTest
u ge
od v
ÃĹÂ ĵ
h aps
par ticip
06 25
Pri mary
arb on
RE PORT
1655 48
Ġ' {}
Ġro utes
ĠC lose
Ġsol ve
v ince
ĠChar acter
Ġs ca
7 27
00 19
ĠSt ack
is k
ĠCO MP
Ġm x
en dian
TER M
Ġ** *
Ġ1 19
tr ac
i lation
9999 99
V O
Ġgo al
y t
Ġ der
K S
CO MPLE
ĠF r
TC compound
ĠZ Z
od b
EX IST
CL U
Z h
GROUP ING
iter keys
lit ude
Declar ation
t rees
mark ers
7 12
Serial ized
o j
DE SC
set state
Ġab c
Ġ ĉ
Ġeas ily
ĠD istribu
a W
ĠL en
7 84
ĠF ire
ĠB L
"> '
SP EC
I so
Ġa e
ĠC rypto
Ġav g
Ġd d
from string
Ġcol lected
ĠS can
8 24
Ġh op
7 14
Ġ1 24
text area
s low
V R
th eclass
Un defined
ret val
SER VICE
ten ance
V ol
al ic
I e
ĠCOPY ING
176 807
set Enabled
Ġs cores
[ ('
ĠR edirect
De tect
8 32
collect or
com munity
as a
ĠName space
Ġinter polation
uby te
ĠM UST
) },
get attribute
sli der
m ys
RGB A
Â¥ ",
Capt ure
Ġpk t
ĠR etry
H indered
Hindered Rotor
sp her
de sktop
Ġte l
Ġbe h
12 80
mac ros
Ġc ri
ĠP lot
Ġin cremental
Ġtar file
ĠLe vel
i Ãĥ
Ġex clusive
_* _*
pro cedure
Ġcomp any
ta uola
g ar
Ġge ometries
re y
I m
month s
Fl ask
ĠS ur
wri tes
W X
Ġso und
Ġin s
Â¤ Â¬
Ġ 556
Cre dentials
spatial ite
AND ARD
666 67
9 39
ore an
7 86
T N
S calar
ch er
H SG
RE CO
9 12
Ġtext wrap
Ci pher
Ġr adi
un register
) ^
bs d
ĠC las
(' {{
ren dered
De v
me ga
Dis able
' ."
A bsolute
M U
ĠS SH
(" __
al ong
8 99
VER SE
L ater
Ġ> ::
Co ordinates
Ġjoin ed
Ġre spec
ser ving
ĠDef ine
Count ry
in tern
ific ations
8 12
: .
H ist
round ing
rec ted
(' $
Line String
y d
av id
Ġref ers
se m
........ ........
! ':
1777 90
v u
semb le
Ġ 81
F ULL
Ġ3 04
ĠCal lable
title s
zh img
() -
u FF
1668 64
! --
Ġ Values
A re
5 86
proj ection
8 60
SH OW
9 34
9 79
Ġup dating
h k
am in
1632 70
Process ing
__ ('
and atory
Ġal ternate
ĉĉĉ Ġ
Ġde scriptors
get From
Ġacc um
ĠIS OL
ĠI gnore
v f
9 64
analy tics
D ash
= ?
ĠD FA
d ock
Ġ": "
Ġin p
Col umns
ĠI ndic
ĠT wo
Ġg iving
proto cols
pol ate
Ġ ĠĠĠĠĠĠĠĠĠĠĠĠĠĠĠĠĠĠĠĠĠĠĠĠĠĠĠĠĠĠĠĠĠĠĠĠĠĠĠĠĠĊ
Ġdebug ger
N okia
Ã ĵ
ĠD ESC
Ġc nf
6 11
sk ill
Ġ4 03
ĠG en
Dis position
ĠB ound
S peed
Redirect s
sen tence
s tem
db m
Ġknow s
ĠDe termine
follow ing
vel ocity
ÃĹÂ Ĵ
is Number
` ).
sg h
Ġ' ^
19 98
Ġsend s
(? :\
or i
ĠP ipeline
stream s
ĠSub classes
o ss
ite rencode
FF IX
Ġh mac
Â® Âļ
C AN
Ar row
ra tic
My SQL
L arge
Plugin s
failure Exception
Âľ ",
ĠT akes
Comp are
i pt
M AG
S lice
T a
d it
1718 12
g te
Ġde coding
Ġdir ty
Ġca ught
FAIL URE
L ang
() "
Ġg ene
17 39
7 33
an ks
SE ARCH
o sed
Ġp wd
sib ling
6 87
an za
Ġs nap
Ġr ng
le ast
H D
ĠP attern
Ġs phinx
Ġact or
Ġ rid
Value Dict
5 68
by e
ĠLi ke
geom s
Ġdraw n
ĠOP TION
zone s
! )
C lip
g auth
FILE NAME
or iented
Y W
Ġll type
N a
Ġf ault
Ġde tailed
AS CA
Per form
h ed
ĠTime out
ĠL azy
Ġ7 3
@ \
Ġf f
Conver ts
buffer s
ump tion
Ġexpect ing
7 06
Ġnot ation
Ġdomain s
Ġopen id
t ap
Par ticle
col l
Ġl ro
Ġbind ings
Ġse man
i ally
PE G
12 52
6 30
9 15
data sets
SECON D
: (
j is
MULT I
q i
OF P
inte l
Â¥ _
er ing
Ġm ysql
ab cd
tra its
20 28
Ġmax length
re pl
9 06
ĠMo zilla
vis ual
ame s
Ġkw arg
Ġi e
ur s
c up
DO CTYPE
ĠR ect
el ly
ĠPer form
Ġin ts
PRO FILE
tri ct
Ġpart ner
Ġe uclidean
Rel ative
Ġslash es
1783 67
Ġprint ing
un set
! [
M ER
AL TER
ÃĹÂ ¡
Attr s
z t
ITES PACE
Ġre pe
9 77
ĠRE AD
N ER
Ġnew er
8 37
Ġdecor ated
Multi Dict
T A
00 08
Ġ1 44
ri or
ĠRe quires
Wh ite
bu gs
fa v
, ):
ĠIN IT
Ġxml Element
H K
ĠD ATE
`` ).
4 83
t xn
ĠIn formation
X F
State ment
pred ict
1664 62
en tral
Â¥ Âģ
Ġmsg id
Ġun do
q c
9 47
Feed FromString
Ent ries
iv o
presen ter
1669 23
j n
is ms
app lications
01 00
Ġst ock
Ġ ################################
Ġb z
ĠE val
Ġwe bob
LO GG
Con tributor
9 24
Ġ3 60
vi es
Ġ[' _
Ġdot ted
ĠPL US
Q ual
9 03
l ÃĦ
Ġi ri
resol ved
glVertex Attrib
'), ),
position al
Ġscan ner
Ġmar shal
EXT PROC
a ler
g uest
file list
T HE
Pre proc
Mo bility
doc format
Serialize ToString
me l
li ze
Ġdown loaded
Ġ1 15
u h
siz ed
Ġde ps
14 79
ĠConn ect
4 62
": [
Ġin dented
ĠG ROUP
Ġre size
pv tz
ASCA DE
ec ache
R ank
ici ous
9 16
rad ost
b k
Its Me
Clas sifier
ĠDAT ETIME
ma gn
Cal cul
ĠEd it
Ġ' =',
Y S
d id
m icrosoft
Ġr adio
SS H
edge list
I gnore
pos ure
Ġp redic
Ġm igrate
track s
IV ATE
n ight
9 27
Str ings
Ġb i
ab ber
Gener ated
= /
Ġs tem
RO KE
arg spec
line sep
... ,
t gt
ĠRe set
Ġ[' %
Exp and
ĠR otor
Ġcorrespon ds
termin ate
gen s
)) ;
el ter
Ġlib vlc
UT ION
ĠISOL ATED
D NS
9 54
Ġl m
s lave
Zip File
FO O
Combo Box
u A
sel ess
Ġg uid
ĠN aN
sh uffle
Ġq name
D OM
8 35
C ST
G ON
Ġti d
po licies
00000000 0
ĠT ech
si fy
url resolvers
4 82
pack ets
Module s
Ġur lencode
ital ic
6 36
Ġplan e
Ġep isode
B g
dat ad
Ġper sistent
ÂĤ Â¿
Ġbel ong
is nan
A cl
pe t
E Q
8 84
en dif
RE SH
9 74
ĠAli as
P W
Associ ation
L IGHT
Res olution
9 17
Ġv ary
in p
CON NECT
00 07
13 55
* ?
name nt
Ġpay ment
Reg ular
in verse
Ġop us
int ype
Descri bes
l ons
h z
ĠInst all
M ust
"," %
Ġsim ulation
Al t
ĠApp s
SR F
co pi
Ġ%} ",
+ %
(' {%
sd l
micro second
e very
ab br
ĠB l
Ra ised
In v
Ġ ĠĠĠĠĠĠĠĠĠĠĠĠĠĠĠĠĠĠĠĠĠĠĠĠĠĠĠĠĠĠĠĠĠĠĠĠĠĠĠĠĠĠĊ
", ),
ĠTw itter
" |
ĠM a
ĠM ar
p lit
166 890
b ew
Ġg ap
Ġback ward
Un der
8 13
5 83
k AE
S ql
ĠHTTP S
ch oose
ĠExt ra
vers ation
e quiv
Ġfield name
Ġd ri
ĠS G
Ġdis card
Ġobtain ed
Av ailability
Di gest
ĠCRE ATE
ffff ff
expi red
5 62
Ġf ld
ac ent
','','','',' ','','','','
Ġgener ators
__ "
You Tube
END ING
Option Parser
5 82
bi go
L azy
52545344 000
ele ry
8859 1
i lab
work sheet
Ġsw ap
14 40
r ings
Ġform ula
jo e
Ġro pe
9 25
(" {
Ġequal s
G reater
Ġw ide
ule r
Ġhead ing
Ġver ifier
=[ (
Ġsimp lify
C GI
E I
v ac
Ġ ÃĤ
Ġinter mediate
Qu ote
Ġqu ota
od oc
align ed
h box
de re
Ġloc ated
-------- -
cri tical
y bot
ITER AL
H orizontal
T M
gre y
Ġsv g
YY YY
Ġl c
Ġlo gout
Ġre cogn
re me
177 140
20 48
in side
Ġtask queue
1637 58
Â¸ ÂĤ
Th u
Ġ[ ''
ON OS
176 868
7 10
no thing
Ġalle les
ur y
e uro
Ġ' {%
Ġ" </
(" :
ent a
)] ),
Ġcustom ize
Ġse ct
tool tip
inter sect
Y I
7 26
w f
Ġassume s
CO PY
ĠSUP ER
R IX
Fire wall
9 18
pix buf
b ag
W KB
ĠM IN
ar gest
12 12
ĠS olution
RO LL
ĠH elp
Pri ce
al ready
# %
Ġs ong
ot on
:` <
Cur rency
S uites
f onts
ĠP UT
Play list
L te
ask et
Ġde n
C U
Mod ifier
info s
ma pp
state ments
ib ration
6 26
Ġ ancestor
fron tend
cycle s
Ġke pt
ĠOr ganization
), \
AL SE
pro bab
Wifi Mode
phone book
cr on
b dist
Ġpro vision
de scribe
DT D
9 29
SR C
File Field
Ġto uch
ĠG it
comp osite
Ġfinal ize
fl u
scri bed
Ġlong itude
9 45
ren tial
bro adcast
Ġover lap
Bl ack
h ero
h mac
Ġassoci ation
U TER
C Q
Ġx max
166 859
Sta mp
C ET
Ġw izard
Ġdis connect
ap on
Ġan onymous
Ġ[' *.
9 33
ĠW ait
Ġrecur sively
J OIN
M ass
ĠC ase
' @
Serialized Size
T XT
cent roid
Get SerializedSize
C he
ri b
Ġ( {
Ġen crypt
9 65
ĠD el
ver ted
Ġthere fore
O E
Sec cion
al formed
v x
db name
Ġsilent ly
ĠRed istribution
Ġoptim ize
ĠIter able
A frica
nom bre
width s
Ġpro tected
g ust
tic ally
de ep
OT H
b rain
ĠApp ly
me ter
Ġp ys
Ġ1 13
og gle
combin ed
ĠR andom
m ro
c map
author ize
7 17
Ġslight ly
ĠS ortedDict
Check s
6 80
Ġ ĠĠĠĠĠĠĠĠĠĠĠĠĠĠĠĠĠĠĠĠĠĠĠĠĠĠĠĠĠĠĠĠĠĠĠĠĠĠĠĠĠĠĠĊ
min i
ĠN ext
142857 14
g ro
p references
ĠA E
Ġp oller
simple json
ĠH andler
167 041
BO UND
Ġaccount s
assertIs None
it Ãĥ
or ange
cc c
Ġi mmutable
ex pose
Ġexpect s
ĠM aps
decode d
or ss
ĠA DD
ĠP art
h c
. '))
Cal culate
Ġcur rency
Ġa ux
illa ge
cen tral
ĠNE W
K H
Construction List
Ġpublish er
Ġe mbed
3 81
nd s
Te am
Empty AttributeValue
ĠT ONOS
Attribute ConstructionList
ĠFI ELD
Ġs z
od o
ÂĢ ",
Ġn ear
Ġas pect
Ġ3 600
Ġ" @
Ġc trl
Ġcre ator
Pay load
Ġg arbage
NO TE
Ġg radient
Ġregard less
sim ilar
A VE
ÃĹÂ Ľ
x mpp
ti e
pc m
gre SQL
ir ing
ri a
net loc
TOT AL
P ur
m ach
ĠS te
ĠAs sign
: %(
Ġtop level
for d
Clo ud
9 55
ni k
Ġres ume
um i
Man aged
Inte gral
9 35
w ire
tra it
Ġ.. ..
ĠQ Q
A AT
Ġ1 09
Ġend orse
Track er
T IN
ÂĲ ",
coun ters
Ġpre view
na vi
7 66
In struction
). "
uf act
7 60
Clo sed
Ġp list
Âĸ Âĩ
Ġsize Policy
me ss
Link s
BO TTOM
============ ===
w id
source forge
Result Set
Loc us
PRO PER
. ']
p redic
Ġthem selves
" {
14 74
Ġstream s
Ġp andas
ĠF etch
(' @
DOT ALL
friend ly
Ġr d
Ġconsist s
Ġde mon
( $
ĠC LI
Sc ene
ch imp
open gl
D IC
Event Id
r ng
gin es
Ġst ation
Ãĥ Âµ
mac s
REG EX
cl usters
Loss Model
Ġf lash
Ġbyte code
Ac celer
ĠP K
Ġd n
pop ulation
m utex
a id
z u
8 16
ĠA v
ex clusive
h ack
ĠSTR ING
Ġlog file
Ġcap ital
C ross
i python
ĠF UN
kel i
Ġrecur sion
forma tions
aris ons
ĠB r
p wd
CC l
poly morphic
J J
Ġ[ #
Ġc andidates
Exp ect
V L
system Exception
un changed
volume s
horizontal Layout
Tex as
capital ize
the ses
Ġprox ies
li mited
RIP T
TR A
| [
Ġ Ã«
Ġn atural
ED IT
Ġd r
sub scriber
ĠData Source
9 44
N umeric
Ġto ggle
pri se
ĠCre ating
M id
ĠS ig
inte rest
Â¬ ",
Virtual Machine
Ġ1 14
pas sed
329 6
th row
Ġb lah
sh ader
Ġconflict s
Ġb irth
Ġne ither
trans forms
Ġschedule r
ĠCon verts
pop ulated
Ġsearch ed
Â¤ ÂĹ
l k
Ġcomp ared
n args
ri k
content type
176 202
ĠWAR NING
TH ESIS
si ent
am bi
wrap s
WH ITESPACE
C atalog
H W
as pect
no me
Ġd h
reg ular
ĠNOT ICE
F amily
si p
Struct End
Struct Begin
Ġa etools
i min
ou te
Ġever note
Ġpro files
op acity
St ates
Ġs qu
D ICT
Pro blem
ÂĤ _
Message End
Ġpe ak
25 00
match er
ĠBytes IO
ĠDO CUMENT
D ET
bel ow
) ['
54 54
'] ])
s ay
ĠS creen
Ġsee m
Ġin venio
ĠRe f
Ġ' ~
Ġde pendent
19 94
Ġpro duced
ĠS ame
9 60
V Struct
bb bb
Ġf avor
d T
S AM
Ġindic ator
Inter section
dd y
tr unk
it m
K HTML
no se
J u
ĠZ ERO
Ġg oto
W hitespace
IM ARY
read Field
ĠW KB
Ġx x
w y
ĠOGRE xception
class name
Ġ ticks
Match es
user Exception
o tion
ÂŃ ",
dec rypt
b ec
ĠL eg
Ġwri table
Ġtrack ing
a el
ĠU ses
P acific
ĠE very
Ġrot ate
n ic
den om
V T
n en
Error Response
Change s
Ġt tl
cor ner
9 13
K P
Ġam ong
xxxxxxxx xxxxxxxx
Ġf ine
Ġw ire
list ing
ĠP AREN
Ġ1 30
log ic
dot ted
stat uses
Ġsub type
Al ready
= ()):
sp er
sub str
g able
te ardown
ab ly
ADD RESS
ĠLine String
) [:
Ġpy wikibot
Y OUTUBE
Equal s
IL ON
U X
lo od
ĠPh oto
e Start
ĠP AR
data structures
5 38
36 60
M gr
New s
9 85
Ġ ########################
fill ment
f st
Ġexport Literal
od d
Ob server
Ġr r
Ġpos ted
Static Text
onen tial
in cluded
F ore
g Ãĥ
Ġxmlrpc lib
Box Layout
I g
ĠPAT H
F P
fe e
1633 32
Ġhas n
S ty
iter ation
sli ces
Ġlo s
ni e
Deserialize FromString
ĠST ROKE
ĠPAREN THESIS
oc cur
Ġtitle s
Ġc ame
Int rospection
th resh
imat or
1714 84
OD Y
: {
ree k
doc utils
Ġle ts
, ('
. :
C lock
> %(
er cise
sp ell
AP PL
se ri
Check ing
ĠApple WebKit
+ )',
q ty
SC ALE
R etry
9 82
7 11
) (?
PS ILON
find All
ben ch
Import Error
+ [
######## ##
Ġblock ing
Ġ"' %
Ġass oc
c time
178 840
Re Reco
plain text
Ġre cognized
1634 02
nost ic
DE PRECATED
Ġ(" {%
307 200
ul ls
`` :
([ \
Ġs f
1767 97
Min us
join s
G lyph
i ri
> &
23 12
Ġfn match
de sired
Ġnl tk
17 37
Up grade
p si
ÂģÂ ĭ
T z
the ad
9 08
on der
ist ra
Ġ7 1
Ġv ault
ĠB inary
ous ly
d g
ĠP layer
Ġ' ?
14 80
F ast
ĠUnicode DecodeError
Iter able
year s
Ġtri ggered
S Cons
Ġg ain
Ez G
get opt
Re quirement
LI KE
\\ .
25 200
Ax es
isten ce
('' .
7 82
Ġeg gs
SH IFT
Box Sizer
ĠTR ANS
Ez H
ĠF ailed
De pendency
ET A
E lectron
ĠBase Command
St retch
ĠType Var
8 36
Sub Token
out line
i os
ĠObject DoesNotExist
Ġ2 40
"> &
sym link
orph ism
Mag ick
**************************************************************** ********
u on
W rong
Bro adcast
Â± "]
ut ter
over lap
19 84
A w
Q H
skip Unless
QL abel
fin diter
') ",
04 35
Ġrespec tively
Ġpol ls
ĠNe ither
Ġme as
trib utors
Ġc amera
sub st
ĠB ot
token ize
ale tte
Ġshape s
ab a
ĠL IG
e i
9 36
1632 55
Ġdiff s
ul p
Ġstand alone
se x
ĠF ixed
Ġround ing
), )
fail safe
gra b
ĠB U
Â¸ÂĻ ",
Â¤ ÂŁ
ĠEOF Error
sect or
ols r
mo val
Ġidentifi ed
Ġcollect or
T urn
man agers
7 30
Ġqu ad
F lat
Ġge os
Ġinter p
in coming
Ġpack ets
Ġrep orter
Ġf resh
ĠE qual
V i
ub ar
ren a
xml rpc
ks temp
in ventory
iz v
B ucket
e per
imple mentation
ĠLIG ATURE
Ġsome one
s av
ĠS tyle
Ġco eff
ĠSOL ID
r k
node Value
CT GG
CE ST
` \
Ġj ava
H MAC
e es
MODE L
/ _
in ate
ĠL ock
Const ants
medi an
ĠT AB
dep loyment
mark ed
Ġ3 01
ress ant
li fied
abcdef ghi
BLANK LINE
re use
Check Box
Ġ ĠĠĠĠĠĠĠĠĠĠĠĠĠĠĠĠĠĠĠĠĠĠĠĠĠĠĠĠĠĠĠĠĠĠĠĠĠĠĠĠĠĠĠĠĊ
Ġst reet
- '
a q
Ġr p
Q i
Ġgraph ics
Ġleg al
Ġp in
29 49
PL YP
5 63
ĠC allback
ĠH AS
Ġ linen
admin s
180 250
__() ``
Rule s
Ġpost s
OLD ER
unte er
ĠP ublish
Ġpo licies
ĠC URLY
e ye
Ġcontext s
rec id
Ġ[ _
ĠA lert
ARG S
ĠS afari
ĠZ ip
B IG
Ex periment
G uid
Set Value
structured text
16 79
IC S
Update s
vi o
Ġlock ed
ustr alia
lec tive
Ġstr ong
ĠG rid
ch errypy
Ġch oreography
'[ ^
open source
Task Queue
Ġun ix
B undle
ĠB atch
fel ic
Ġcopy ing
Ġactiv ation
Ġroll back
tag ged
Ġi ps
amb da
dele tion
Ġ"- "
Ġre moves
ap pa
19 70
V I
th readed
Ġfont size
N M
ĠT BinaryProtocol
Col ors
SV G
W hat
s am
pl one
Tex Coord
ĠA PP
di vide
Ġcomp osite
V B
He alth
RE GI
Â¸ "]
Ġp aper
ĠPy Object
Ġav atar
12 51
database s
main loop
=' <
ĠF AIL
Ġpro duces
assertIs Not
Ġdat as
17 60
Ġ[' --
QU OTE
Ġ'/ ')
Restriction s
POLY GON
t rap
Ġb f
f rozen
RE SOURCE
auto commit
Token s
Ġraw data
ĠOpen ERP
Packet TagList
ĠA ST
7 62
get Current
100 1
rect angle
Ġel apsed
9 86
ĠRec ur
ĠST OP
s ho
=' '
an je
camp aign
Ġprece dence
Ġdetermin es
Ġsta mp
ĠComponent s
Ġs niff
e led
her its
ĠSh ort
Ġas set
al ty
Ġdep loy
black berry
Ful fillment
Re served
, _
ĠS ha
Ġr t
Ġc w
() ],
ABC DEF
f ly
Ġsub domain
or tion
Ġon line
Ġl p
Ġw all
Start ing
c xx
ĠF ULL
ĠAn aly
ten ces
ĠOpen ID
> /
ex emp
Ġsh or
Ġwork around
Ġsp readsheet
Ġconsume d
Con version
EN S
=[ ]):
ĠS cript
To Type
ĠSec ond
Ġdump s
ĠSOLID US
DJ ANGO
N AL
Ġos v
se ns
Ġla titude
ĠC ore
Ġreport ing
R et
,, ,,
MAT RIX
Ġprefix ed
5 11
IN TEGER
Ġn u
Cre dential
00 20
ĠForm Set
complex Type
Ġ" |
gu ard
\ (\
} /{
! ",
B an
4 21
i Ãħ
Q B
ag gregates
ĠCreate d
Extension s
) #
un es
M s
ĠFace book
, .
ĠAp pro
Âľ Â¨
ÃĹÂķ ÃĹ
Ġg al
j it
ĠType s
pe ech
P ID
N Y
x id
Ġex e
Ġb t
ge theader
HE LP
7 38
fl ux
M ath
Ġ Ã¦
X P
RA INT
P eng
ĠG RE
4 31
li k
tk inter
no tifications
Ġrecord ing
X L
H op
J U
phab e
g win
ĠPa rent
wri table
Ġ ĠĠĠĠĠĠĠĠĠĠĠĠĠĠĠĠĠĠĠĠĠĠĠĠĠĠĠĠĠĠĠĠĠĠĠĠĠĠĠĠĠĠĠĠĠĊ
0000 1
save fig
it ools
1789 70
S ent
C t
= .
ĠM ost
Reg istered
res is
ĠT k
B old
4 63
Ġmod ifiers
ĠST ATE
I l
P AL
Ġi te
ĠCon structor
Ġ1 22
Ġnew s
() \
Ġr x
b as
Ġ9 2
Ġcomp at
1777 83
con struction
'] }
Ġ[] :
s ocial
Ġre act
Ġphy sical
H ide
1633 74
Ġauthentication Token
)) ])
Ġpartic ip
Mobility Model
RE DIRECT
ĠTrans form
@@ @@
Ġo ct
ys cale
Di ffe
lo re
Â° ',
Ġfill Color
Ġmonth s
ĠTest Suite
O s
Ġs uggest
controller s
Ġauthor ized
Ġclass name
ĠSQL ite
in active
as p
che me
Ġleg acy
Ġd ock
Code s
Ġplay ers
ĠV ideo
Ġgraph s
be am
ĠSe q
ATTRIB UTE
* :
ĠReg istration
Ġuni form
ab e
temp orary
Ġp seudo
176 850
Ġnick name
Ġaff ected
I den
Ġn m
imp orted
quis ition
Q R
Ġ1 29
ad vanced
ĠHandle s
el apsed
Ġmis c
B ITS
G Z
ca pabilities
Ġtrans actions
ĠTrans lators
Ġte ardown
mis s
Ġcard s
s it
Assign ment
ĠSYLL ABLE
x r
z lib
G AC
activ ated
DE VICE
top level
DE SCRIPTION
Ġ1 35
9 26
Cert Chain
_*_* ',
f ect
(( ?
Circ uit
ÂĤ "]
o le
N I
vertical Layout
G AR
H V
ur g
min der
ĠInput Set
be und
ĠEn velope
Ġ1 18
============ ==
f u
5 21
Ġrepl acing
Ġequal ity
Ġstandard Msg
C MS
e lect
l h
Ġ[] ):
Â¦ Âģ
IM UM
ĠEng lish
Sp rite
)) **
onom y
Ġ''' \
f atal
fq dn
ĠFile s
Ġ1 00000
Ġif f
ĠCo unter
ĠF lag
Ġy max
N W
pr incipal
Ġin complete
vi z
col lapse
mk time
Neg ative
super class
ni a
o paque
Ġcol on
ĠC PU
22 128
su er
w heel
ang ible
y ond
D uplicate
as df
Ġo bs
ER GY
wri ters
ĠPY THON
mer ged
Ġaccess or
H J
ĠIN ST
G amma
Ġmo ves
posit ories
in box
Loc ale
en sor
a ug
Ġserial ization
y i
con tour
j unction
Ġso ap
GData Feed
Ġ ÃĦ
ĠF ont
uc as
cmd line
1724 11
. ),
get list
Entry FromString
Bound s
ne arest
diff s
Ġre use
seq s
177 141
ĠO f
Rou ter
Ġtmp dir
'] ).
ĠC SRF
Ġde legate
Ġget pass
Ġmat ter
Leg end
from timestamp
ĠSpec ify
T ITLE
abstract method
Virtual Network
im mutable
go s
Pop up
Ġ= ========
PIX EL
6 82
Ġpop ulation
in h
Ġretri es
ge orss
document ation
fin ders
ĠRE PORT
Ar tist
st able
App ly
() ',
Ġroot s
declar ation
Ġpis i
pre serve
Ġguarante ed
N i
e uc
char ge
Page s
Ġrespon sible
7 80
ST OR
M argin
Ġurl resolvers
gen cy
:] ))
5254534400 02
Ġsta ff
Ġ1 60
se mi
Par a
N ick
Ġne cess
b la
ĠI E
ĠW arning
is co
) </
No tes
Th reshold
SH ARE
Ġn esting
* /
N Property
Ġ1 97
Ġ ĠĠĠĠĠĠĠĠĠĠĠĠĠĠĠĠĠĠĠĠĠĠĠĠĠĠĠĠĠĠĠĠĠĠĠĠĠĠĠĠĠĠĠĠĠĠĊ
Ġmo ving
Image File
` _
ast ic
ship s
Ġasyn chronous
R IB
fo reg
9 80
ro ck
orator ies
]) ',
acc um
Ġi x
St roke
ĠTech no
ur is
ĠFR ACTION
N R
clusion s
UL ATION
rand range
T rain
Ġb one
d ue
Ġf rappe
Com ments
CH UNK
nes ses
... ')
REF ER
W P
Ġlocal host
un supported
Ġun pick
E ric
Â¤ Âĸ
w l
Ġabs path
Int ToType
Mod ify
e ast
ĠName d
/ +
map hore
ÂĦ ",
e ItsMe
que s
length s
TR Y
contrib utor
ĠC HE
Sub Resource
9 66
Ġ" >
> }
6 23
() +
key board
select able
U r
in str
Ġear ly
Ġwe echat
ĠSUPER SCRIPT
f re
Doc Test
Âĥ Â©
bot o
L ess
logger s
14 38
im i
* ')
Draw ing
H IG
to String
ĠR ow
B LOB
zi one
w glext
Ġinterest ing
b one
g x
add Item
clas sifier
de lim
12 3456789
keli hood
Rot ation
ufact ure
Ġs caling
Ġ... ,
Clo sing
ĠMax imum
K o
err check
v at
ur bansim
ĠEn able
st c
l us
poly nomial
Ġ1 32
O U
me rc
tp os
ni ed
] ==
Second ary
8 20
Ġh is
Â© "]
el a
Ġinv ol
authentication Token
ÂŃ Â¦
no tice
SIGN ED
py doc
ort ran
mp y
00 29
12 01
Ġgener ally
article s
can v
MET AD
ĠM D
G it
co ol
ĠT AG
Ġcombin ations
en crypted
Ġmu sic
Ġhist ogram
mp oly
Ġq t
Y Z
mar shal
5 31
rec tive
ÂĮ "]
Âĥ Âī
v ary
z es
Ġcap acity
Ġt weet
queue s
149 181
sur f
Ġun set
J y
BO OK
pro be
fc n
grid Layout
token Queue
7 23
group dict
Ġin strument
Ġh ar
)) -
("/ ")
Ġexp lanation
Ġsi ab
ĠPro perties
f ra
max size
ch k
un ic
Ġstop ped
12 55
g v
conver ters
'^ (?
sci py
in place
at ur
ĠS ocket
M er
Ġh aven
DIRECT ORY
pa rency
nc ur
Ġend block
foreg round
W AY
Text Input
ia o
defin itions
CS V
14 00
Ġsup press
ĠLab oratories
Ġd uplicates
ol ar
M edi
mp l
Ġtool bar
B eautiful
tr unc
lic ated
Ġip addr
que e
reg ress
b Ãĥ
Ġdistance s
xd ata
l bl
lick r
_ )):
attach ments
f red
l ad
Ġld ap
Error Code
Ġv ote
9 20
py lab
L B
19 87
Table s
1765 47
({ })
7 63
= __
Ġh ot
Ġover flow
FUN C
Ġf b
ĠCon tributors
Or ganization
p Ãĥ
li sted
Ġxb mc
= <
may a
IM ET
Ġpatch es
Back up
ĠB ig
Ġh ello
Ġde tection
Go od
ĉĠĠĠĠĠĠĠ Ġ
check out
and i
K w
BIN ARY
n am
Â¥ ÂĤ
ĠSo up
gu ous
9 28
read ing
Ġthrow n
Link ed
rst an
l ord
kd di
8 30
ĠHeader s
ĠEN ERGY
For ms
P V
d yn
ĠEn coding
ge l
ĠSH IFT
izv rstan
ĠSH ORT
Q A
H a
f ol
ct ree
mm m
u y
b h
T BinaryProtocol
Ġet a
assert Redirects
ĠFl ask
Acceler ated
K NOWN
ĠH ash
atom ic
7 83
00 15
ĠM obile
Ġ" ÃĹÂľ
Ġpro f
Ġo gr
Ġ{} '.
Ġd p
trans lator
Block s
st h
L U
Ġtra it
ĠSchema Migration
R l
I UM
ĠI V
py core
Py Py
ob div
Ġbyte array
Ġ art
Ġtri angle
ĠIN TEGER
D LL
con ditional
plan et
ĠReg ion
ĠNo v
Ġout line
Lo ok
H ORIZONTAL
Trans late
Ġnamed tuple
9 23
E QUAL
K a
"""" "",
Schema Migration
Encode Error
+)/ $',
x z
Ġne arest
ĠREQU EST
K D
pack ed
Ġ ĠĠĠĠĠĠĠĠĠĠĠĠĠĠĠĠĠĠĠĠĠĠĠĠĠĠĠĠĠĠĠĠĠĠĠĠĠĠĠĠĠĠĠĠĠĠĠĊ
J D
ĠCom munic
Ġappro x
token izer
22 327
graph ic
Z oom
Ġdec ision
sim ulation
ĠL GPL
p ho
NV PROC
ĠMod ified
: _('
Ġcon cept
Up loaded
ĠGeometry Field
Conf lict
Ġsign ificant
S napshot
reg ist
Ġ'- ':
R B
PO SIX
Rec ords
ĠRe ce
$ (
T ASK
Ġx path
Ġf lex
29 65
('/ '):
'] ],
po ols
ĠM ore
Ġo d
in vert
V EN
H ASH
Ġ1 39
Ġur lopen
Ġr tol
Ġ> '])
pa int
Ġperform ing
ĠLo ader
H Y
H elvetica
t type
8 17
tern atives
exp anded
raw l
xhtml mp
safe string
g mtime
S ince
6666 66
st ic
Ġag g
ch apter
ĠB io
comp act
Ġdeserial ization
ĠW rap
j b
re ame
K i
th esis
1667 81
ĠS pace
14 77
re structuredtext
v z
db se
TH READ
MAN AG
Ġprocess ors
ĠBo x
Ġcom bo
ENER ATED
in fer
Ġsearch ing
ĠT urn
R ound
stop ped
Ġ` \
Ġw ildcard
ĠA CK
ĠRE G
Den ied
ĠP UBLIC
lat ing
Ġa cl
report s
s he
draw ing
C OR
trans actions
greg ation
r q
05 88
CLU DE
Ġtag ged
Ġsp acing
an ish
F W
fa sta
Ġle ad
Ġ< >
Bal ancer
k Theme
tr p
nc y
MARK ER
170 854
adm ir
Ġen crypted
lib c
Bu ffered
he art
H int
t ornado
Error With
Ġy min
EL DS
Time Field
b ee
int y
Ġs b
pub lication
Ġf rontend
Ġsp ectrum
al ker
an im
book mark
Ġ" "),
GEN ER
Ġtermin ate
j unk
K O
ĠN um
tz name
con fidence
As sertionError
De leted
app server
Ġf c
Âĵ ',
pur ple
place ment
ĠSy m
debug ger
La unch
179 889
04 38
Ġ< %
REC ORD
ti sh
Work flow
ty pec
b ill
Conn ected
s andbox
lo ver
al ice
Ġ1 34
AG TT
Ġoptim ization
4 81
Ġu nt
sp readsheets
Ġqu oting
Ġ ################
Ġcallable s
00 40
u ated
Al bum
S ENT
ĠRe lease
16 28
cor r
Ġmat rices
G M
sur vey
H alf
Ġest imate
Ġclassifi ers
re moving
1 00000
f amilia
Ġre member
du pe
diffe rent
VARI ABLE
on line
V pn
# '
interpre t
} -
ans wers
ne ver
] })
y lim
String Type
NetDevice Container
() )))
\ ">
Ġdecor ators
R d
Ġc elery
rab ic
ĠM E
Ġtr uncated
Â¤ ",
.* ?\
9 68
Ġprovision s
N X
in iti
ĠX HTML
fl ask
Ġre dis
start Index
avig able
O riginal
Ġh er
oc al
S outh
at tempt
C ANCEL
un a
Propagation LossModel
m V
Ġcustom ized
return ed
VIS ION
Cal ls
enume ration
5 61
get Text
22327 324
Ġin ch
Ġbox es
++++ ++++
UP LOAD
Ġen tered
Ġti p
C ircle
Ġ1 92
Ġens ures
RO C
w ee
IZ ED
ri st
inte grate
< %
Ġs he
Ġedit ing
177 222
under line
ar ith
Per cent
ĠAsync AR
{ _
Ġ( .
Big IntegerField
sca led
spec ies
j ack
6 81
Byte TagIterator
Ġ(? :
T G
UN IX
multi ply
Ġconfir mation
) [-
Âĥ ÂĹ
S amsung
u ations
report lab
Spec ify
ĠCon ver
gener ators
Âª Ã¥
Ġcomp lain
Ġre la
+ )?
Ġ1 16
ref ul
ren ch
B W
Ġdoc tests
Ġr ho
ĠO WN
ÂģÂ ı
x min
next Sibling
queue d
Ġ', #
iso format
ncur ses
SE CTION
so lid
font size
P X
go bject
in sensitive
k f
Ġtemp erature
by name
ĠCon tributor
bal ancer
zK et
s mooth
ĠMAC RON
at ty
tra verse
17 74
Ġwork space
Ġc um
u ced
TBinaryProtocol Accelerated
)) *(
mm f
Ġbuild out
b cc
scal ing
Ġst udent
p ulse
ar tifact
set Font
SK IP
Ġ( ((
og enerated
Ġ(' _
Ġ: ]
N r
Ġeff ective
ĠX X
URL CONF
Run time
Ġel imin
Ġde cl
Ġ1 53
Set Prober
Ġgra b
ĠO b
Ġre duced
HTTP Connection
Separ ator
Ġa bbre
Ġtri ck
Ġif ace
compati bility
Ġd m
hist ogram
? ")
I i
Ġar ange
do f
ĠControl ler
ĠS ort
og en
Ġ''' )
ĠY our
Ġ1 03
Ġex ceed
Ġg i
ĠRe presents
De velopment
Ġb ridge
up loaded
Ġtrack er
Â£ ",
9 83
Al gorithm
Bind ing
Ġbug s
c utoff
ĠSystem s
mod ifier
feed back
Inst aller
F uture
in cr
E ff
? %
inline Callbacks
Ġpre sence
ail y
6 83
j y
Ġ# (
CT X
ĠDocument ation
Ġ@ {{
O X
get Value
17 07
ĠA bsolute
For bidden
cer n
st ick
all ing
un ame
mapp ings
er n
as sets
." .
q e
ĠMag icMock
Ġmod ifier
B Z
ch ant
Ġfri ends
T y
Ġh olding
ma zon
dist ro
ĠEn ter
Ġt aking
Ġad ap
Ġtra iler
> ","
RO LE
Ġtoken Types
abo ve
ds r
connection oriented
Regex Field
Meta Data
x is
7 21
ut s
av ailability
C Z
k p
ma intain
add Cleanup
Ġtes ter
1764 68
ul ative
Ġso on
PRO XY
Ġp w
ai ro
re ography
CR YPT
Ġ0 6
m z
Ġtermin ated
Ġas c
to lerance
ĠI M
H h
Ġ{ \
Ġsub dir
E cho
Ġman agers
ĠAR MPolling
UT ES
Ġ utc
actions api
Ġ}} ',
Ġsymme tric
Ġfilter ing
an c
bi a
Ġcirc uit
app y
ĠLo op
AG C
ya hoo
Ġf onts
A mount
ĠMe mory
9 63
sc ra
ate l
/ ':
4 61
man ip
Ġ'/ '.
Ġversion changed
i one
Ġcipher text
> $
loc s
ĠUse ful
Ġcom ing
ne ar
op ense
plic ity
14 71
pri mitive
ul y
O LE
Ġ ly
ke w
---+ ---+
19 04
ĠC atalog
post gis
cri min
ĠCon tainer
circ uit
Ġw rapping
ĠSHA DE
he at
ati ent
Ġ201 4
ari os
admi ration
Ġmis match
Ġ" {}
ĠD ONE
Ġco er
( .*?
F req
N u
Âŀ Â¶
Ph otos
I cmpv
p list
G r
ĠIn clude
() [:
Ġ'{ \\
config ured
g cc
w elcome
Ġallow ing
Ġ] ),
un lock
cred its
g old
entic ator
Ġloc ate
] ._
View er
A WS
pre amble
uti lity
SAPT SCS
o z
rout ine
ĠP ay
Ġcrypt lib
Ġc map
ĠS DK
late r
ENT ITY
Ġget ter
=" -
grid cell
Imp orter
ĠMySQL db
; ;
Ġfact ors
Ġpis itools
Err back
ad b
Ġb tn
ur b
1728 65
Ġskip ping
ick i
1777 19
me ans
B order
ĠF IR
By Id
P ref
Ġqu ite
Ġj avascript
Ġ( #
ĠStream Reader
Security Group
mut ations
167 281
Ġst icky
sub module
Ġg codec
ul ating
p url
Post al
An notation
Ġde t
ĠSt ates
ĠBo th
ĠLen gth
start up
__ ['
e E
Config ure
P ad
N or
Pr inter
U id
tra st
] =='
Ġroot Obj
G n
ge tenv
FOR WAR
9 31
Ġ(' *.
OL LAR
serial ized
peri ments
'^ [
B K
o a
c tr
sw ift
gu ide
OS Error
9 50
I Q
url join
bo ob
bre w
ĠRE S
id i
Ġdisplay ing
ĉĠĠĠĠĠĠĠĠ Ġ
con sistent
Ġas sertion
tls lite
lo bj
Object Deleter
temp ts
Ġ ĠĠĠĠĠĠĠĠĠĠĠĠĠĠĠĠĠĠĠĠĠĠĠĠĠĠĠĠĠĠĠĠĠĠĠĠĠĠĠĠĠĠĠĠĠĠĠĠĊ
Ġpro posed
pri or
1767 99
9 62
6 21
bu ffered
Public Key
K ER
Comp ile
Ġth umb
byte order
R u
d na
20 36
Ġmark s
Ġ1 40
Ġfa ces
R oman
Ġke eps
ĠCal cul
Ġtrack s
Ġpref er
Ġ'/ ',
re peated
W eek
Or deredDict
Ġ'{ "
Ġhash es
Null BooleanField
8 11
ĠP M
R i
and a
Ġ7 22
Handler s
c vs
18 75
Ġm andatory
Ġpa use
FO RE
ĠTh us
R AD
ĠM AY
Ġvalid ates
x lim
jo hn
Ġsc ra
Pri ority
li ch
Ġfor um
Tool Tip
Ġal though
F u
tifi ed
are r
5254534400 01
Dis abled
View Middleware
F lavor
17 09
ĠH igh
G H
Ġhead line
))) -
Publish er
ÂĶ ÂĢ
q os
Ġg t
Ġview er
Dis pose
E q
29 41
as m
Ġest ablish
Ġout come
Text TestRunner
bb b
CH ANG
19 00
dh cp
Ġlin ewidth
14 15
AUTH ENT
glx ext
Ġsan ity
> [^
j h
Ġav ail
und ay
SY S
C BC
Ġv box
ARB PROC
Ġcon sistency
ÂĲ Âį
O sc
ob server
ĠDe vice
S HE
ĠAsyncAR MPolling
="" )
PARE NT
(' "',
http lib
AAAAAAAAAAAAAAAA AAAAAAAAAAAAAAAA
lo ops
Ġ[ ,
Ġl argest
Ġcom m
sub domain
ĠImport s
Ġwrapper s
ge thost
Struct ured
ĠSy ntax
Ġs lave
Ġqual ified
M b
Ġ" ^
14 65
Sign ed
rup o
Ġsql types
RE TURN
in herited
W imax
Ġmulti line
, ],
Auth enticate
Helper For
] ][
P ow
STO CK
s outh
Non linear
ĠS ci
G as
Ġimplement ing
Match er
p late
Ġcapt cha
ĠMED IA
Pre view
ĠPro vides
graph y
Ġerr msg
ril lic
ĠF ri
Ġrecur se
Ġmo tion
gp fs
MP P
ak o
alloc ator
um flex
# "
Ġr l
Ġarg list
Ġfind ing
t weet
j en
CON N
} ],
ĠCo uld
Ġse mi
sr v
ĠA bility
Ġproto cols
st y
ÂĦ ÂŁ
m otor
Rect angle
M Z
ĠFE ED
Ġat ol
Ġaccess ing
Ġ(" -
Ġv cs
Ġ"""< ?
L y
Ġreg enerated
ĠL exer
Ġp eek
A ni
Ġ---------------------------------------------------------------- ----
Ġr q
len der
bi bc
YPH EN
Y ES
Ġw heel
down loads
termin es
sp ended
Ġresult Type
Ġfolder s
Ġoverrid ing
ĠUnicode Error
n k
ENC ES
UL GAR
d pi
i ms
R N
DIS ABLE
D r
RE SET
ELL IPSIS
in ery
G REEK
Ġsym bolic
Site map
Scale Set
+ '\
1659 70
12 79
W KT
" ?>
Ġ serv
V IR
Ġm or
9 30
w est
um bs
ĠQ uestion
TC list
Ġclas hes
BY TES
Sub familia
side s
14 41
Ar r
Ġparse String
Ġr sa
Ġbr ush
ĠCp Inf
He re
J ust
The ory
ĠUP DATE
c ub
uma ble
\ ":
17 2014
Ġin sertion
]) ):
W x
sub ua
110 6
li e
Par tition
Ġass uming
> |
25 80
test case
LE CTION
B ridge
intr onic
Request s
Ġun supported
SCO PE
ag ger
Ġ"# ÃĹÂŀ
() ')
analy ze
N ested
& \
Ġdoc strings
symme tric
b ird
Ġfin ite
PFNGL VERTEX
() ")
re write
ee e
R obot
V D
Ġ ĠĠĠĠĠĠĠĠĠĠĠĠĠĠĠĠĠĠĠĠĠĠĠĠĠĠĠĠĠĠĠĠĠĠĠĠĠĠĠĠĠĠĠĠĠĠĠĠĠĊ
ĠModel Form
av oid
Ġmulti p
Ġend points
ĠDistribu ted
> )
db api
Ġw ater
ĠC E
P ending
iden tical
ÂģÂ į
Ġbro adcast
Button s
d ct
op wv
data Received
No thing
AT IVE
Â© ',
ÂĢ ÂĢ
_ ')
hint s
norm case
Â¸Â ŀ
char ref
Ġdeci de
Ġdemon str
* [
ul ing
ÂĿ Â´
acon da
F H
Ġk b
WW W
NULL ABLE
Char set
vari ate
ÂĲ ÂĪ
Lo aded
Plan e
(" >
n ex
form ula
Ġsp rite
agent s
ĉĉĠĠĠ Ġ
err ing
ĠQU ESTION
ÂĽ Â´
/ %(
CH A
Ġc ube
cre ase
S lider
Ġro l
Sy nchron
QUE UE
long long
5 81
Ġsa ys
ĠInter net
arn a
Ġ'- ',
14 01
py object
lap sed
rer ror
Di alect
k inetics
Ġ' ),
Âı _
Ġde leg
Reference Count
ĠT otal
Ġ{}}} }}
(_ (
en ium
Ra ise
Ġde comp
Ġx min
unc er
ĠDown load
Ġurl conf
] .__
R X
Ġsniff ed
h v
1665 14
Remote Station
Ġsocket s
Q g
ode tic
udi ence
de m
make file
g ran
ED T
ĠStream Writer
ĠUp load
el m
Ġcau sed
Ġbound aries
fici ency
ec b
)) ',
Ġunder stand
H N
Ġi gnoring
sr p
Ġ1 33
LI BR
ĠF ull
re si
r file
cus sion
O ps
#------------------------------------------------------------------------ ------
Ġ4 326
Ġen dian
tra iling
te sian
mk temp
Ġnew node
Ġexp ansion
)] +
Ġ' !
spher oid
Ġle s
st ors
en codings
y cle
Ġweek day
end points
di mage
7 81
ac me
l just
ĠF low
ĠRO OT
For ce
n od
000000 01
W here
CHECK ING
Ġinv oice
ĠOWN ER
nap se
00 06
ne cessary
EN O
Ġc txt
row count
Protocol Message
F requencies
ĠH YPHEN
Ġad apt
D aemon
Ġag ree
oper a
Ġk args
inal ity
Task s
Ġsoft tabstop
INTER NAL
patch es
Ġ' +'
Q D
R ating
R pc
ĠR MG
ĠTEST S
N orth
Q Rect
u tive
TIME STAMP
dis p
Packet TagIterator
Ġ1 06
Ġpr incipal
Ġ1 11
S al
ud get
CO UN
Ġh a
ĉĉĉĠ Ġ
w an
Get N
Ġqu antity
============ =
sc enario
und ant
Ġpost al
sn ippet
s olution
Ġarg str
final ized
m ult
SCHE ME
ĠJ S
Ġimport lib
Ġpar ses
UD P
And Return
def n
vi sed
Ġor acle
Ġ' {{
En glish
Ġfont Size
ti k
A k
ĠW here
Ġ9 3
oriz on
b x
to list
s chool
ALLOW ED
A J
b om
inst aller
Var s
q x
Read y
Ġ"< %
time tuple
ĠCh anging
ni tion
D IM
Ġ# --
value Of
ĠS an
ad c
Ġfirst Word
L l
create Element
SER IAL
bi as
st ro
+" -
} _
1656 17
SGIS erver
re ject
PE CT
H B
C c
mod s
v nd
RE T
quen tial
Z IP
Def ines
ĠLayer Mapping
Ġl atter
tag Name
Ġav ailability
be red
:: _
Ġboot strap
un escape
lin der
by ref
Ġ2 78
test suite
local ize
12 04
declar ations
I k
c ab
Ġrec orded
ORD INAL
Ġro s
u D
b race
ex tends
substit ute
mi os
M N
W elcome
ow el
ani mation
Â» Â¶
Instance s
Ġme ant
Âģ _
p ressed
(" &
import lib
Ġ`` <
SUN G
Ġsm allest
Ã¨ Âª
W Y
Ġcheck out
config urations
Ġarticle s
, :]
Over flowError
pro pagate
Ġbegin s
PFNGL GET
ec tivity
cr ash
Ġi map
Ġf lip
M ade
64 00
)** (
length VarInt
Ġk v
in clusive
Ġmon key
FI ELDS
Ġcontrib utor
Wifi RemoteStation
re x
j as
ama zon
re stricted
te ts
s udo
ĠFIR ST
ĠAbility NotImplemented
7 31
_ ),
EN DED
ok i
Ġun able
Ġunder line
Âĺ Â¯
00000000 00
hash es
Ġca pabilities
Ġ1 26
in en
host ing
Ġspec ifier
Se p
'/ ><
b py
p q
g ly
>> >>
Multi line
ind x
we i
Base d
re build
te nsor
ĠR ing
Ġl r
H U
ĠR R
.""" ),
ik a
ĠSE E
add Handler
Test Base
l w
d ont
ĠS trip
Ġinter sect
Ġbro ker
Ġdu pe
li ant
mbig uous
Ġvalid ated
C ASCADE
print able
S q
NOW LED
ĠCOM MA
Ġs keinforge
cr t
A a
Ġ0 8
Ġ Ãļ
Ġbook s
F ALSE
Str ategy
} $
b ash
Ġa f
Ġde signed
4 000
A ge
F all
ĠRe verse
ĠAn onymous
)] ))
Ġsup posed
W ER
AR ABIC
Ġmac ros
DE ST
o e
] [:
Ġscalar s
v ity
P ix
Ġun escape
H L
direction s
g allery
ur k
ĠV ULGAR
Geo Manager
Inte gration
Â¤ Â¡
C SD
z mq
Ãĺ Âº
Ġde nom
Ref Sys
x FC
Ġli terals
A i
Ġindex ing
ar on
H it
map reduce
inter rupt
dot s
I SS
9 38
Ġ ten
I mg
Ġen velope
14 89
RSA Key
block quote
ĠE ns
b ang
Ġ' ))
Ġeffect s
er a
ra ight
IND IC
Ġs al
Ġactiv ated
B ra
Ġsym link
Ġ9 1
ĠA CL
9 11
Ġp ix
sy ms
Ġnecess arily
Ġc rop
Pl us
ĠP E
write ln
Open ID
Ġpr inter
zzzz zzzz
gener ation
Ġt ls
ĠCur sor
ri o
ĉĠĠĠĠĠĠĠĠĠ Ġ
IB LE
DO C
navi g
> ).
M W
Ġg a
sc atter
ÃĹÂ ĺ
ĠF K
} ;
Ġa ug
G ate
ĠB ro
ĠH y
block ed
Ġco uple
CL AM
Args Command
T s
T ile
Ġinstruction s
PO LL
OG ENERATED
~ \
B est
al arm
Me an
Ġ}} ')
Ġre ject
Number Of
mp i
Ġref s
xF E
cas cade
z b
L at
_ ()
f j
prox ies
R G
Le af
al location
uc le
Ġp ressed
ac to
Ġsubstit ution
ÂĤ Â¬
Eric sson
bu d
Ġarg types
Âı Â¯
a udit
ĠMED IUM
MLE lement
('< %
", [
ni ce
oto ols
ĠL RO
ol or
da mage
Positive SmallIntegerField
Tw itter
Ġf t
Variable s
1773 19
ÂĤ Â·
ĠO OO
ÂĽ Â®
MI SS
ĠM ask
rel path
] },
Â¸Â ĭ
gl u
Com bin
B ranch
ĠAUT OGENERATED
ĠCon sole
Cal c
Ġp ing
Bytes IO
ck i
Ġt v
Ġsol ver
A nother
P lain
Ġkind s
Ġbuild s
14 67
Ġt un
Ġcomp act
Ġlo ss
TOOL S
ICAgICAg ICAgICAg
1637 59
f erred
Ġ/ >'
ji ang
not FoundException
00 80
K U
E ffect
288 00
ĠP RE
Ġcur ry
Global s
Ġ ĠĠĠĠĠĠĠĠĠĠĠĠĠĠĠĠĠĠĠĠĠĠĠĠĠĠĠĠĠĠĠĠĠĠĠĠĠĠĠĠĠĠĠĠĠĠĠĠĠĠĊ
262 144
Ġ1 37
erry Py
document Element
Ġsplit Line
? |
Ġ' ;
Ġs cr
ta inty
) <
ĠCl uster
Ġ'" ':
st Ãĥ
Ġv o
w xyz
CP U
replace ment
get pid
Ġissue d
mt x
tic ker
g reater
sc p
suffix es
mple mented
Q Y
rain ed
m ts
04 40
W all
Ġp an
UM ENT
Regex Lexer
00 18
iter ations
'] })
schedule d
Âª Ã¦
ĠFUN CTION
ĠP H
20 26
ten tially
Ġver ification
Ġweb site
25 24
log ies
` ."""
ĠLE SS
Ã ĩ
ĠR ight
Ġlook ed
Ġre write
Ġt or
Ġdescription s
ali an
ĠO O
ak a
ST ACK
Ġrestriction s
Ġflat page
ĠMoved Attribute
S el
S uc
S uffix
r z
01 44
SE P
mar ize
Ã ī
Ġ" {%
Ġpro pagate
UN C
Ġite ritems
", """
Ġhe alth
H X
Ġact s
NOWLED GE
ge sted
ĠUti ls
ance stors
Ġ& =
Read able
!!!!!!!! !!!!!!!!
pro pagation
graph s
ĠXXX X
eck i
our ier
ĠC d
Ġ" ,"
) &
ĠTer min
ne ighbors
Ġemail s
proto buf
loy ees
peak er
ra ms
Ġs ibling
P ie
Conn ector
175 888
t um
_ '+
ĠEqual s
Read ing
ĠC UR
Q k
Ġcl usters
ĠUN KNOWN
K A
multi line
19 80
Ġ{ (
no res
ĠAc tive
Ġsaf ely
le f
Ġ= ==
mo o
ĠSim ilar
ĠUti lity
Ġn ic
OPER ATOR
Rece iver
Ġ3 45
Ġreci pe
Ġassign ments
ĠG ra
am ine
sh or
Parse Action
bad ge
mi ra
CLAM ATION
B el
AB S
ÂĶ ÂŁ
V ari
Ġbal ance
Hidden Input
p key
Ġm f
C ES
ĠDatabase Error
+-+- +-+-
as i
tar info
12 09
Ġan imation
pk gs
ĠI sl
re ve
Ġs kill
uc s
ex posed
20 24
26 16
ĠRe al
kk kk
le ge
Ġo o
ND ER
i red
!! !
Mu sic
S END
Ġconnect ing
gs m
N OP
set Geometry
radi ans
(" ^
Ġbrack et
}} ',
Ġcor respond
Ġfore ground
* %
a ul
Sh are
(" (
ven ience
Ġb ench
Dele ting
Vis ual
Ġbu ffered
L ive
=" \
0000 02
Ġg rp
23 8095
CO MB
Â¡ Â¨
b ow
bu ff
Ġsub command
alen coder
O CT
n The
k om
Â¤ ÂĨ
Ġsk learn
ĠINIT IAL
i exact
v ectors
p el
Uploaded File
00 11
tri angle
Ġ] :
#### #
ag inator
ÂĲ ÂĨ
ĠM c
open ed
lic ing
Ġinter net
Ġno tifications
ai re
desc end
* ",
check ing
R ATE
Â¸Â ·
Ġw ind
ĠM O
Z i
ĠU Int
Ġpro grams
Ġmethod Name
Ġad vanced
av y
Ġtemp or
AV AIL
Base Command
20 30
ĠT ab
cre w
ro d
12 07
Number s
D et
Ġp f
ist a
mail box
Ġ 000000
ĠTAB ULATION
sh ire
expand tab
ĠA pi
Sub class
H u
Ġt bl
7 61
Ġn y
oper and
lib vlc
16 36
context s
Ġdrop ped
ther net
ĠR oute
Ġ201 5
ome tric
c it
Ġappro ach
Open GL
Mod al
ĠLog ger
ndic ation
ĠSto ck
Ġparser s
Ġfind s
Bo ard
u ity
ĠAuto Rest
k c
ĉĠĠĠĠĠĠĠĠĠĠ Ġ
Ġ( %(
fd m
e ither
an nounce
OT HER
AR C
Ġwe boob
meta var
add Action
Y ield
Ġm w
ect o
Ġstyle sheet
N F
ti po
urlencode d
bat tle
set Name
con catenate
d lg
Z g
is te
cl ucas
Ġ409 6
Ġ ,'
sp ector
pre ce
detect or
iet f
pa st
ler s
ac a
revision s
ke le
ĠRe vision
f rozenset
g am
Sp acing
19 89
reader s
ce a
ĠD avid
Ġkey board
TERN AL
ĠSec ret
Ġconven tion
================ ====
9 61
SAM SUNG
Ġ tem
Ġpop up
('_ ',
1635 88
Ġre named
ĠM at
y x
00 12
- ]+
Ġthe ano
Component s
C W
Ġ virtualenv
ĠRe ader
Ġdynamic ally
176 885
=' \
ĠACK NOWLEDGE
V m
Count y
x range
ĠS ch
Ġcontact s
Ġu an
le aves
Ġdata sets
cele ry
ĠTRANS MISSION
STOR AGE
**** *
win reg
u der
sample d
d ual
Ġgl uon
Ġ( *
byte code
Ġsn ippet
Ġ/> ')
LIBR ARY
l ro
z f
19 83
Ġi ma
Fo od
sa tis
Ġs pher
Oper ating
fort ran
lo st
Ġm type
srf ViewMiddleware
orm bases
AA AC
ad vance
Ġus able
ErrorWith Message
Ġwork ers
K K
Ġsli ces
Ġg rouped
14 69
current ly
associ ation
sel y
Ġsh orter
AG CT
Ġt l
save point
00 30
Ġdis p
Ġ0 9
Uti lities
weak ref
ÂģÂ Ĩ
ile ges
Ġmp oly
ill ator
05 05
up ling
IS K
ĠH ex
ĠPh one
() [-
ush ort
tr ust
test mod
ĠZ IP
ĠF INAL
rm dir
c name
Ar t
Ġ`` .
mail to
" ."
ĠRE ST
Y u
Ġcap s
Ġo m
j im
ject ory
ĠLookup Error
'^ [-\
SA VE
prot otypes
Ġurl fetch
un ted
ĠB ug
Ġse nsor
Ġturn ed
U ME
Ġc rc
Ġ1 96
work s
se nsor
ĠA WS
Ġalloc ated
n arrow
invalid ate
samp ling
Ġper forms
ÂĶ ",
an si
Ġc utoff
mit ter
li ers
Re quested
ĠType Definition
orm ally
DATABASE S
th ickness
gr ant
2222 2222
la ys
. ]
ĠP l
ÂĪ ÂĲ
Ag ain
Ġ) ),
ater ni
free ze
ĠLI ST
lob ber
Âº Ã¥
oc tet
o ffer
Ġt re
Ġr ffi
jk lm
Ġ ĠĠĠĠĠĠĠĠĠĠĠĠĠĠĠĠĠĠĠĠĠĠĠĠĠĠĠĠĠĠĠĠĠĠĠĠĠĠĠĠĠĠĠĠĠĠĠĠĠĠĠĊ
Ġd pi
fb d
ĠDraw ing
ĠM ULT
w gl
Pcap File
Ġen caps
g st
Âĥ Âķ
V ariant
Ġlo go
Or More
ĠIncremental Encoder
Ġse ason
ven ue
(** {
Ġpro ceed
de termin
ĠApp end
] >
ĠS AX
Tick et
U e
wo od
74 83
prom ote
rn andi
14 14
00 33
ĠB ASE
z ope
Ang st
ot ation
ene my
g us
1758 66
un able
LOC ATION
01 61
ĠContact s
u F
ĠAr ch
Cre ator
min e
ue sta
ÂĤ Â¢
), '
SER VED
Ġcheck box
od i
MO VE
Ġal phabet
F LOW
AL T
Ġ( __
success ful
Ġin direct
Ġ(_ ('
ĠG H
og us
PRO D
ony Ericsson
ĠS ol
Ġfriend ly
Ã§ Âµ
N y
ĠL ong
ĠGu ang
ag en
Ġimplicit ly
W o
ĠData set
ĠOn ce
P ED
ĠM em
sign atures
Ġval ign
ame teri
Ġ1 67
Ġsub string
ĠA TT
Match ing
current Token
pid file
C X
ĠX ml
ĠIncremental Decoder
############ ##
sig ns
te ams
10 25
zip file
Ġloc ator
Ġn avigation
Ġ edited
ĠE nc
] ].
U F
Ġ1 08
Ġconsist ing
Br CCl
ent s
Ġmulti ply
I o
avigable String
Ġm gr
s ale
od ies
ÂĻ Â¤
+ ]
b ak
q rst
1764 67
z k
',)), )],
ĠA ES
Ġloc ally
EN UM
expr s
Ġv an
ĠP or
co g
code point
p ys
File System
Ġdir path
ĠM ODE
At End
Ġ(" %
Ġcol lision
Ġ* )
level name
Ġk cal
ac cessed
Ġget Logger
B ur
CON NECTION
JSON Encoder
ĠParse Error
Sty les
Ġ' ):
l x
context manager
Application Exception
Exception s
% \
00 13
import ant
Ġ1 63
Ġ{} ).
List Type
sent ry
S imp
Ġpro tection
ĠZ en
P AN
M g
ĠD WORD
Ġconstruct ing
St reet
Ġ' (?
REG ION
F igure
v ors
( .*
reg entry
CE L
DO CUMENT
mer s
Ġal gorithms
Ġq c
Ġst anza
pi log
Tran sition
ar able
out ine
B OM
Har monic
Man age
Inter active
19 88
ĠMark down
/ '),
Service Error
ĠB ACK
c j
PR INT
ap pear
ĠMet adata
apt cha
SU FFIX
9 81
ĠE scape
om as
16 3296
Re play
ĠGRE ATER
ĠC v
Ġper manent
Ġin clusive
urn ey
ph ers
Â¸Âĩ ",
h x
Me asure
ĠFor ce
Ori ent
Sta tistics
409 6
ĠGEOS Exception
BY TE
Ġ12 34
CA ST
assertRaises ErrorWithMessage
Ġ jan
Ġmovie Profile
Ġg uest
Ġsc enario
B V
Star ted
Ġparticle s
Ġu d
ll ing
Cor pus
Ġoper ate
Ġ' =
Ġin str
ĠDoc uments
LOCAL E
b ones
Ġ1 66
fail fast
E s
ta rea
email s
chunk ed
At t
9 21
num of
Ġoccur rences
ame n
53 17
T oggle
B X
Ġmag n
ament o
Ġs udo
get Child
z ier
PO LIC
\ ._
out dir
ĠPar agraph
S X
Ã¿ Ã¿
Ġa bility
Ġ ys
Ġsent inel
S ink
HAND LE
Ġcon tour
n th
") ])
Ġprep end
} })
asc time
Ġy y
Cl one
P references
Ġ1 49
Â® Âĭ
local ized
Collect or
ind ocs
full path
__ ):
Ġph rase
Ascii Trace
w info
ĠC ell
ĠCON ST
ax y
interpre ter
we ighted
ĠSh ape
',' ',
G ONE
Ġ===== ===
Inst alled
assert No
} |
T ester
Ġc n
P al
C amera
Ġkey ed
Qu it
Ġ'# '
L ower
Ġide al
-------- ----
C v
N AD
Ġm om
WAR N
L m
ĠExp ect
U AL
Ġside bar
Ġg s
Ġs lots
OT A
the y
s la
Th at
B LE
e my
13 04
Ġdiv is
P AY
ĠC GI
end tag
Ġch at
Data Source
ER N
ĠSTAT US
Ġpre served
el ia
m kstemp
\ /
Or None
J e
index er
Dele tes
F f
\ ",
Ġvar name
v archar
S kill
Ġcomp uter
get frame
Ġo mit
VID EO
Ġcapt ured
fil m
ai o
cy an
F G
ri ct
8859 15
Ġ1 17
b q
Ġrelationship s
ab ling
gra ve
m box
u Ãħ
CT RL
OK UP
Ġget regentry
Ġreact ant
get PrefixedString
Â¤ Âī
Ġsup ybot
listen ers
Ġseman tics
ĠComple x
Ġpercent age
Ġu m
19 95
Ġf re
Ġbe yond
10 27
Ad ditional
sol ver
il db
ĠIndic ates
profile r
COMP RESS
distance s
)) ?
> ']
O fdm
Ġan n
Ġget Tool
b ol
Ġf out
exec uted
Ġh box
ch ors
B ug
tri ste
SS i
Ġdb g
regression tests
b ecause
Ġcould n
ke v
Ġidentify ing
167 551
Ġ1 95
SH AD
Ġb ullet
ag a
car ded
E m
Ġsub s
appro x
ome ga
b il
1788 03
th rottle
00 22
si oned
Ġe igen
Ġun a
Ġc riterion
ĠMulti Dict
portal mmm
ĠM P
Ġf m
C e
Co ver
176 207
pc ion
ĠFin ally
Ġsim ulator
jo y
Ġa ware
bo unded
ĠD rop
sp end
BOUND ARY
Ġs co
ph ot
10 34
Mark up
Âĥ ÂĨ
PAL ET
' ([
(' ~
ak s
()) [
Tag Data
DebugFormat String
x X
add Errback
j iv
K Q
Âļ Â´",
Ġmet aclass
ĠDec ode
(' //
ĠTE MPLATE
E ET
Ġ timing
kele ton
13 89
s ched
Ġcon crete
Ġdis covery
B ODY
og g
ĠEX CLAMATION
CONST ANT
LT M
j query
Ġun available
Dis connect
Ex c
ANG LE
Ġt alk
Ġdetect or
10 29
_ ÃĹÂĶ
n ullable
ĠA nt
': "
ĠAR G
13 09
ich ael
Connection s
em u
ĠDis patch
ĠID LE
DB F
ti ll
ĠT yp
Ġun gettext
Ġlength s
Ġsub scriber
sp o
ine se
temp erature
Ġcomp ound
ĠSy nc
Ġ Ãı
METAD ATA
write lines
Ġfunc name
({ },
ĠC RL
format ters
00 44
ĠUP PER
M j
s uggest
a odv
Ġep silon
sent inel
R V
S eed
Ġpro mp
00 14
25 49
lon gest
am mira
ufacture r
ĠUN IX
Ġco erce
User Profile
Ġs mooth
ĠT iny
Ġupper case
F U
mo z
Ġ ĠĠĠĠĠĠĠĠĠĠĠĠĠĠĠĠĠĠĠĠĠĠĠĠĠĠĠĠĠĠĠĠĠĠĠĠĠĠĠĠĠĠĠĠĠĠĠĠĠĠĠĠĊ
1667 84
Ġan t
Merge FromString
Ġda mage
http d
ĠIn cluded
rev s
Ġas ked
sub code
v re
Qu antity
ĠAD MIN
group ing
cs r
13 10
H Z
Ġz c
D l
aaaaaaaaaaaaaaaaaaaaaaaaaaaaaaaaaaaaaaaaaaaaaaaaaaaaaaaaaaaaaaaa aaaaaaaaaaaaaaaaaaaaaaaaaaaaaaaaaaaaaaaaaaaaaaaaaaaaaaaaaaaaaaaa
Ġclick ed
Ġmen tion
author ity
ĠE C
Ġ. /
ĠLinear Ring
Ġinter action
Ġre directed
1234 56
t ate
B log
~~~~ ~~
F g
Ġes caping
an imal
ĠGL double
y c
v w
Ġclas sifier
172 992
NotImplemented Error
Di rective
MENT S
Osc illator
ing ton
db us
Ġi llegal
assertIsNot None
i li
Ġc aches
Application Gateway
In sensitive
sk a
g row
ĠP il
16 29
re pe
appro ve
adm indocs
ĠRo le
get size
Ġcon cat
soft bank
Ġp itch
WH ITE
F act
Par sing
f Name
pec ially
basic Config
Ġ2 05
-------- ------
ĠW R
fore ver
Ġhash ed
O w
P NG
equal ity
12 05
F ollow
Ġ"- //
Ġ@ @
ne ighbor
Ġci ties
z ing
Ġa ws
mix er
Qu eries
F UT
Ġhappen ed
red dit
ĠV ol
F ingerprint
K Y
Ġver ified
MLE n
Ġp lots
__ ._
lin ewidth
S INGLE
Ġf la
[ ::
04 41
" \\
Ġ1 999
Ġmod ulo
Ġp x
Âī Âį
REPL ACE
par s
gl X
ĠgetTool ByName
P an
BL ACK
Ġposix path
fort un
[ <
me as
SL ASH
Routing Protocol
Ġtag name
a go
ĠP lay
ĠAR M
re striction
) =
GAT IVE
T ED
Ġj id
qual ified
17 99
ĠP ending
PL ACE
Ġord inal
DIS PLAY
Ġv elocity
ĠY AML
ĠMeta Data
20 32
CCSD T
Ġcom munity
US AGE
iso lation
D ock
ular ity
Ġfo od
micro seconds
A rc
R AT
ry pted
Ex change
ĠC ap
ÂĢ Â¸
m ss
Ġs ampling
key Order
fact ors
Ġexp orted
sync db
PK G
face t
Ġh d
C ent
Ġf ft
side bar
n oc
Ġa a
ÂĤ Âī
distance FeedRate
LD AP
Ġle aves
Multicast Route
Ideal Gas
ĠG UID
Ġ'/ ':
Ġnume rical
Ġcon caten
View s
rection s
ĠRequest s
(\ '
Could n
& *
e ol
Âĥ Âĩ
pos ted
Ġe le
app name
Ġus ual
1768 01
Attribute Information
presen ce
res id
Ġw ww
Ġ' '):
for ced
ĠH MAC
B ORDER
p is
ad apt
Ġco efficient
comp uted
Ġsca led
Ġr val
Ġincre ase
/ ~
Ġf loor
! @
Ġ$ "
Ġtest Get
inte gration
Ġschedule d
Ġco v
ND w
ver ification
9 40
da ily
k al
m ig
ul ner
sup press
ĠNet scape
IF IC
Harmonic Oscillator
Ġ[' ',
List View
Angst oms
} (
00 24
Â» Â¥
KEY S
Ġ ĠĠĠĠĠĠĠĠĠĠĠĠĠĠĠĠĠĠĠĠĠĠĠĠĠĠĠĠĠĠĠĠĠĠĠĠĠĠĠĠĠĠĠĠĠĠĠĠĠĠĠĠĠĊ
skip If
IdealGas Translation
k ay
ship ping
Ġb isect
gri m
86 27
Ġpref s
Ġneg ate
01 42
Th an
10 39
/' +
ou ston
ĠOver flowError
c ord
Ġh r
numof approved
t cl
Ġmedi um
ET ag
Ġal most
ÂĪ ÂĨ
j ac
PD v
Nonlinear Rotor
Ġrelease s
('.') [
") ],
D IGIT
Ġ** ***
Ġexec file
send all
10 88
(' |
bar code
Ġcle ared
ĉĉĠĠĠĠ Ġ
H ID
! %
ti de
__ ")
Ġover lay
... ]
termin ated
M z
b ul
en to
Âĥ ÂĲ
Ġnamespace def
Ġob server
ĠI I
SUPPORT ED
in er
h one
cen tile
bin ascii
AC L
ĠS ide
Ġf its
ÃĲÂµÃĲÂº Ãĳ
ump tions
ar th
pen ded
HTTP Client
up lot
x ls
Ġ1 45
S s
E ach
s keinforge
per s
Ġca reful
In ner
Ġmeasure ment
c andidates
Ġs andbox
Wifi Phy
V N
j abber
10 32
, %(
Ġsingle ton
Defin ed
# _
Su ch
u tem
Ġw f
ĠMulti ValueDict
ur on
T MP
ĠBase Database
ProtocolBuffer DecodeError
radost an
ile stone
ĠMon go
Ġp references
Ġch ance
GG T
=" +
ĠBase d
` '
Ren ame
Ġt ro
L vl
ĠP ur
ĠOption ally
Ġrecipient s
C at
Ġderiv ative
',' <
qu arter
00 27
ĠSpatial RefSys
os ome
ÂģÂ ¿
u FB
py py
AC COUNT
fec ha
Ġad vance
Ġs aves
dis cover
Â¡ _
Ġtri p
D X
Ġo paque
De leg
Ġcon sec
ĠD river
path sep
012 34567
172 802
ĠL LC
Ġ' ;'
Ġspec s
Ġmach inery
Ġ(' <
F requency
... ',
ĠF A
TH RESH
App le
alen ce
# ~
Inter faces
Ġt cp
170 876
Ġexp ressed
Ġ` %
Ġbo ther
ÂŃ _
ĠTemplate DoesNotExist
ĠEx pressRoute
Ġdash es
od bc
Ġmin us
di x
rand n
P hi
)) ).
Ad just
I W
Â» ",
ri e
al phabet
temp file
i ra
Fin ish
co efficients
Re quires
Ġte nsor
Ġlin ecache
in string
': (
pro vides
J OB
+"- "+
ard s
A j
H w
04 04
ĠJ son
cp us
Ġbuffer ing
w file
Ġt au
EX IT
Class Name
ingu ish
co ordinate
Ġ1 000000
Fil ters
us b
1784 24
Client Login
ti g
MAX IMUM
confir mation
ĠWri tten
ESC APE
//////////////////////////////// ////////////////////////////////
S ch
z w
ir t
loc kw
M utable
Multi part
ad dition
SEQU ENCE
M al
ĠExec ute
',' .
str y
suc ceed
G W
]) +
ĠH istory
ĠF il
No ise
Ġtop ics
ĠH tml
Â¨ _
ATION S
Ġ[] ))
x v
1633 00
F IND
ĠRe p
Ġdir names
app lied
Ġe ol
ĠPost greSQL
)+ "
Ġ8 00
Lo ading
Bo ot
Th ickness
dis position
open Elements
ENT ITIES
al ph
s ales
Ġal ive
F Q
Ġtrigger s
Ġpoint ing
ma ko
l ng
Ġd if
######## #
QtQtQtQt QtQtQtQt
Ġmode ration
=' .
ri ed
Per m
assert Template
ĠMerge From
ĠReg istry
BL UE
ub er
Ġ 0000
B s
AR P
OL ON
de comp
)] :
CD T
ĠUser Dict
ĠO ld
Ġpacket bb
Ġg n
Âĥ ÂŃ
ĠLoc ale
b isect
lin ed
d uplicates
Ġsim ulate
at tle
dig ital
mod ifiers
g ai
U h
um ask
Jets To
Ġunder scores
R ad
Ġe mitted
aj or
bu y
eng lish
UNI FORM
tra vel
(?: [
L ITERAL
Ġres id
ask bot
Ġl w
vari ants
Ġcon fidence
T I
": {"
ac tice
De vices
AN CH
NS Config
a es
h icle
y k
b ond
ar ded
ro te
Index es
Ġinte gr
actor ing
STD OUT
_ ÃĹÂľ
ud s
pref etch
Pbb Address
en n
Ġun link
Ġcom mented
ĠB ind
ĠTemplate s
ĠFail ure
Ro om
Pre sent
Ver bose
ĠFin ite
jklm nop
C u
in tent
w ids
co bj
Ġanaly ze
OR G
sw f
ib lings
10 49
iter ate
b is
aterni on
19 85
ok ing
c riteria
ab y
Direct ories
Base Handler
Ġauthor ize
Ġf akes
Ġp open
from keys
Ġme l
10 22
ĠR ING
C w
ĠA BC
ĠB AR
Ġout going
simp lify
) ``.
(' +',
An onymous
ĠS yn
Ġag gregates
ref lect
Ġ ĠĠĠĠĠĠĠĠĠĠĠĠĠĠĠĠĠĠĠĠĠĠĠĠĠĠĠĠĠĠĠĠĠĠĠĠĠĠĠĠĠĠĠĠĠĠĠĠĠĠĠĠĠĠĊ
Ġinst aller
Ġdis cover
Ġconven ient
11 12
Update d
Ġtime line
ET RY
De precated
S OR
W arnings
SP ECIAL
IN CE
ĠMET HOD
ĠS EC
Ġz mq
ll type
ug ar
Mu on
ĠIs Initialized
Ġth rift
Enc ryption
ĠCol lect
Ġnetwork s
Rec v
In correct
ĠZero DivisionError
R etrieves
U Y
M ERCHANTABILITY
in ge
re la
Value Axis
Ġlow est
Ġprivate Key
ZZ ZZ
ĠModule s
al ist
Run s
FY FY
Stream String
trans lated
ĠE urope
Ġspec ies
'[ \
RE V
MO USE
ĠAS N
GRE EN
der ated
ĠON LINE
Ġfor ced
K V
('\\ ',
tern atively
Ġcol lapse
F s
TypeId Value
ĠDI V
v h
di co
10 77
qrst uv
Ġdot s
00 99
termin ator
Ġ Keys
(' )
__ ]
sta le
r index
20 88
SOCK ET
Ġnetwork x
ĠBL ACK
on o
ĠT MessageType
POLIC Y
11 32
Ġsub directories
INTER VAL
Ġimmedi ate
L n
Ġu ow
ĠP ick
Ġmember ship
ĠP LEASE
branch es
py o
P ipe
ĠD IR
smart indent
ĠTex as
au di
Ġ1 98
Ġstream reader
L atin
? =
Ġba seline
Ġ 999
ĠA F
Comp osite
Ġrece ivers
Ġpatch ed
<< <<
Ġ1 54
Ġv el
split Line
Tr ust
ĠH ello
10 79
Iden tical
n se
Ġunicode data
Ġi l
Ġaut otools
ut coffset
1660 34
ul ations
ĠWork s
Ġw imax
177 183
are house
Mix In
1667 87
M ed
Ġw p
67 89
Ġstream ing
soft tabstop
z x
g py
Ġp ts
Ġdi ms
uck ets
D ont
ÂĮ ',
N j
Ġfoot note
Ġequ ation
cur ate
X R
Ġ'_ ')
Ġstream writer
Ġ1 47
Ġex posed
b am
> '],
ĠValid ates
00 25
shift width
FFFF FF
Ġ0 3
Set Up
Index ed
GR ID
13 79
ĠRE VERSE
F OLDER
. ']",
U GIN
capt cha
ĠSW IG
Ġh ub
cc cc
Ġtrans forms
gen ome
deri ved
op p
type id
Char SetProber
Č Ċ
ĠDOCUMENT ATION
Ġro unded
OG LE
Ġ1 55
Met rics
ry stal
10 23
K IND
r U
e mbedded
Ġ} ),
Ã Ĭ
m Z
ĠP atch
Sen sor
MAG IC
19 49
assert Output
gen re
} ):
arg ins
16 70
ĠGE OM
TU AL
J l
Ġcan v
Ġvari ance
s lide
14 24
CH ILD
men ter
Fl ush
G w
ari a
stand alone
stroke Width
g Y
Jo int
C entral
Ġ ÃĲÂºÃĲ
UD IO
',' /
Cap tion
Ġl t
J j
Ġa go
M c
Ġfor k
Ġpo inters
the se
utem any
poly gons
at on
Pro ducing
H our
\._ \(\
WifiMac Header
00 32
x en
mo bility
Comp any
mon ition
Ġv tk
ug gested
Q o
Ġexpand tab
14 72
f uzzy
q h
la pping
mar ty
Ġaut ogenerated
sp icious
UR ATION
Tree Builder
\._\(\ )]+
ĠLO ST
ĠEl se
Ġtransition s
Ġun safe
20 37
Build ing
He ading
ĠCom mit
handle s
Codec Info
Ġattemp ting
Ġattach ments
33 74
ĠNo thing
ĠM SG
ĠComp are
v k
Ġd raft
rg ba
Ġc ron
v od
Ġe b
Ġselect able
Ġc nv
read String
Ġ201 6
previous Sibling
im ing
MAP PING
Ġspecific ally
b ac
00 88
10 99
1759 73
al sa
Ġe ig
sn ippets
v illage
mon key
ĠGo od
P ACKET
ĠOutput Unchecked
mme tric
Ġ ĠĠĠĠĠĠĠĠĠĠĠĠĠĠĠĠĠĠĠĠĠĠĠĠĠĠĠĠĠĠĠĠĠĠĠĠĠĠĠĠĠĠĠĠĠĠĠĠĠĠĠĠĠĠĠĊ
Ġcom mas
IT ICAL
skip Data
assert Body
([^ \
Ġthe mes
aff ine
z ani
Ġloader s
Ġ'' ',
Ġre ly
GONE K
12 54
19 92
g ae
ĠO GONEK
ĠTo ols
$ ")
z s
IL LE
Cy cle
m illiseconds
per sistent
Q S
R W
S un
ĠF ast
ĠRE TURN
description s
Ġincrement alencoder
Ġincremental decoder
08 00
AG A
()) ),
ro i
Ġm ind
10 67
PROPER TY
SQL Compiler
APPL ICATION
Ġf ive
Ġlon gest
---- ']
S onyEricsson
Ġansw ers
OLE AN
01 03
ĠTry Merge
Ġre places
10 89
Â¸ÂĪ ",
or ge
` -
Ġ\ "%
z oo
Ġde g
ack s
K ernel
25 14
GL double
Mark et
99999999 99
d ra
Ġcycle s
S trip
Ste ps
v ph
Th ree
ri val
ĠF IVE
',' #
j ad
Ġi zip
Âı ',
X I
Re store
lo v
10 33
-------------------------------- ------------------------
10 37
04 00
167 098
C fg
Ġ' >'
V P
FR AG
ve sel
Ġ'. ')
con crete
ĠSC RIPT
ĠDe precated
sth rough
Ġn dim
15 09
Extr actor
S ID
xa xis
Ġ1 36
Ġpas sive
Ġre m
10 80
Ġk ml
pi der
Ġunder score
ĠPack et
ĠClo ud
Ġn aming
ĠA SS
who le
is abs
ĠD ig
sage m
down loader
REPL Y
AUTHENT ICATION
end a
return ing
Wri ting
qu anti
pur ge
navig ation
rack et
ĠTime stamp
que t
sub r
MIC OLON
il legal
[' ----']
> ':
D id
F amilia
ĠE IGHT
Ġp format
Ġp cap
Tra its
+---------------- ---+
Ġresp ond
Ġdoc umented
04 32
Analy zer
Ġb unch
Ġsuc ceeded
gin ary
ho ver
ver ity
Ġcomp aring
Ġco ok
Âŀ Âĵ
Ġdesc end
has is
game s
#---------------------------------------------------------------- ------
Ġgr ant
U ndo
b or
Ġ+ \
25 69
Ġh eld
ĠR SS
Doc uments
ol den
D y
V ault
sp eck
Ġpo tentially
IM G
cid r
Q Z
Ġ 329
Ġle arn
Ġco vered
ĠIMP RO
par dir
19 79
ĠSpec ific
GRO UND
Ġstroke Color
Ġr ubi
Time Value
G rupo
A z
Ġge vent
con tract
ĠL D
ĠR DF
UST OM
HTTP Exception
B H
v ant
inter polation
ĠConst ants
) ].
Ġyour self
Ġsw gpy
ĀĀĀĀĀĀĀĀĀĀĀĀĀĀĀĀĀĀĀĀĀĀĀĀĀĀĀĀĀĀĀĀĀĀĀĀĀĀĀĀĀĀĀĀĀĀĀĀĀĀĀĀĀĀĀĀĀĀĀĀĀĀĀĀĀĀĀĀĀĀĀĀĀĀĀĀĀĀĀĀĀĀĀĀĀĀĀĀĀĀĀĀĀĀĀĀĀĀĀĀĀĀĀĀĀĀĀĀĀĀĀĀĀĀĀĀĀĀĀĀĀĀĀĀĀĀĀĀĀĀĀĀĀĀĀĀĀĀĀĀĀĀĀĀĀĀĀĀĀĀĀĀĀĀĀĀĀĀĀĀĀĀĀĀĀĀĀĀĀĀĀĀĀĀĀĀĀĀĀĀĀĀĀĀĀĀĀĀĀĀĀĀĀĀĀĀĀĀĀĀĀĀĀĀĀĀĀĀĀĀĀĀĀĀĀĀĀĀĀĀĀĀĀĀĀĀĀĀĀĀĀĀĀĀĀĀĀĀĀĀĀĀĀĀĀĀĀĀĀĀĀĀĀĀĀĀ ĀĀĀĀĀĀĀĀĀĀĀĀĀĀĀĀĀĀĀĀĀĀĀĀĀĀĀĀĀĀĀĀĀĀĀĀĀĀĀĀĀĀĀĀĀĀĀĀĀĀĀĀĀĀĀĀĀĀĀĀĀĀĀĀĀĀĀĀĀĀĀĀĀĀĀĀĀĀĀĀĀĀĀĀĀĀĀĀĀĀĀĀĀĀĀĀĀĀĀĀĀĀĀĀĀĀĀĀĀĀĀĀĀĀĀĀĀĀĀĀĀĀĀĀĀĀĀĀĀĀĀĀĀĀĀĀĀĀĀĀĀĀĀĀĀĀĀĀĀĀĀĀĀĀĀĀĀĀĀĀĀĀĀĀĀĀĀĀĀĀĀĀĀĀĀĀĀĀĀĀĀĀĀĀĀĀĀĀĀĀĀĀĀĀĀĀĀĀĀĀĀĀĀĀĀĀĀĀĀĀĀĀĀĀĀĀĀĀĀĀĀĀĀĀĀĀĀĀĀĀĀĀĀĀĀĀĀĀĀĀĀĀĀĀĀĀĀĀĀĀĀĀĀĀĀĀ
m il
an cing
ĠReplace ment
Ġuni versal
An not
ĠMoved Module
Âģ ÂĤ
Ġre build
In tended
Â¯ ",
Ġal phabe
P rec
Ġh s
00 39
Ġac company
R h
Ġa k
Ġperiod s
Ġevent let
J s
Ab ort
Ġ' //
:// '
Pre v
qrstuv wxyz
R c
at ten
si ght
Ġshow ing
lane ous
In strument
[ *
ĠW hitespace
1719 26
G i
_ ='',
fail s
XML RPC
fil ing
w anted
20 35
1234567 8
iven tion
re hen
20 34
Imple ments
pos sibly
Ġdb us
rep lication
Ġvolume s
Ġst raight
Ġar m
USER NAME
Ph oton
Ġde sktop
ast y
ĠF TP
dentifi cation
Spec ification
EE CH
ĠCL ASS
d ow
Ġcomp arisons
Spin Box
), ))
() ._
close st
Ġpri mes
M obile
\ "\
r buf
Ġalloc ate
n gettext
22 65
o asis
Âĥ Â¡
C ast
ĠK ML
OPEN ID
Service Flow
U O
ĠSY MBOL
imple mented
ĠPO SIX
Ġ", ".
Ġbase dir
ati m
represent ation
Ġre covery
DI V
B RO
id ing
Ġqueue s
op ri
ĠCon tains
(""" \
Ġprot otype
cel laneous
13 37
25 18
Ġfl ux
Ġ.... :
PER LY
Ġfield sets
14 37
ĠRE FER
in ed
po tential
den se
10 64
ext rap
sa f
bro ker
Ġof p
icon tains
Ġtime d
ĠT Transport
** -
25 34
Âĥ "]
ĠVAL UE
STATIC FILES
virtual Network
IMP ORT
ĠPil grim
Ġsave point
* "
L ambda
Ġcol span
RUN NING
ĠSign ature
X C
di ce
ĠA udience
Ġ"* "
Pay ment
'] (
debug level
Again st
10 35
st fName
Ġwe ird
Z en
Ġbranch es
ml jiv
fe male
ĠIMPRO PERLY
al go
Ġs g
h aving
Ġp v
ĠP r
ol dest
Termin al
P db
Ġs ink
De mo
Ġun ary
ISH ED
number Of
ud p
d ong
qu er
dis covery
! #
Ġu b
ge ography
ĠPo ol
ĠK orean
Ġsp ot
ĠSG ML
#### ###
MISS ING
Ġlog ilab
ali brary
PE AT
o y
st icky
en ie
GEOM ETRY
Ġac quire
sp ital
Get Size
Ġra ce
NotFound Exception
22 64
N z
p lo
Min ute
ĠMany ToManyField
W ave
Â¤Â¯ ",
############ ###
k Event
table space
857142 85
-- +
Ãļ Âº
raw ler
Ġtem boo
a ÃĦ
ro g
ÂĴ _
bound ing
stand ing
zani mljiv
emp loyee
M otor
Permission s
DE LAY
od vr
ĠSIGN AL
May a
le ader
('.') [-
Ġmost ly
Add ing
re li
' ></
X z
ĠT ar
Ġv struct
Ġdeli very
ÃĹÂĻÃĹÂ Ŀ
Auth SubToken
H t
group by
Ġc url
ĠTemp orary
IMET ext
Ġin de
Ġattr name
+ ")
==' __
Ġex ercise
en tr
Ġpri mitive
Ġrece ives
Def ine
Ġentire ly
Ġne ighbor
() *
ĠEx port
LO OP
ĠUni que
wh y
cb c
a way
oo ser
12 84
14 09
Ġst ops
APP LE
k Control
01 60
X S
h ang
RE EN
Ġcla uses
r just
YY Y
100 7
Ġex ha
ĠPro gress
ĠA LE
. """)
iel ded
Ġx i
Ġ%} ')
Ġdiag onal
180 241
> "),
file size
ok es
ĠGener ated
20 39
N l
attr Map
Ġcalcul ations
ĠH ome
Ġre ach
Ġcap first
per t
ĠN ormally
Ġref lection
D G
tun nel
Text Ctrl
ĠCO DE
d atum
z ation
lan gs
Un recognized
Ġappropriate ly
lockw ise
Ġc art
il ly
Or gan
Z ERO
Ġ0 4
call Later
k top
ĠIn f
or ation
j c
ĠSup er
bibc ir
Ġn aive
167 102
Ex ceeded
Ġclo sure
socket s
O c
ĠAl ready
odvr atan
b are
Ġlib s
P atient
exemp t
mi ters
H M
ĠCall ing
Ġlicen sed
ls creen
lower case
delay ed
ra f
Callback Value
Ġ#------------------------------------------------------------------------ ---
S CH
Q Icon
data browse
al ternative
D ST
Ġinfo s
depart ment
Ġp unctuation
re cover
Get Instance
1668 39
Ġalign ed
ers istent
Ġsymme trical
ele ms
H ard
si tivity
put ation
Ġun register
Ġ'. ':
Ġv pn
Ġ ĠĠĠĠĠĠĠĠĠĠĠĠĠĠĠĠĠĠĠĠĠĠĠĠĠĠĠĠĠĠĠĠĠĠĠĠĠĠĠĠĠĠĠĠĠĠĠĠĠĠĠĠĠĠĠĠĊ
Ġattr getter
w ich
Ġin ject
01 11
ĠP ower
cl ash
Sh ader
AVAIL ABLE
Enum Value
Ġo StreamString
re o
Ġc u
ĠCount y
> ]*
Ġmp l
ĠSt d
Ġbrack ets
lock s
ĠRE C
it ro
ĠAc tivity
ĠA TO
Ġcomp utation
Comple ted
ur ator
Ġcon tribute
D s
mon o
allow s
> '''
Ġ) ;
L K
pen sive
A ut
ec on
Ġblue print
get Property
ĠP S
Ġh h
T IM
ub ble
Ġg row
as tern
Â® Â¡
anti ate
ref lection
ĠRe ferences
Ġ1 46
Â§ _
Spec ific
ĠEx ternal
Ġorder by
LOAD ERS
lose Connection
remain der
Y M
st im
add Child
. ])
N H
inte gral
B w
Ġfac ility
Ġde veloper
f ancy
ne y
k id
ep silon
Ġany more
Ġr f
G radient
p ct
Z e
fix es
Inte l
ĠH ook
As set
ĠM ON
E EST
l un
Ġfunc s
Ġlook ahead
Ġatom ic
mp o
ĠA void
Âĥ _
gg led
Av g
Ġs ufficient
imple ments
Ġsche mes
12 87
Âŀ Âļ
nor th
ambig uous
Ġp reference
int p
Ġch rom
is son
12 50
Ġtrans lator
Ġcol l
Scan ner
Ġz ones
R K
h df
ĠT ITLE
yp us
Ġquestion s
Pl one
f path
'^ $',
Ġcancel led
State Machine
ĠT ick
contain ing
vph op
W ay
10 87
no args
ĠN B
sh arp
Ġ** _
Al ter
\\\\ |\\
MA STER
ĠResult Set
M ount
Ġover head
Ġi ll
Ġfix er
cre ating
ĠS PR
Ġasyn core
PARE N
ĠUser s
/ __
G h
ĠI mmutable
Ġe z
effect s
s as
Ġmatch er
back off
Bo b
inte ressant
ĠM aking
Ġf old
Ġf rozen
set timeout
multi plicity
f resh
]) /
yyyy yyyy
ge m
back slash
inst allation
ifi able
ĠD ialog
ĠInter val
IN S
Ġes c
N CH
Ġwe ighted
NE ST
Version s
fortun ately
Re v
ri que
Template s
Ġde activate
Q C
25 84
Log s
S ku
Ġex pose
U Z
test server
b lo
00 16
f ut
resp ect
ĠLO GG
Work space
ÂŃ ÂĹ
Ġal one
Q E
ĠS IX
B en
in de
00 17
n ment
co mes
Ġintern ational
ti ff
PRO P
(' +
Up per
C ells
' </
ĠH idden
kind s
-------------------------------- ----------------
Ġ2 20
min idom
COMPLE TE
ĠC annot
ĠC LR
ON ENT
pol ar
rick let
00 55
raise d
Ġ'* ',
F oot
DRAW NS
indent ation
ĠE M
14 03
er g
Ġt rap
Ġre ST
Ġstr and
ĠJ ython
Ġextr action
Ġ2 54
24 24
ueb lo
ĠAppro ved
post al
it o
ate x
Type Definition
Ġlat tice
module name
br aries
Ġw t
857 142857
Ġpad x
PC M
Ġangle s
Ã ŀ
} ).
Ġdi vide
abcdefghi jklmnop
or ient
get Context
Ġsupport ing
() '),
SH IP
Ġ ĠĠĠĠĠĠĠĠĠĠĠĠĠĠĠĠĠĠĠĠĠĠĠĠĠĠĠĠĠĠĠĠĠĠĠĠĠĠĠĠĠĠĠĠĠĠĠĠĠĠĠĠĠĠĠĠĠĊ
ide al
Ġbas h
p il
er man
r uby
write String
ĠCan vas
Skip ping
in vite
Ġsen sitive
i pher
Pro be
nt l
ier arch
Ġter mios
non alu
00 89
rep nonalu
od is
c anceled
13 59
Ġ... )
STR ICT
or o
Ġset ter
Ġ'@ '
ĠI MAP
non ym
qu antum
sp ri
Ġimp rove
Qu ota
Ġcrypto ID
Ġadj acent
cl f
Ġen force
ildb ot
S MS
Ġsp ell
comple ter
Ġretrie ving
fc gi
ac ao
Ġp icture
Ġ'- .
PFNGLVERTEX ATTRIB
merc ial
t utorial
ma ti
per l
con cept
Ġ: ,
B ATCH
t q
test data
ĠUn defined
Geometry Field
ĠQt Widgets
F d
ĠPer iod
assertTemplate Used
in clusion
00 34
is y
25 88
CP P
ĠW rapper
bo ost
complex Content
e o
p end
Read Only
Ġpag ination
Ġ3 07
j elly
ĠS imp
e pub
Ġover all
Ġok ay
ĠAx is
db g
inf inity
Cookie Jar
M art
COMM IT
Ġv max
ĠDi ffe
Ġch i
Ġgu ard
Ġrecom mend
B tn
L ap
net mask
re com
ty pename
e ader
lat tice
Inter sections
170 842
Ġderiv ation
201 003
Ġd uplic
File Type
ÂĹ Â¥
pur chase
ĉĉĉĠĠ Ġ
Ġinter vals
SC REEN
Ġpred ict
c ame
175 886
trans parent
OP SSi
id ade
si o
Ġdifferent ly
start Element
Ġb rain
10 55
F atal
Width s
Ġattemp ted
Ġ` _
const s
25 60
\ ""
Ġre jected
(' *',
ak ed
Ġshared Key
# *
G ene
g photo
ĠGener ates
X lib
Ġpad y
Aggregate Iterator
= +
10 84
n ce
('- ')
1718 97
DAY S
Ġ'| '.
US B
Ġblock ed
de tection
st rength
P s
19 90
S at
re mo
Structured Text
R H
ĠF ill
Âĸ ÂĪ
Y O
00 49
add on
ĠR out
K C
ĠVis ual
c ad
atter y
Fulfillment Type
I z
x k
19 67
ne goti
Âľ ÂĢ
20 27
S quare
Spec ies
R oll
x FA
RE AL
] _
ac man
end Element
ci Ãĥ
Re po
date d
' (?:
De legate
Hy per
01 07
Ġ`` "
Doc s
ĠP NG
commit ted
ĠBu ilder
# -
Ġf av
Ġm ol
l ge
ĠD ot
Port al
04 42
get Element
Ġsearch es
Ġinte gral
ĠNormal ize
Ġhighlight ing
Ġcen tral
life time
COMMENT S
13 12
pro v
Child Nodes
associ ate
I llegal
us ually
Ġg rad
Up dating
ĠCONF IG
':{' .':
fix er
be a
16 85
], "
ĠM er
Publishing Date
Ġstroke Width
Or dered
i w
Ġar ith
Count s
Ġinstall ing
ar o
tern ational
B h
si Ãħ
C ATEGORY
te ro
contain ers
A h
mean ing
how to
Ġturn s
eff ective
transition s
Ġ ÃŃ
n is
TEST S
%% %%
ĠCHE CK
- ')
2 0000
ĠA MP
ÂģÂ Ľ
1767 01
Jo bs
E mbedded
c il
(", ")
00 26
to ms
re levant
Z y
Ġtest case
Ġ3 65
Âĩ ",
ĠIN F
P ing
si bilities
ĠST D
c ite
Op tim
1234567 890
{ \\
Ġh ouse
Ġsome where
Message Begin
ĠNew s
ke eper
j ython
Ġsa id
Ã¦ Âµ
p thread
re covery
Ġcon versions
ĠD ynamic
R y
PROCESS ORS
13 99
Ġh older
ĠRe moves
S rc
ther n
MULT IP
Âŀ Âľ
i pa
ac ility
ren cing
Ġpy plot
tra iler
lookup s
distribu ted
Ġa th
ST ANDARD
Rec ipient
sche mes
Ġl as
Ġ================================================================= ============
Ġb ra
16 01
J a
bs ocket
Ġstat uses
10 44
ĠUn expected
ĠWork er
istra tive
r vi
Ġth readed
CS RF
ĠP OP
q lite
Ġ( ("
De termine
C IAL
Ġuse rid
02 00
set ParseAction
Ġde velopers
Ġk ick
tist ic
w sdl
pas sive
St mt
O l
si stance
LAR GE
st rerror
() (
ĠT her
Ġdele tes
is space
ĠSE VEN
Cor rect
('. /
Ġsubstit utions
1769 28
i ters
ĠM ouse
S US
ĠAg ent
00 69
san itize
agent a
K M
> '),
a decimal
Ġr ings
ex cel
Ġto c
SO AP
out going
Ġdist ro
GetInstance TypeId
)) **(
`` ``
N AM
doc info
f le
and y
Q Widget
b illing
py module
User Dict
Ã ³
Ġexit ing
Ġf obj
ĠVer tex
C ustomer
ET CH
S b
Comp arison
Ġback ref
Ġinv ocation
ĠValidationTest ModelAdmin
BACKEND S
00 37
peer ing
DET AIL
(" </
P oker
') ]),
Pri me
Ġ[ {"
ĠG ui
Mo tion
cy gwin
S J
D ONE
Attach ment
METHOD S
q d
C riterion
Ġpa inter
par ti
parent Node
ro c
ro gate
ĠSerial izer
Ġreg ist
im show
PE M
Ġ2 06
Ġ-------------------------------- ------------------------
/ ">
ĠPoly nomial
ĠSR P
M ST
d ad
? ,
Ġ0 7
ATT ACH
OCT ET
ac tic
': {
i y
ĠT ake
Âĭ Â¤
Ġca pability
b ell
ri p
> (
G HI
Ġ ĠĠĠĠĠĠĠĠĠĠĠĠĠĠĠĠĠĠĠĠĠĠĠĠĠĠĠĠĠĠĠĠĠĠĠĠĠĠĠĠĠĠĠĠĠĠĠĠĠĠĠĠĠĠĠĠĠĠĊ
... ",
is subclass
po site
14 68
ven tion
tri ggered
+ ",
Re moved
Ġcor relation
Ġ6 67
decor ated
Ani mation
Do Dispose
############ #
Ġ3 000
form sets
local flavor
W L
Ġpass words
li min
W est
Ġh p
cre ts
ĠHand shake
ĠSkip Test
6666 6666
T kinter
Â¿ ",
P as
Inter net
back ward
SO FTWARE
ligh ted
Ġsp ect
"" .
e id
Ġp ot
Ġ1 74
ĠS chedule
sm ar
'[? ]
g Z
T tl
19 82
H INT
O h
Ġsign ing
pre ter
par titions
Ġg ather
Ġorigin ally
Ġdis carded
Replay All
ĠT oo
/ :
00 23
ci ties
Ġdeal ing
> -
se y
pas ses
d mp
Ġderi ve
AC HE
Q w
o sc
de tach
Ġ3 03
Ġ- (
ĠE L
Con v
tex it
adr ature
ĠDAT ABASE
12 24
19 77
Ġp th
af one
22 37
pa used
^ (
h oc
Ġprofile r
ĠCRL F
n est
Ġb ogus
ni que
Ġjo int
h lt
G DATA
m oney
Time zone
un ary
Ġ+ ----------------
Ġconfig s
Ġ" ="
13 77
cb a
< ?
Gener ates
n object
Del i
10 59
00 28
eval uation
Ġlo ts
res ted
v Z
Âı Âĸ
P eek
ce mber
Ġ1 69
ĠUnicode EncodeError
ĠCOL ON
Ġdemonstr ates
ĠOr dered
V elocity
rep lica
text s
h ol
Ġrdf lib
Ġdec rypt
p format
D ive
X s
De sign
T REE
an ca
Ġ... "
gu y
Ġcer tificates
Ġw ild
re play
de a
14 07
W T
i lities
Ġconstruct s
Stub Out
': ['
N J
Ġface t
Ł ",
Ġmod ifications
min imal
SY NC
O AUTH
Ġ"_ "
UN SIGNED
oc cup
Ġw r
ĠIn line
set Style
ĠT ix
Ġbrowser s
ĠL etter
Sub stit
asy on
Dep loyment
22 19
home page
f df
r in
ĠReplacement Rule
Ġinter pol
Cho ose
13 87
/ (\
au ge
ĠG ot
Medi um
En ume
16 05
Ġ= ',
00 65
U nc
per mitted
ĠO SI
Orient ation
Ġof ficial
12 89
Ġcoun ters
Ġde lim
10 74
00 87
G code
OR IG
ile ge
per imeter
ĠBack end
Ġd ont
Ġmicro seconds
Q y
ma ging
1723 99
Ġ' ]
00 84
__ ``
ane se
Ġsp in
ĠSPR L
Ġcmd line
reference d
LINE AR
: ":
e j
Âº Ã¦
/ ]+)/
V s
')) ),
A nt
S trict
ĠI T
ĠPor tions
GL void
gen es
Ġt an
r ates
20 25
Ġme d
Con ditions
Ġcomp uting
ĠIN FO
ib re
type of
Ġsh if
R t
Ġ2 24
Ali ve
00 45
Ġfix es
fi ve
AG AG
Ġsp here
ĠN eg
exp lanation
Example s
xF D
15 24
stan za
+ _
mode ration
other s
ab bre
Ch at
Ġ[' .
m j
dist s
Ġsubclass ing
rece ivers
ĠCO UNT
recur se
Ġs re
MOD IFIED
ica go
Ġw ent
13 18
15 07
DI AN
LIN ES
Ġal ph
176 169
tree view
R J
ASS IGN
un install
speck le
tr uncated
ĠMay be
men te
ĠMod ify
Ġve req
15 01
(( ((
ĠC ATEGORY
ĠU nsupported
tu Ãħ
Activ ate
Reverse Match
Ġ2 34
Get Id
um l
ET S
Ġpro ber
+ (\
Or d
on ing
READ Y
De ad
14 25
G X
00 21
Ġx l
ĠLe ft
(" =
Ġconfig urations
ĠO bj
fire wall
po le
ĠY OUTUBE
Ġoccur rence
class Name
10 20
Âĭ ',
g auss
n ag
14 05
vel o
LT A
Ġhard ware
Ġ#### #
Ġx m
is link
ĠJSON Encoder
K y
FORM ATION
# {
Ġsur vey
Temp erature
ĠATO M
N d
u om
Ġse m
Ġkeep ing
q v
Data Rate
Ġ ĠĠĠĠĠĠĠĠĠĠĠĠĠĠĠĠĠĠĠĠĠĠĠĠĠĠĠĠĠĠĠĠĠĠĠĠĠĠĠĠĠĠĠĠĠĠĠĠĠĠĠĠĠĠĠĠĠĠĠĊ
Ġh om
Sh ip
S aved
Ġ\ '%
Ġr an
S ap
Ġe quiv
12 08
inst ant
Ġfr ac
B b
F OLLOW
W u
INST ALL
start Tag
Ġm l
Ã ľ
Ġcent roid
ĠInte grityError
ĠFr action
Ġst ride
Ġh angul
Qu otes
fav icon
G CT
Ãĸ Âµ
msg str
le ad
j ik
| -
Ġ4 05
exp ansion
ĠALE F
======== ===
Qual ity
Ġrot ated
ÂŃ Âĺ
> /<
true div
Ġdeclar ations
Ġlisten ing
__ =='__
Ġanaly se
ĠM B
Ġcomp licated
ĠSp readsheets
Ġser ves
10 47
ÃĹÂĲ ÃĹÂķ
Ġs uites
Ġmach ines
Ġrand int
00 64
Ġor th
19 96
modify ing
Ġ000000 7
ÂĨ _
and ra
dri vers
" [
x h
ĠMac OS
is class
ĠNot Found
Ġz info
short cut
1 000000
r us
L d
ĠB log
Ġcas cade
ur andom
fe red
W l
failUnless Raises
gen shi
Ġr h
Bo th
ĠDE F
Ġaut oc
ÂŁ Â¥
Sp an
y ms
12 37
ĠH EX
Ġti les
line Cell
analy tic
Y a
nt ype
JK LM
], \
Ġ xd
25 67
11 19
Ġdecor ate
z hou
80 39
as sistant
Ġh or
Q J
ÂĪ ÂĹ
Ġfetch ed
king dom
Ġexpi ry
89 47
again st
ff ine
ĠAd dition
BL YP
28 22
Ġ1 38
F avor
b ys
Ġadj usted
Ġf ancy
ĠD est
WORD S
Ġ655 35
red o
E qu
me ns
ObjectFactory Value
spi der
Ġflat pages
get response
T om
Ġs chool
str un
Â¡ ",
f ingerprint
INTER FACE
N EXT
Ġfeed back
ĠH er
ĠM ath
ĠRa ised
Ġse ntry
Ġlimit by
Reg ression
get sock
W PBE
g pl
li an
+ ".
ver ified
K I
red uced
W F
C red
Base Database
Par ses
ĠBot tom
su ario
plat forms
C ampaign
Check sum
Machine State
00 54
ĠW M
Ġl te
HE X
spec ification
nume rical
Ġ@ _
distri ct
00 77
Z O
favor ite
up er
ati bility
ĠSE CTION
00 35
intype s
1800 76
Phone NumberField
]] ),
ĠW iki
w or
ĠSV G
ĠAL PHA
Ġper haps
Ġface book
Ġ xt
type def
TC GA
act s
K u
c ust
42 69
ĠOP EN
Ġmin im
Ġparagraph s
sp lugin
Data Frame
C UBE
Ġn dimage
Ġde precation
]) ;
19 86
maintain er
ĠB ible
Ġ' ['
Pub lication
Ġ(' __
h U
Ġb m
ĠCh erryPy
Options Model
ĠSer vices
M ut
fa ilo
mi tives
- )
F ACT
es us
card inality
>` _
'} ))
E f
r ar
Ã ĭ
ĠN INE
) '''
Ġv endor
Ġ"% .
00000000 000000
m map
13 13
Â¤ _
D ONT
Deli very
ÂĤ ÂĪ
Ġevent ually
FF FD
Ġtr ust
With Mock
re achable
Ġ5 000
sk u
User Exception
([" -
Ġ4 2949
as px
n rows
TE GR
er re
ĠP as
ĠF OLLOW
ĠEn code
xi mation
q y
P seudo
Ġv a
Ġde nied
rain er
U ns
err back
Ġi v
Ġrece iving
Success ful
l z
", )
db f
L st
82 60
Ġtool tip
Ġ'* ':
ĠBe fore
ĠRel ation
LE SS
Ġcri tical
Ġ1 75
test file
ĠU rl
00 60
ag ged
GT D
ĠL INK
f ps
Ġurl patterns
fb f
Ġsepar ately
00 75
ĠA M
ĠB reak
Test Run
fla kes
Ġ" ÃĹÂĶ
Ġpeer ing
ĠLog ging
Ġa ch
kw s
j z
K L
12 32
IB ILITY
calc size
Ġs ched
25 92
SE EK
tt f
co uch
n if
Ġ 000
")) .
me mcached
Ġl and
Ġde dent
@ _
WR AP
W y
Ġ" ÃĹÂŀ
Ġm b
ENABLE D
pro tection
25 02
valid ated
ĠR ich
D h
12 19
Ġpre pended
illi on
Ġg rep
py name
C ached
ĠD ump
() /
cor por
Y A
e re
e lev
00 47
10 17
11 17
ational Error
35 89
G REE
am mit
over y
con sistency
ĠB en
first name
Ġu u
V G
#### ##
alo go
Ġg db
get Config
LOGG ING
Ġpro pagation
over view
10 69
1787 08
ĠV olume
FIX ME
ĠPR IMARY
ga ther
Track ing
Ġc airo
Tz Info
-- >
ration al
00 67
O i
Ġme dian
ma xtag
Ġdead line
g code
dele tes
od ata
de termine
Ġ2 048
Ġindic ated
t ude
Ġlock s
ĠSub scription
Ġma xtag
ÂŃ ÂĲ
E cal
S ol
re loader
classifi cation
Ġx f
n ist
Hand shake
ĠB IN
C oding
ĠD ir
ĠTime r
Re ferences
go bj
12 57
Ġt pl
qu iring
np c
> [\
19 74
su bj
read MessageEnd
cipher text
ra z
Ġex tern
# .
mo ke
trans formed
Ġbar s
si tives
Der iv
S olver
(' =')
13 14
Dec l
c bb
Ġth resh
AA AB
CM YK
new axis
get Id
VERT ED
Ġ) ?
Ġin clusion
Ġinter cept
11 18
ĠR ate
PECT ED
ERROR S
lin er
Ġpre amble
play ing
geo app
10 54
Q X
SSI VE
C z
rent z
Ġnormal ization
13 94
men ubar
D at
Ġv min
ÂĦ ',
Nom bre
cn f
]* (
arm or
00 74
Key words
ĠREAD ME
Âĥ Â¬
Ter ms
p he
Ġin active
ret ty
last ic
Ġ"' "
Ġpy tree
1637 38
ĠCho ices
Â¥ÂĢ _
# ************************************************************************
pick led
on a
Ġiniti ally
C ARD
Âŀ Âĺ
auto complete
ĠO BJ
st retch
sto res
Ġf uzzy
Ġ6 11
se a
dx p
ĠL atin
R ational
Ro les
Âı "]
P b
([' %
] </
]* ',
F old
01 23
F X
Ġdiff lib
170 826
Re moves
10 26
20 77
1630 69
Ġb io
P UBLIC
Rec og
re di
add ata
Ġg type
set Window
Ġgen ome
ĠP T
re servation
uth eader
fac ility
ĠSm all
Expect ing
00 59
ve mber
Ġc amp
Ġb ond
} '},
Ġsource code
Â¥Âĩ _
ĠDB Session
Ġd v
12 35
Met aclass
E AR
ĠGuang dong
Watch er
(" \\
A verage
it ution
Ġtr unc
cd c
ex tern
y axis
ree ment
ress or
Ġk s
blue print
14 55
IND ENT
In crement
ĠY t
Rec ent
Ġt ty
Av atar
B et
b ld
Top ology
ÃĺÂµ ÃĻ
Ġcomp ilation
Ġrec id
. )\
multi player
Copy From
pub key
10 57
Ġretri eval
Write U
first Word
Ġ ------------------------
19 45
1734 06
Tw isted
APP END
u its
Ġ% -
Ġa texit
p ul
Ġd og
ÂĪ ",
S ong
Ġprece ding
00 57
ke h
web kit
Re view
19 69
de velopment
r ub
ad as
Ass oc
: '):
Ġf ee
prop dict
Ġ ~~~~~~~~
Ġnum s
Ġj unk
( <
M en
Ġfe el
Sp acer
Ġne ighbors
Ġbeh ind
10 75
Ġsub tract
Prefix Value
ĠOct ober
D SA
ĠA nother
az ione
Â¶ ",
Ġ1 65
ĠAl bum
dep end
ĠP ress
)))) *
filter warnings
Ġ' (%
Ġst able
Mask Value
12 95
qu a
Ġre pos
ron ym
V a
Ġd atum
ĠU ID
tele forma
Ġcomp s
Ġ' ).
TABLE NS
ĠImage File
17 49
25 93
A y
n py
ĠEd itor
j v
Ġty pec
ÃĹÂĻ ÃĹ
F MT
gl Multi
ĠAv ailable
Ġcaller s
Detect or
F y
arna at
ÂĢÂĤ ',
Ġb are
an ame
ar cs
in dented
Record ing
87 09
mod ification
Ġ1 64
ĠLim ited
un safe
12 39
mark et
Sub type
ĠWh ile
W ar
prec ate
Ġ2 22
ĠFO RE
Ġp si
Ġoff er
tag Stack
Thread s
ĠUN IT
Ġover written
214 7483
Wait ing
96 33
CC CT
Ġ{% -
DEF INE
Member ship
prep end
14 04
Ġu a
ĠDe velopers
F t
12 77
ME GA
stri de
ch ip
bg color
12 67
add rs
AUTH ORIZ
Ġst ale
max length
or al
Ġ= ",
ĠResult s
S ender
Ġa head
Sub net
Ġinf inity
get Data
ĠA mazon
ĠProcess ing
Tool bar
ĠM u
Pri v
Ġ42949 67
PATH S
q b
Ġtr usted
StubOut WithMock
u FE
Ġco ef
n channels
Ġ4 44
ĠEx it
Source s
etype s
clip board
00 70
Ġan ts
a Ãĥ
Ġp ixmap
ĠC enter
Stream Handler
Ġex istence
sen tially
cr m
out s
19 59
Ġvar args
period s
f rappe
14 84
Ġv lan
DE ntry
am ond
samp width
b logger
PL UGIN
U H
exp lo
Ġne utron
ami lies
ĠRe store
ĠSw itch
th r
( @
Âŀ ÂĲ
ĠAl gorithm
xF B
ac cel
Ġ1 21
ĠBu ffer
ĠFrame work
S v
Ġa w
print f
Ġscan ning
FRAG MENT
Ġtoken izer
NC Y
st orm
ĠWri ter
up id
abcdefghijklmnop qrstuvwxyz
in come
Ġval name
car lo
ser ves
Ġge ography
ĠSER VER
Ġ# %
ĠDe mo
Ġf val
Ġa bilities
Ġm ult
() ``,
Ġ assertEqual
12 69
Ġver ts
iel ib
:::: ::::
ĠScan ner
00 66
Ġsys config
par k
ang ent
get Item
ĠI RC
173 659
J k
Ġh ence
Âº Ã§
P u
d B
RE NDER
ĉĉĉĉ Ġ
Doc TestRunner
S orry
P rom
19 44
ĠB AD
M n
Ġun bound
Ġwidth s
G a
ĠH at
D NA
G dk
166 889
ph ases
en dix
app hosting
ĠRES ULT
data field
ĠIsl ands
13 33
ÂĢ Â¬
ĠComp any
Ġ ĠĠĠĠĠĠĠĠĠĠĠĠĠĠĠĠĠĠĠĠĠĠĠĠĠĠĠĠĠĠĠĠĠĠĠĠĠĠĠĠĠĠĠĠĠĠĠĠĠĠĠĠĠĠĠĠĠĠĠĠĊ
))) **
S ites
Ã Ķ
12 29
Ġ: =
Ġcontain ers
Ġb uckets
bo gus
Com ma
:] ]
ud der
N K
r rule
Server Error
Ġmagn itude
sc d
Ġreason able
provided By
ĠP ID
25 10
Ġper sist
15 15
Ġob servations
ĠW izard
Ġ[' /
Ġsub list
ĠPending DeprecationWarning
D w
19 91
RE SERVED
O bigo
w ns
Ġn v
get file
19 32
84 79
Fri end
Ġan on
cen so
Pro vince
Ġdist inguish
Ġprevent s
',' --
dec ision
s us
00 85
record ing
nost ics
Ġx id
IM AP
Ġex its
MODULE S
ĠP ORT
Ġi cmpv
Ġch apter
z v
89 01
. -
Ġlo se
Ġtext ual
179 497
Ġsk in
PACK AGE
ĠError s
P itch
HTTP Response
pol ys
I q
Ġin sensitive
ĠIN SERT
en force
from Hex
Ġdescri bes
Ġmp f
ALI ZE
ĠFile System
W ed
ac tivities
ĠA STER
:// /
RE P
st udy
Ġn gettext
13 57
Ġmy data
h rm
R IC
W XK
\ '\
Routing Table
18 24
vid ia
D om
ĠDec oding
Read s
15 36
adi an
m ong
auto matic
tick labels
M icro
M aker
00 79
ĠParse Exception
13 44
Peer ing
B ank
ad ap
Ġ$ (
pop item
1111 11
Sh utdown
ĠAnonymous User
r ne
Per Page
er ase
Ġconver ters
12 88
Uni x
conflict s
00 82
ĠB i
So lid
Ġcert Chain
> .*
Ġse cs
fil t
]? [
ByteSize Partial
par cel
Product s
str action
MD T
P ST
person al
Zip CodeField
l uc
} </
25 63
ĠURL conf
Tick s
_ ]+
Some thing
Ġs x
ĠCheck ing
Ġfab ric
ĠY ield
SV C
THRESH OLD
ĠIO Loop
Ġmax size
xml Element
Ġd ro
ĠOpen Stack
p seudo
V X
Ġ Ã¡
N b
write row
var args
19 35
b link
En velope
u ke
Ġ Ke
Ġ1 70
ĠF uture
ÂĤ ',
13 05
bl k
ĠAnaly tics
Ġfor warded
IN STR
MESS AGES
ot le
er t
TER S
im ity
un parse
(" $
Ġr mtree
G RA
CUR SOR
ĠASTER ISK
ĠSub class
S cheme
Ġp ic
Ġ ------
d q
al ink
Ġattach es
fa kes
ca o
on us
Ġc ub
per f
item size
tl r
ĠThere fore
F allback
ni i
e ig
Ġsmtp lib
Ġ================= ====
ĠI C
Inter pol
Z n
Ġinvalid ate
Ġpy amf
red raw
gr and
ĠO H
base classes
ĠS calar
p Ãħ
ut ral
H g
Ġac curacy
V ary
ren ti
Par ameteri
par m
EX PI
Ġg ithub
g as
ĠD ST
J PEG
ĠField Error
si one
=' #
14 99
ĠAs sessment
Ġdecla re
N x
ĠN EST
size Policy
ĠOR M
extrap olated
Ġin lines
pa ger
Ġ3 49
12 59
app lic
12 33
Ġph otos
failo ver
Ġlinen um
G row
12 64
Ġfont Name
U s
Ġes pecially
ĠS elf
! </
UP LE
Ġinte rested
ah ana
ĠMap per
H ay
inter polate
tag name
get Type
ExpressRoute Circuit
ces sion
14 18
B Q
ela ird
ĠEd ge
Ġcred it
ss a
Ġme ters
right ness
A bs
est imate
face ts
Ġgen der
Byte Array
c ull
l ub
ID LE
N ume
25 66
AG L
FIX ED
D FT
ex if
2011 01
re map
Ġen emy
ffi li
ĠHe alth
mss ql
Ġ1 998
ĠThe me
defin es
til la
Â¿ _
V o
ĠPre pare
, )),
AT H
am an
any thing
Ġapply ing
um in
pk s
22 35
format ting
Z Y
ĠSha red
D im
feed Link
19 18
is suer
fd open
End Tag
Ġr g
13 15
per mid
Ġmax len
f X
8888 8888
pa id
16 15
ĠAg gregate
06 27
19 33
List Of
ds a
ca re
Ġpy module
ĠL ib
da v
last name
ol ate
Ġx xx
get Instance
A o
b lend
- "
ĠEvent s
Z G
Ġtel net
ĠInteger Field
Ġfeed parser
ĠDis k
m ug
lan t
G uest
Ġ* (
E v
Analy tics
Ġd os
() ."""
Ġcon junction
Ġaut om
an de
Ġsub module
ĠNeed s
dd dd
ĠAlert Description
00 97
04 34
Z p
ĠO OOOO
ĠH H
ĠSu bject
): ',
group Box
Ġdb api
Tree View
J z
f abs
r R
ĠEx pr
bb ler
M m
Ġun specified
Âģ "]
P UB
Ġdef s
is on
Ġtext s
Ġob solete
12 18
Ġfrom list
Ġapp name
con tr
get pass
Ġ" )"
COOK IES
INST ANCE
c ue
16 27
h ab
ass o
ĠTrans late
B ROW
HTTP RequestHandler
Card s
Pro j
ERS AND
iter tools
ol f
12 56
St age
. [
)) '
Â¿ Â¡
10 65
Ti po
VIR TUAL
stri ke
Ġle aving
hand ling
no b
Base Test
ma de
{} '.
67 44
High light
denom inator
c raft
zip File
)+ '
S olution
Âĭ Âľ
10 97
ĠSO CK
Ġ}} |
Ġf atal
Relation ship
Link Base
u gettext
14 59
100 8
101 0
Mail box
Enable Ascii
ho les
Â· _
ĠMain Window
Postal CodeField
IN TR
Âŀ ÂĶ
at ings
ĠOutput Partial
Ġc g
ÃĹÂ¢ ÃĹÂ¨
al ters
100 2
O V
seq id
gra ded
Ġi c
Ġqu er
17 01
quee ze
Ġun install
Rot ate
Ġ(' (?
AN ON
neg ated
che m
find text
g yp
row id
Part s
Ġget args
19 39
Ġal gebra
mo ment
Ġf ut
Email Backend
ti dy
foot notes
odis cover
Â¸ ',
ĠN ational
12 82
Ġlisten ers
Ġtra ffic
TRAN SP
IN CLUDE
00 50
11 55
33 39
Ġcon tract
(* )
00 41
Z m
10 30
Ġescape s
Ġlink er
ĠByteSize Partial
fe b
Change Form
F rag
part ment
HTML Parser
No tifications
Ġw d
Ġh ay
Ġoptim ized
146 644
ĠPro vider
Re size
x link
Ġ" (%
um otion
ged Item
175 990
Ġsign atures
Ġ ĠĠĠĠĠĠĠĠĠĠĠĠĠĠĠĠĠĠĠĠĠĠĠĠĠĠĠĠĠĠĠĠĠĠĠĠĠĠĠĠĠĠĠĠĠĠĠĠĠĠĠĠĠĠĠĠĠĠĠĠĠĊ
pro vide
Ġmethod name
AC ES
:`~ .
12 02
00 95
om it
S ched
: <
ĠString Type
Ġassoci ate
ĠD ROP
Ġca using
qu ar
Pre parer
00 94
con current
ouch er
Ġu gly
' +'
Ġre cover
Ġg is
1672 82
L H
ce c
il ler
q w
cla uses
as yn
ĠP ie
13 64
Ġtable space
Ġ1 43
Ġ& ,
se di
17 3660
no v
r add
ock opt
With OptionsModel
Ġlocal ize
Tri ple
ÂĹ Â¶
19 47
it unes
Ġinstanti ates
I ED
cc d
Document ation
Ġ2 53
ĠTrans lation
Ġs io
12 44
pop left
GG TT
Ġ1 79
Ġx c
tr ash
ĠVAR CHAR
P red
Ã¨ Âµ
comp uter
//////// ////
f lop
ĠA cc
L et
Ġfail ing
Ġcon tribu
Ġsh ut
B OLD
T orrent
( #
Ġv ac
D g
Ġex ten
Data store
Range s
BB BB
f unctools
ĠC S
ind s
wee ks
ĠLOGG ER
b ir
orrow er
E J
W AP
Ġp ap
dead line
19 93
File Dialog
K h
b usy
25 64
Ġmap css
ĠSum mary
ĠF older
Ġ" "))
AT ES
... \
subject s
Ġrandom ly
PR IOR
Ġb oo
14 64
RO UND
] '),
== >
ĠV ari
cho sen
00 61
St one
fake app
x form
per manent
comp s
Ġcommunic ation
Ġle ase
re con
11 15
Ġ(' .
change list
Short cut
1726 35
10 95
pro blems
P od
he id
Attr Map
swig register
18 01
th ings
00 43
12 22
13 88
Fore ground
I mmutable
sub plots
datas ource
Q m
Ġag greg
SC SC
Ġ5 03
21 01
Ġ... ]
ĠSE MICOLON
un declared
ĠA ut
() "),
O d
U Int
Type d
Ġ(" \
Ġplan et
ĠC ard
ist ics
ĠN avigableString
CE LL
Socket Address
ve re
to oth
ĠH AND
d Ãħ
10 85
red rik
67 97
/" +
ĠRequest Error
Ġob served
Ġ1 87
in serted
desc ent
og ene
Ġplot ting
up loads
assert HTML
b rown
Ġg one
13 39
IC MP
CY S
PR IV
ĠB ib
Ġvalid ity
[' $
Ġsubstit ute
r ant
ABCDEF GHI
sets ockopt
rit ory
N t
in sertion
13 49
PD T
UV W
da o
ACT IV
bi e
TR UNC
head s
i ten
Ã§ Âº
get root
17 47
ÂĢ Âľ
19 75
Ġc args
split ter
Âľ Â°
Ġlogger s
P in
Ġfull path
fi o
06 04
bot tle
ĠField DoesNotExist
ĠChar set
j t
tt info
ĠPy Installer
& %
Ġsh allow
und les
1677 46
ĠSTAT IC
IDENT IFIER
Th umbnail
Tool Bar
00 86
jar vi
Ġin place
ĠClas ses
I w
L X
pe ers
ĠPublish er
adj usted
_ **
F J
Ġ(_ ("
Ġob vious
1722 86
Ġsatis fy
Currency Code
Ġcl f
Âŀ ÂĢ
P aste
m ir
(' *
duct or
PALET TE
un def
13 97
ĠM AP
li kely
ac curacy
Ġbe am
00 53
ĠCom bin
assertNo Output
ama elia
anca imi
12 27
ĠQuery Dict
n vidia
ur istic
value Axis
x max
te ns
ĠL C
ch oreography
<! --
Ġ2 30
x o
diag onal
accept s
name list
ĠCon sumer
ĠSite map
slash es
ĠHTML Parser
ug s
k Ãħ
143 657
de scriptors
Âĸ ",
SHARE D
12 85
liz ard
ĠCont in
l ands
ob solete
Ġb ank
Ġh am
ĠC arbon
ca pability
iv a
ĠCR UD
Ġfactor ies
Ġco up
IL TIN
Frame s
ĠN ested
Sp readsheets
Y y
no tifier
Get Current
prot otype
+\ .\
ĠO MEGA
Ġg ues
ĠSM S
C UT
Not Supported
Ġnav trail
G DEntry
P d
n the
Ġstring filter
p ra
az ard
j l
Ġsan itize
A ui
di go
li est
13 32
inter wiki
ĠParser Element
back wards
', \
siz able
ls r
inter action
COMB IN
tr usted
Ġac tivities
cf d
ag ue
indic ation
13 34
Ġ1 89
ĠL ONG
Get Property
IR C
Con tain
ĠURI Ref
ĠE LL
Y U
Ġad verti
0000000000000000 0000000000000000
z owski
Ġ ĠĠĠĠĠĠĠĠĠĠĠĠĠĠĠĠĠĠĠĠĠĠĠĠĠĠĠĠĠĠĠĠĠĠĠĠĠĠĠĠĠĠĠĠĠĠĠĠĠĠĠĠĠĠĠĠĠĠĠĠĠĠĊ
Ġtermin ator
1788 66
Event Handler
wrapper s
ĠDocTest Runner
Java Script
Ġmodify ing
sha res
q sl
in ic
Ã ¼
te en
sign up
im uth
': -
l ame
QU IT
ĠRe st
ĠConver ting
te carlo
Ġsli der
L IT
^ _
n def
Un til
Ġlist a
Ġlocal ized
ĠSt ub
18 07
12 99
Ġ1 997
Ġpick ling
VAR CHAR
Ġsub tree
Q p
Ġfile no
Tlv Value
ce p
Signature Method
BU F
temp ting
ĉĠĠĠĠĠĠĠĠĠĠĠ Ġ
Ġpre sen
recipe s
mar sh
16 07
84 99
c ds
Ġ= ?
tra de
j r
15 44
14 33
A f
ĠAsync ItemPaged
B RA
17 44
ven v
Log ged
Âī Â©
Ġa mbiguous
Ġal location
Feed back
15 49
Start Tag
+ "\
to ver
ĠG aussian
69 69
own ed
Ġge odetic
ĠG C
ĉĉĠĠĠĠĠ Ġ
mark eting
C XX
Â° ÂĢ
accept able
mut ate
15 79
h ull
Ġp ng
ĠIn it
==' )
ĠE ven
ÂĤ ÂĤ
ĠREC ORD
A UI
Ġb ri
Ġprox ied
For Width
Ġoper ands
Ġ2 47
W i
0000 2
ĠRun time
Ġ2 07
Ġo pp
Ġset default
deli mited
. '])
ĠEQUAL S
P g
j m
Des ktop
Q RST
tar file
D irs
Exp anded
(' ..
ĠP IPE
vis ited
Ġ3 05
Ġp run
H IST
"] ):
ĠItem Paged
y ecto
R ULE
patch ed
W K
Ġ" ..
Ġ< -
Q z
10 45
rh esus
H ierarchy
". '
SP lugin
("" ))
Int o
selection s
','','','',' ','','
IP ython
Man ual
ent ropy
Ch i
Ġbreak point
Ġvari ety
cen ario
ÃĹÂ© ÃĹ
s cons
ET H
W a
Item Iterator
12 06
la re
ode s
vol ve
link er
Ġent ropy
Ġf w
14 87
Ġm t
20 47
Get Item
Sy mbols
sp ring
U k
fi es
Ġws action
assertHTML Equal
Network Interface
ĠRegex Field
Ġp ep
Ġt list
172 208
; %
to ggled
ta ken
Ġban ner
ĠO PER
Ġurl join
13 67
ID S
10 94
un s
st ype
IO S
al lo
Ġ` (
exp onent
Contin ue
Ġ1 77
rid den
ac b
ĠV ec
/ *.
To Bytes
12 49
F onts
Ġside s
SE Q
ĠV ar
cm splugin
Height ForWidth
moo thing
ch en
ĠPro duction
Ġg round
Ġcor rection
ĠFor ward
Ġtimestamp s
ĠF actory
crypto ID
ĠE mp
the m
Ġbar code
Ġmp i
recipient s
Gate ways
E g
s bin
Ġcontext lib
ma j
ĠU DP
Â¥ ÂŃ
br uary
ĠPRO P
H G
red hat
30 77
h id
ĠDo uble
d X
10 72
Ġ4 80
2009 09
','' ),
g Cal
ĠN okia
RE NCY
Fr action
ti ps
Ġin compatible
Ġlin ux
Ġ1 48
ĠP I
ĠPy Obj
g cd
TRANS ACTION
Open SSL
Ġarch itecture
19 27
Ref s
direc tives
bri ck
Ġ( ['
Ġst ay
Sto ck
EN DIAN
ĠOr gan
Ġp od
Ġm map
die resis
ro b
connection Lost
di ve
Ġi on
ST E
b asket
m ite
Ġ'. ',
Âī ",
] $'),
sp line
S l
top o
^ %
y z
Ġm sv
ĠAddition ally
1787 12
37 09
ĠK ind
Ġrun Test
as ar
Ġex ts
recur sion
Ġst y
assign ments
we apon
ati tude
Multi byte
ĠNode s
V u
IZ ATION
Ġ? ,
Ġsh uffle
bb c
Auth ors
ĠDate Field
j g
ĠS F
post fix
e mb
ew kb
ar di
arn ess
R p
on sor
') ()),
Ġ2 25
element Node
ĠInst allation
Ġspli ts
Rec ipe
Ġis dir
Ġsh rink
Ġm alformed
Y AML
ĠB C
19 29
Qu ad
orth and
cal o
100 3
ÂĤ Â¸
dy lib
snapshot s
in stead
Ġcy box
File Handler
point ing
ĠUpdate s
mach ines
datad ict
External Data
G ain
Ġtra verse
" ``
Ġfor ces
sp read
13 60
zz le
Po tential
h q
Ġbe have
Pro tected
mat ure
Ġ* .
I r
Ġ ----
ra ses
ĠF lags
ĠPER CENT
us u
C CA
Ġ4 43
SET UP
ĠAsync List
Ġin herits
ĠSec ure
k cal
00 78
Sig ma
d uring
Ġ1 84
ĠSO AP
conti guous
sp r
pr une
M w
un processed
Ġ['' ]
HelperFor Device
Ġref erring
G c
' |'
15 05
======== ==
Ġp lo
gl Program
ani el
it z
Ġcor ners
C amp
Ġenviron ments
Ġ' |'
* _
es ome
Text Node
fr m
set Current
ex cluded
mi um
(" ./
Fi xture
cul ation
ĠAsync Iterable
> `.
pix map
' /'
pk cs
h on
13 47
Ġseq id
19 54
ĠAt tempt
Ġ' ...'
l or
Ġrecogn ize
Ġf ai
LO OKUP
Ġsen sible
read cr
m nt
ĠM aterial
Host s
Module Type
ter r
ĠBase Exception
Ġhex adecimal
12 53
G UID
start Time
Ġpy c
Com m
amp litude
t sh
Ġ5 01
07 04
Ġ" ?
B k
',' -
Fl ux
22 17
os a
d ur
p ids
ĠFire fox
) ":
ĠEx cel
cer tificates
Ġf an
y min
SC ROLL
10 56
ĠMID DLE
Beautiful Soup
Normal ize
sim ulate
le ap
s uites
men ji
Ġd ual
Ġac curate
B ulk
in ject
Y o
Â¯ ',
=' +
Geo IP
13 84
Ġre moval
Ġret Val
ĠP os
Comp ression
o int
Ġ1 94
RE PEAT
ĠEnvironment Error
Ġn g
Ġd types
es sel
ĠG reg
ĠW idth
assert Form
SP I
p utheader
pre t
Ġ1 76
ari ate
ĠPre fix
jik kan
g rep
: **
Ġdel attr
m T
menji jikkan
1441 12
B OTH
Ġf ingerprint
Ġh ints
IPAddress Field
00 68
Dig ital
Ġ2 70
Ġ Ã¨
ĠH o
session id
Ġb ias
ĠImple ments
ĠIN VERTED
Ġtar ball
M or
Ġp res
100 9
Ġ. *
getFrom Value
14 27
Read U
BIND ING
In dices
sv m
cla mp
mafVME ExternalData
Ġi q
Ġ[ <
Ġparen theses
urls plit
ĠInter active
1637 60
Fe male
fi f
ST AR
open ing
ush Button
', [
comple tions
Recur sive
ĠI g
]] ]
ad der
') }
IL Y
val or
ĠRe quirement
iden tify
LANGU AGES
LG PL
h um
el ist
iz ar
Ġregard ing
n j
16 17
Ġen gines
Co ordinate
Ġa ir
Ġme mor
15 47
Q Object
inter cept
Ġ26 16
Ġocc ured
Expi red
UN ITS
Ġa u
od Ãĥ
**** **
place d
L ER
un get
file type
13 95
sp rint
Ġk o
On ce
act ors
it self
ĠN or
sub mitted
15 67
Ġwhen ce
Ġ(' {{
20 57
pri mes
ĠAuth Sub
Ġ[ --
Handle s
satis fied
Ġ1 85
o log
19 65
fn match
ĠRe y
! $
00 42
le mb
si cs
12 74
tes ted
P ressed
separ ators
C ategories
Ġcontin uous
k F
ĠA ustralia
,' _
C are
q g
NCH RON
Ġcon form
get mtime
ĠB us
ĠPro blem
LINE STRING
Actor ID
19 24
ten coding
get baseclasses
FA ST
WAR DS
Ġin tent
13 35
166 346
Map s
Ġshort cuts
=[ ])
Readable Transport
Indic ator
AS ON
D Z
p ÃĦ
DE CL
OD B
down loaded
ĠI dentifier
TR ACK
Port s
Ġ[ \
Ġ[ ["
-------- --
Function Type
Ġdownload ing
H Q
00 38
ĠG B
13 69
sys config
ĠM IC
Ġiter keys
| ,
ĠTag s
J h
w char
00 92
RE LEASE
SE CURE
P IL
it ors
template tags
Ġ' ../
tri ed
st i
S ends
sis tence
Y e
TraceSource Information
flag ged
Ġfit ted
E very
(" :")
u ing
Ġ1 59
Calcul ator
c sc
Ġpipe s
ct or
hance d
" ?
36 000
b db
ĠSim ulation
Ġex clusions
ĠS ong
13 45
ĠB a
Ġd ark
17 04
public ations
W Z
Ġw a
Ġsen tences
ct an
15 27
Ġexec utor
en Ãĥ
()) ]
ĠTran sition
S ORT
face color
ÂģÂ £
ĠCommunic ations
ĠA nswer
ror s
ĠM utable
Ġfrag ments
pro posal
Ġfunction al
pk l
Ed ges
vo x
arg d
Re quire
DIST ANCE
ov hg
Ġ1 52
ca y
key name
AC GT
ĠE Tag
PRE SENT
} `
Ġ Ãª
mat rices
ĉĉĉĉĉ Ċ
g led
s da
Ġa z
D u
interval s
OPTION AL
'], ['
PAT CH
Ġpro pag
Ġ'% %
Mac ro
Package s
Ġty pename
) !=
e ager
ĠP olling
pri l
ĠConfig ure
mk in
Form ula
arg parse
Ġ Val
Ġm illiseconds
St and
Ġop acity
Ġ1 90
mer al
Ġnumber Of
Ġimp lies
', ',
li que
Ġex plain
Â¸Â ľ
> ::
00 90
Ap pro
22 29
O z
l xml
ÂĢ Â§
refe rer
ÂĢ Âķ
Ġ$ '
ĠCol lege
is p
ler ts
Ġth ickness
multi process
Ġradi ans
ĠLD AP
mat s
in form
Ġres idual
ĠA gree
Car mi
Ġ1 42
Se gments
Ġappro ximation
ĠB er
QP ushButton
Ġ1 88
ap anese
att ached
Ġde mand
CO VER
Ġcomple tes
RO T
Ġ(' #
Exist ing
. ''')
Ġsur f
de ns
Ġg p
system s
xs lt
Ġal arm
Ġ[" --
SM ALL
00 83
sy mpy
ALL Y
ale x
ĠREFER ENCES
Ca pability
Ġs un
im mediate
ĠSm ith
B c
de velopers
Ġ ĠĠĠĠĠĠĠĠĠĠĠĠĠĠĠĠĠĠĠĠĠĠĠĠĠĠĠĠĠĠĠĠĠĠĠĠĠĠĠĠĠĠĠĠĠĠĠĠĠĠĠĠĠĠĠĠĠĠĠĠĠĠĠĊ
m X
k ur
lin ter
AA AG
ĠS RE
br ÃĦ
Ġne goti
Mark down
ĠELL IPSIS
re staurant
test Method
Ġsuffix es
predic tions
Ġver t
ĠResource s
CR ITICAL
DE XT
ĠDec orator
Block Ack
Phy sical
in dividual
de activate
ĠTechno logy
Ġc name
ĠM ixed
dis count
SY MBOL
\' ".
ĠReg ular
mapper s
f as
n ar
Ġd yn
Session Middleware
)? ',
Ġ2 35
Ġpy name
HIG H
Ġ( :
Ad vanced
Ġ( ):
off line
Jo e
(' "')
Ġ" ),
17 35
ar ab
Ġ`` -
Ġh w
tra ces
=' +',
ĠCookie Jar
vi ations
Invalid Operation
C YRILLIC
ulti mate
ĠPro vide
ĠC ANCEL
py glet
1759 74
{} ".
ĠG F
Ġsystem Exception
IP ROC
div mod
Ġde compress
k x
17 08
on to
Ġfit ness
u ters
00 63
Ã ¶
76 19
Ag g
Ġ0 5
To File
ĠRes olver
h olds
if rame
Private Key
ĠTran sport
14 19
ĠR etrieves
ĠCh unk
Ġqueue d
Ġe i
', )))
Ġs gml
DE L
! ='
ad f
> _
Ġ'.. ',
locale s
30 30
ĠS ITE
ĠAnd roid
Ġmk dir
Ġsit uations
ĠLim it
Key board
1633 78
Ã į
co t
subscriber s
Ġstruct ured
Ġ lag
1789 20
T rap
Lo gout
os pace
Âī ÂĢ
Ġpy mongo
SP E
Ġr ss
Case Insensitive
item getter
Help Formatter
ĠEns uring
Ġra m
Ġsh lex
dis gust
oll ar
Ġco variance
push Button
[...]
