{"<s>":0,"<pad>":1,"</s>":2,"<unk>":3,"<mask>":4,"!":5,"\"":6,"#":7,"$":8,"%":9,"&":10,"'":11,"(":12,")":13,"*":14,"+":15,",":16,"-":17,".":18,"/":19,"0":20,"1":21,"2":22,"3":23,"4":24,"5":25,"6":26,"7":27,"8":28,"9":29,":":30,";":31,"<":32,"=":33,">":34,"?":35,"@":36,"A":37,"B":38,"C":39,"D":40,"E":41,"F":42,"G":43,"H":44,"I":45,"J":46,"K":47,"L":48,"M":49,"N":50,"O":51,"P":52,"Q":53,"R":54,"S":55,"T":56,"U":57,"V":58,"W":59,"X":60,"Y":61,"Z":62,"[":63,"\\":64,"]":65,"^":66,"_":67,"`":68,"a":69,"b":70,"c":71,"d":72,"e":73,"f":74,"g":75,"h":76,"i":77,"j":78,"k":79,"l":80,"m":81,"n":82,"o":83,"p":84,"q":85,"r":86,"s":87,"t":88,"u":89,"v":90,"w":91,"x":92,"y":93,"z":94,"{":95,"|":96,"}":97,"~":98,"¡":99,"¢":100,"£":101,"¤":102,"¥":103,"¦":104,"§":105,"¨":106,"©":107,"ª":108,"«":109,"¬":110,"®":111,"¯":112,"°":113,"±":114,"²":115,"³":116,"´":117,"µ":118,"¶":119,"·":120,"¸":121,"¹":122,"º":123,"»":124,"¼":125,"½":126,"¾":127,"¿":128,"À":129,"Á":130,"Â":131,"Ã":132,"Ä":133,"Å":134,"Æ":135,"Ç":136,"È":137,"É":138,"Ê":139,"Ë":140,"Ì":141,"Í":142,"Î":143,"Ï":144,"Ð":145,"Ñ":146,"Ò":147,"Ó":148,"Ô":149,"Õ":150,"Ö":151,"×":152,"Ø":153,"Ù":154,"Ú":155,"Û":156,"Ü":157,"Ý":158,"Þ":159,"ß":160,"à":161,"á":162,"â":163,"ã":164,"ä":165,"å":166,"æ":167,"ç":168,"è":169,"é":170,"ê":171,"ë":172,"ì":173,"í":174,"î":175,"ï":176,"ð":177,"ñ":178,"ò":179,"ó":180,"ô":181,"õ":182,"ö":183,"÷":184,"ø":185,"ù":186,"ú":187,"û":188,"ü":189,"ý":190,"þ":191,"ÿ":192,"Ā":193,"ā":194,"Ă":195,"ă":196,"Ą":197,"ą":198,"Ć":199,"ć":200,"Ĉ":201,"ĉ":202,"Ċ":203,"ċ":204,"Č":205,"č":206,"Ď":207,"ď":208,"Đ":209,"đ":210,"Ē":211,"ē":212,"Ĕ":213,"ĕ":214,"Ė":215,"ė":216,"Ę":217,"ę":218,"Ě":219,"ě":220,"Ĝ":221,"ĝ":222,"Ğ":223,"ğ":224,"Ġ":225,"ġ":226,"Ģ":227,"ģ":228,"Ĥ":229,"ĥ":230,"Ħ":231,"ħ":232,"Ĩ":233,"ĩ":234,"Ī":235,"ī":236,"Ĭ":237,"ĭ":238,"Į":239,"į":240,"İ":241,"ı":242,"Ĳ":243,"ĳ":244,"Ĵ":245,"ĵ":246,"Ķ":247,"ķ":248,"ĸ":249,"Ĺ":250,"ĺ":251,"Ļ":252,"ļ":253,"Ľ":254,"ľ":255,"Ŀ":256,"ŀ":257,"Ł":258,"ł":259,"Ń":260,"se":261,"in":262,"re":263,"on":264,"te":265,"or":266,"de":267,"st":268,"Ġ=":269,"th":270,"sel":271,"self":272,"le":273,"me":274,"ti":275,"al":276,"',":277,"an":278,"er":279,"Ġ'":280,"Ġi":281,"ar":282,"Ġc":283,"Ġself":284,"at":285,"en":286,"Ġf":287,"ur":288,"as":289,"Ġ\"":290,"ro":291,"Ġth":292,"--":293,"Ġre":294,"tion":295,"ge":296,"Ġp":297,"ce":298,"):":299,"ue":300,"ame":301,"Ġn":302,"Ġt":303,"el":304,"ing":305,"mp":306,"Ġs":307,"##":308,"Ġthe":309,"Ġo":310,"Ġa":311,"Ġin":312,"def":313,"':":314,"ate":315,"ec":316,"Ġ(":317,"ri":318,"Ġ#":319,"Ġd":320,"li":321,"nt":322,"co":323,"Ġb":324,"fi":325,"lo":326,"\"\"":327,"00":328,"ac":329,"Ġm":330,"Ġif":331,"Ġw":332,"),":333,"un":334,"ser":335,"is":336,"Ġdef":337,"ex":338,"Ġ0":339,"__":340,"ad":341,"name":342,"urn":343,"ut":344,"()":345,"turn":346,"pe":347,"ot":348,"ter":349,"ch":350,"it":351,"='":352,"id":353,"----":354,"\",":355,"ul":356,"and":357,"one":358,"ode":359,"si":360,"ort":361,"Ġreturn":362,"''":363,"ra":364,"get":365,"Ġfor":366,"ed":367,"val":368,"Ġis":369,"la":370,"Ġu":371,"Ġ[":372,"('":373,"Ġto":374,"ĠT":375,"od":376,"et":377,"ma":378,"ype":379,"es":380,"ver":381,"ass":382,"Ġ1":383,"####":384,"None":385,"')":386,"he":387,"il":388,"str":389,"Ġ\"\"\"":390,"ect":391,"ol":392,"set":393,"up":394,"ic":395,"mport":396,"eld":397,"qu":398,"ation":399,"ke":400,"tr":401,"Ġof":402,"con":403,"rom":404,"ss":405,"um":406,"ata":407,"pa":408,"value":409,"op":410,"bj":411,"._":412,"ap":413,"ĠS":414,"der":415,"rue":416,"cl":417,"Ġ-":418,"ment":419,"Ġh":420,"ror":421,"arg":422,"am":423,"ab":424,"Ġ%":425,"Ġ{":426,"Ġcon":427,"))":428,"==":429,"ub":430,"ĠC":431,"ĠĊ":432,"age":433,"lin":434,"ĠA":435,"Ġ2":436,"],":437,"Ġand":438,"ls":439,"Ġex":440,"test":441,"ult":442,"ile":443,"sert":444,"int":445,"Ġnot":446,"vi":447,"17":448,"ve":449,"di":450,"ĠNone":451,"ht":452,"assert":453,"Ġ+":454,"01":455,"all":456,"--------":457,"xt":458,"sp":459,"bject":460,"ĠI":461,"ct":462,"(\"":463,"Ġ_":464,"ĠF":465,"key":466,"Re":467,"to":468,"go":469,"sion":470,"Ġimport":471,"ase":472,"end":473,"ack":474,"Ġe":475,"ff":476,"ĠL":477,"Ġel":478,"ith":479,"type":480,"us":481,"om":482,"ĠP":483,"Ġr":484,"ent":485,"16":486,"Ġde":487,"par":488,"ĉĉ":489,"Ġst":490,"bu":491,"class":492,"file":493,"ted":494,"text":495,"True":496,"ield":497,"']":498,"Ġg":499,"from":500,"Ġor":501,"xd":502,"Ġ:":503,"able":504,"Er":505,"oc":506,"Ġ==":507,"ÃĲ":508,"['":509,"len":510,"que":511,"Ġvalue":512,"for":513,"**":514,"Error":515,"ig":516,"args":517,"//":518,"list":519,"Ġbe":520,"ption":521,"ance":522,"ER":523,"ow":524,"time":525,"per":526,"Ġme":527,"fo":528,"12":529,"ction":530,"add":531,"########":532,"Ġ('":533,"pt":534,"10":535,"ew":536,"if":537,"32":538,"ta":539,"\")":540,"pro":541,"res":542,"app":543,"::":544,"ĠD":545,"Ġname":546,"IN":547,"ule":548,"In":549,"iz":550,"path":551,"our":552,"alse":553,"tem":554,"stance":555,"thod":556,"xb":557,"mode":558,"code":559,"'''":560,"ty":561,"Ġtest":562,"ise":563,"Ġlo":564,"ist":565,"ĠĠĊ":566,"tp":567,"quest":568,"data":569,"Ġch":570,"art":571,"Ġpro":572,"Ġelse":573,"po":574,"qual":575,"14":576,"ly":577,"ault":578,"20":579,"ord":580,"ĠĠĠĊ":581,"field":582,"line":583,"Ġ3":584,"db":585,"Ġse":586,"jan":587,"Ġan":588,"ĠM":589,"tri":590,"ĠĠĠĠĊ":591,"'),":592,"Ġstr":593,"put":594,"ĠG":595,"Ġfile":596,"ĠO":597,"jango":598,"\"\"\"":599,"AT":600,"out":601,"mple":602,"Ġ<":603,"ys":604,"Ġwith":605,"Ġ__":606,"55":607,"====":608,"mat":609,"24":610,"odule":611,"13":612,"reate":613,"ho":614,"red":615,"])":616,"url":617,"ry":618,"sc":619,"Ġas":620,"19":621,"=\"":622,"ag":623,"lic":624,"ref":625,"object":626,"date":627,"18":628,"ource":629,"15":630,"Ġy":631,"__(":632,"ou":633,"Ġget":634,"Ġres":635,"Ġ{'":636,"Ġ*":637,"tic":638,"64":639,"ader":640,"late":641,"ber":642,"Ġal":643,"onse":644,"ĠE":645,"\":":646,"33":647,"Ġset":648,"Equal":649,"Ġx":650,"ĀĀ":651,"Ġen":652,"ure":653,"ĠN":654,"ON":655,"Ġmode":656,"Ġthat":657,"ww":658,"Ġthis":659,"rent":660,"99":661,"Field":662,"ore":663,"ĠH":664,"AL":665,"Ġra":666,"://":667,"25":668,"Ġv":669,"bo":670,"com":671,"ĠB":672,"py":673,"84":674,"ind":675,"Ġpar":676,"est":677,"Ġdata":678,"sh":679,"Ġfrom":680,"Ġun":681,"rint":682,"04":683,"Ġ4":684,"..":685,"RE":686,"ok":687,"loc":688,"Ġit":689,"Ġma":690,"ange":691,"dd":692,"Ġon":693,"ph":694,"ir":695,"import":696,"IT":697,"assertEqual":698,".__":699,"ĠW":700,"instance":701,"ns":702,"error":703,"22":704,"fig":705,"Ġat":706,"Ġdb":707,"kw":708,"----------------":709,"models":710,"ĠU":711,"ict":712,"cept":713,"sed":714,"ml":715,"34":716,"Ġwh":717,"eck":718,"ms":719,"Con":720,"lab":721,"ext":722,"30":723,"tent":724,"67":725,"ST":726,"Ġ>":727,"ip":728,"dex":729,"Ġraise":730,"LE":731,"mo":732,"uth":733,"Ġtype":734,"AR":735,"65":736,"sponse":737,"ary":738,"88":739,"Ġco":740,"read":741,"append":742,"init":743,"http":744,"vel":745,"``":746,"\"]":747,"roup":748,"unction":749,"11":750,"und":751,"'}":752,"Ġpa":753,"ĠThe":754,"pre":755,"Ãł":756,"tes":757,"ĠTrue":758,"OR":759,"user":760,"fields":761,"ings":762,"ther":763,"col":764,"Ġby":765,"root":766,"''':":767,"ory":768,"77":769,"Ãĳ":770,"69":771,"80":772,"param":773,"ET":774,"version":775,"ten":776,"cess":777,"ild":778,"os":779,"pec":780,"pp":781,"ces":782,"ize":783,"Ġmethod":784,"lass":785,"ator":786,"rite":787,"ust":788,"Ġ)":789,"ill":790,"ren":791,"jo":792,"min":793,"37":794,"fe":795,"link":796,"39":797,"ument":798,"ĠĠĠĠĠĊ":799,"module":800,"ree":801,"Ġ[],":802,"pla":803,").":804,"35":805,"tribu":806,"low":807,"29":808,"django":809,"ĠĠĠĠĠĠĊ":810,"ĠFalse":811,"Ġkey":812,"Ch":813,"act":814,",'":815,"ĠR":816,"################":817,"Ġlist":818,"ĠĠĠĠĠĠĠĊ":819,"60":820,"Ġlen":821,"27":822,"fa":823,"89":824,"Pro":825,"Ġ5":826,"action":827,"kwargs":828,"ans":829,"ĠĠĠĠĠĠĠĠĊ":830,"max":831,"ery":832,"Ġos":833,"og":834,"[\"":835,"Val":836,"temp":837,"ork":838,"ine":839,"port":840,"gth":841,"ler":842,"87":843,"Ġ\\":844,"ave":845,"Ġtry":846,"header":847,"Type":848,"lan":849,"create":850,"Ġare":851,"EN":852,"ener":853,"atch":854,"Â¸":855,"85":856,"uct":857,"Ġobject":858,"IC":859,"Ġout":860,"dir":861,"ters":862,"ses":863,"im":864,"ger":865,"uc":866,"ssage":867,"nc":868,"Ġwe":869,"ze":870,"level":871,"Ġresult":872,"rect":873,"SS":874,"ded":875,"wa":876,"back":877,"ken":878,"Ġexcept":879,"ĠRe":880,"False":881,"vent":882,"Ġprint":883,"ifi":884,"word":885,"iv":886,"66":887,"row":888,"0000":889,"Ġ**":890,"Ġ@":891,"Ġline":892,"05":893,"ception":894,"</":895,"scri":896,"'):":897,"Test":898,"lib":899,"():":900,"ft":901,"base":902,"ated":903,"umber":904,"attr":905,"lement":906,"Name":907,"09":908,"his":909,"log":910,"valid":911,"cur":912,"lient":913,"no":914,"net":915,"try":916,"'\\":917,"02":918,"Ex":919,"Ġ}":920,"mage":921,"ca":922,"chr":923,"Ġdi":924,"string":925,"36":926,"Ġassert":927,"uld":928,"Ġelif":929,"Ġ->":930,"objects":931,"07":932,"ni":933,"Ġns":934,"Ġnew":935,"Ġfunction":936,"Ġcan":937,"sub":938,"Ġdo":939,"default":940,"St":941,"TER":942,"ard":943,"ug":944,"ection":945,"thon":946,"map":947,"Ġwill":948,"query":949,"option":950,"Ġpass":951,"44":952,"Ġfield":953,"method":954,"info":955,"ock":956,"ress":957,"Ġso":958,"Ãĥ":959,"join":960,"tive":961,"write":962,"da":963,"unt":964,"Value":965,"AN":966,"Ġl":967,"Ġtime":968,"start":969,"========":970,"82":971,"xa":972,"Ġclass":973,"86":974,"Ã£":975,"orm":976,"Âģ":977,"atus":978,"ght":979,"bi":980,"size":981,"Ġhas":982,"count":983,"gn":984,"ts":985,"ID":986,"Ġ[]":987,"ign":988,"xe":989,"Ġrequest":990,"SE":991,"request":992,"nd":993,"Ġdefault":994,"ĀĀĀĀ":995,"Ġsys":996,"59":997,"([":998,"form":999,"ll":1000,"Ġuser":1001,"www":1002,"Ġcls":1003,"mand":1004,"ity":1005,"UT":1006,"own":1007,"gs":1008,"label":1009,"Ke":1010,"ache":1011,"Ġ{}":1012,"ask":1013,"Ġuse":1014,"De":1015,"ach":1016,"vice":1017,"xc":1018,">>":1019,"fix":1020,"Ġpath":1021,"last":1022,"Ġstring":1023,"length":1024,"tain":1025,"Ġcol":1026,"Ġk":1027,"Ãĺ":1028,"ense":1029,"ull":1030,"Ġlog":1031,"Ġno":1032,"ari":1033,"RO":1034,"Ġpo":1035,"Ġcom":1036,"74":1037,"DE":1038,"comp":1039,"ĠThis":1040,"ime":1041,"lock":1042,"ite":1043,"df":1044,"Ġpre":1045,"load":1046,"Ġ+=":1047,"ME":1048,"AC":1049,"tribute":1050,"qui":1051,"'s":1052,"ound":1053,"main":1054,"xf":1055,"Ġsh":1056,"','":1057,"pen":1058,"unc":1059,"son":1060,"ray":1061,"06":1062,"tle":1063,"format":1064,"Key":1065,"())":1066,"group":1067,"54":1068,"Â¤":1069,"mit":1070,"Ġarg":1071,"view":1072,"Ġcur":1073,"tial":1074,"ight":1075,"03":1076,"Ġoption":1077,"uf":1078,"tring":1079,"mb":1080,"Ġall":1081,"Ġnode":1082,"den":1083,"tings":1084,"work":1085,"ĠIf":1086,"edit":1087,"79":1088,"ud":1089,"ÂĤ":1090,"template":1091,"AP":1092,"nection":1093,"response":1094,"pace":1095,"item":1096,"201":1097,"Ġ\"#":1098,"ak":1099,"right":1100,"arch":1101,"'t":1102,"auth":1103,"lit":1104,"server":1105,"sing":1106,"hould":1107,"26":1108,"Ġ`":1109,"dict":1110,"Ġsup":1111,"ion":1112,"ream":1113,"oid":1114,"Ġapp":1115,"index":1116,"node":1117,"pub":1118,"83":1119,"Ġerror":1120,"'}),":1121,"ute":1122,"idth":1123,"vir":1124,"opy":1125,"Ġdjango":1126,"23":1127,"ant":1128,"aa":1129,"Ġurl":1130,"Ġsub":1131,"Info":1132,"ume":1133,"by":1134,"ong":1135,"Ġresponse":1136,"ee":1137,"Ġ['":1138,"uti":1139,"ample":1140,"(),":1141,"Set":1142,"Res":1143,"rial":1144,"Ġ201":1145,"title":1146,"Ġup":1147,"tern":1148,"!=":1149,"config":1150,"Ġpy":1151,"75":1152,"Ġadd":1153,"ttp":1154,"Ġ``":1155,"49":1156,"Ġtext":1157,"].":1158,"andler":1159,"28":1160,"Ġac":1161,"pi":1162,"ION":1163,"ich":1164,"200":1165,"Ġ##":1166,"cal":1167,"pr":1168,"core":1169,"ÂĢ":1170,"ark":1171,"rid":1172,"ĠLic":1173,"table":1174,"Ġj":1175,"led":1176,"Ġbas":1177,"clu":1178,"Ġshould":1179,"Ġet":1180,"Ġcomp":1181,"45":1182,"Get":1183,"Ġother":1184,"ED":1185,"Ġspec":1186,"content":1187,"ally":1188,"ding":1189,"has":1190,"Ġ!=":1191,"so":1192,".\"\"\"":1193,"ody":1194,"Ġisinstance":1195,"array":1196,"reg":1197,"struct":1198,"CP":1199,"ING":1200,"mail":1201,"81":1202,"xn":1203,"Ġint":1204,"gra":1205,"perty":1206,"ay":1207,"Ġmodule":1208,"Ãİ":1209,"\"),":1210,"ost":1211,"med":1212,"Ġitem":1213,"update":1214,"ell":1215,"ations":1216,"CT":1217,"eed":1218,"with":1219,"Â°":1220,"Ġ/":1221,"ameters":1222,"scription":1223,"Ġversion":1224,"return":1225,"IG":1226,"ĠV":1227,"obj":1228,"ulti":1229,"here":1230,"itation":1231,"ble":1232,"ĠIn":1233,"state":1234,"Ġcode":1235,"'],":1236,"21":1237,"MP":1238,"uto":1239,"List":1240,"av":1241,"Ġbasis":1242,"****":1243,"mber":1244,"63":1245,"Ġused":1246,"atum":1247,"AB":1248,"ĠLicense":1249,"loat":1250,"ware":1251,"result":1252,"play":1253,"arget":1254,"citation":1255,"lob":1256,"html":1257,"rame":1258,"lean":1259,"08":1260,"cover":1261,"stri":1262,"inter":1263,"Ġtr":1264,"Reaction":1265,"Datum":1266,"sen":1267,"Â¾":1268,"ual":1269,"...":1270,"Ġrxn":1271,"Ġheader":1272,"File":1273,"ount":1274,"ReactionDatum":1275,"ETTER":1276,"Ġli":1277,"Ġdbse":1278,"mon":1279,"ĠLETTER":1280,"sg":1281,"do":1282,"AG":1283,"Ġdbinstance":1284,"Ġid":1285,"lose":1286,"doc":1287,"Ã¥":1288,"--------------------------------":1289,"use":1290,"UR":1291,"Data":1292,"ES":1293,"Ġend":1294,"che":1295,"Ġper":1296,"ax":1297,"ix":1298,"Ġdoc":1299,"ont":1300,"store":1301,"ies":1302,"lay":1303,"not":1304,"new":1305,"be":1306,"ffer":1307,"Ġhave":1308,"=-":1309,"bug":1310,"Ġwhich":1311,"().":1312,"emp":1313,"ĉĉĉ":1314,"String":1315,"message":1316,"100":1317,"man":1318,"ÃĹ":1319,"Ġconst":1320,"GL":1321,"we":1322,"check":1323,"Ġstart":1324,"nl":1325,"Ġyou":1326,"((":1327,"Ġmessage":1328,"arn":1329,"Âµ":1330,"47":1331,"ÃĻ":1332,"38":1333,"Char":1334,"pri":1335,"Ġcheck":1336,"Ġ>>>":1337,"CH":1338,"97":1339,"model":1340,"Ġle":1341,"coding":1342,"50":1343,"fil":1344,"lete":1345,"names":1346,"uman":1347,"uple":1348,"Ġdate":1349,"tin":1350,"Par":1351,"Ġbase":1352,"Ġ6":1353,"move":1354,"status":1355,"Ġz":1356,"ua":1357,"rap":1358,"sign":1359,"split":1360,"oo":1361,"ami":1362,"Add":1363,"Ġany":1364,"uni":1365,"teger":1366,"place":1367,"Ġinstance":1368,"Id":1369,"ssue":1370,"ers":1371,"client":1372,"token":1373,"Ġargs":1374,"org":1375,"gov":1376,"IS":1377,"TE":1378,"Ġnumber":1379,"CO":1380,"95":1381,"ties":1382,"31":1383,"lank":1384,"men":1385,"ĠCon":1386,"coverage":1387,"pos":1388,"To":1389,"Ġ7":1390,"Ġcal":1391,"lication":1392,"md":1393,"ick":1394,"lines":1395,"Âĥ":1396,"IL":1397,"Time":1398,"umn":1399,"Ġcreate":1400,"TT":1401,"Ġbut":1402,"sta":1403,"nih":1404,"print":1405,"refname":1406,"Ġmodel":1407,"lable":1408,"UL":1409,"tissue":1410,"pubmed":1411,"ncbi":1412,"nlm":1413,"ome":1414,"reflink":1415,"editlevel":1416,"pack":1417,"context":1418,"its":1419,"ĠHuman":1420,"AA":1421,"En":1422,"tag":1423,"sition":1424,"allback":1425,"{'":1426,"Co":1427,"lated":1428,"'])":1429,"Ġ|":1430,"amas":1431,"Ġoutput":1432,"pl":1433,"serial":1434,"tro":1435,"ject":1436,"ump":1437,"wami":1438,"Ramas":1439,"Ramaswami":1440,"ÃĹÂ":1441,"iven":1442,"clude":1443,"\">":1444,"run":1445,"parse":1446,"Ġcontext":1447,"},":1448,"ial":1449,"ors":1450,"ified":1451,"Ġindex":1452,"gu":1453,"cre":1454,"sy":1455,"Ġ'%":1456,"Ġmatch":1457,"yle":1458,"AS":1459,"YP":1460,"idget":1461,"57":1462,"Ġmax":1463,"Â½":1464,"Ġtag":1465,"Ġquery":1466,"indow":1467,"dis":1468,"Ġdis":1469,"Ġrun":1470,"ess":1471,"40":1472,"Ġcurrent":1473,"ments":1474,"Ġtoken":1475,"mis":1476,"bin":1477,"ML":1478,"Ġbu":1479,"ail":1480,"rec":1481,"ĠQ":1482,"68":1483,"~~":1484,"Ġone":1485,"Ġmodels":1486,"dent":1487,"irst":1488,"cri":1489,"[:":1490,"\\\\":1491,"At":1492,"ariable":1493,"Ġ,":1494,"Ġconfig":1495,"pected":1496,"ting":1497,"################################":1498,"raw":1499,"Ġad":1500,"cs":1501,"point":1502,"uments":1503,"viron":1504,"HE":1505,"Mode":1506,"turns":1507,"Â¸Â":1508,"Ġreg":1509,"Ġ&":1510,"Ġhttp":1511,"Ġformat":1512,"Ġrange":1513,"Ġvalues":1514,"'))":1515,"62":1516,"ify":1517,"Ġbo":1518,"ĠPy":1519,"tra":1520,"rence":1521,"94":1522,"Text":1523,"Ġcontent":1524,"foo":1525,"sys":1526,"Se":1527,"ote":1528,"andle":1529,"ie":1530,"tributes":1531,"ds":1532,"utils":1533,"ĀĀĀĀĀĀĀĀ":1534,"ĠAN":1535,"rc":1536,"Ġobj":1537,"ENT":1538,"member":1539,"var":1540,"PO":1541,"input":1542,"Ġwhen":1543,"pop":1544,"width":1545,"72":1546,"Ġchar":1547,"Ġnp":1548,"SSI":1549,"tension":1550,"Ġonly":1551,"ne":1552,"''',":1553,"Ġgiven":1554,"filename":1555,"elp":1556,"Un":1557,"Po":1558,"char":1559,"42":1560,"ld":1561,"Ġform":1562,"ister":1563,"000":1564,"ner":1565,"Ġparam":1566,"ĠX":1567,"Ġdist":1568,"][":1569,"ALL":1570,"CharField":1571,"ql":1572,"quired":1573,"ai":1574,"image":1575,"filter":1576,"61":1577,"match":1578,"ton":1579,"Ã¦":1580,"ValueError":1581,"ci":1582,"face":1583,"Ġdict":1584,"api":1585,"types":1586,"Ġstate":1587,"ging":1588,"lot":1589,"ĠĠĠĠĠĠĠĠĠĊ":1590,"tifi":1591,"ATIN":1592,"Ġexp":1593,"OT":1594,"Ġ--":1595,"blank":1596,"select":1597,"ateg":1598,"xml":1599,"trans":1600,"48":1601,"(_":1602,"tions":1603,"close":1604,"Ġcontain":1605,"func":1606,"AD":1607,"cache":1608,"num":1609,"'},":1610,"the":1611,"ast":1612,"ps":1613,"order":1614,".\"":1615,"quen":1616,"ved":1617,"Ġmust":1618,"source":1619,"trol":1620,"Ġ'''":1621,"Ġsource":1622,"UN":1623,"56":1624,"my":1625,"ises":1626,"sent":1627,"orted":1628,"ĠLATIN":1629,"tity":1630,"Ġnames":1631,"70":1632,"329":1633,"Ġro":1634,"Â¹":1635,"ĠĠĠĠĠĠĠĠĠĠĊ":1636,"itial":1637,"Ser":1638,"ale":1639,"Ġ(\"":1640,"73":1641,"Ġ9":1642,"ain":1643,"trib":1644,"ols":1645,"open":1646,"msg":1647,"nel":1648,"lamb":1649,"Ġ10":1650,"are":1651,"ager":1652,"bar":1653,"IP":1654,"ran":1655,"ids":1656,"ĠEx":1657,"ocket":1658,"box":1659,"ĠTest":1660,"height":1661,"raph":1662,"Object":1663,"ĠĠĠĠĠĠĠĠĠĠĠĊ":1664,"================":1665,"ĠY":1666,"ITH":1667,"Ġfirst":1668,"iter":1669,"of":1670,"Ġver":1671,"host":1672,"})":1673,"Base":1674,"lambda":1675,"utf":1676,"resource":1677,"mary":1678,"Ġur":1679,"LO":1680,"Case":1681,"Ġcopy":1682,"Ġtable":1683,"Ġdirect":1684,"hf":1685,"Ġauth":1686,"inal":1687,"Ġsettings":1688,"Ġmsg":1689,"ÃĲÂµ":1690,"Â¼":1691,"ĠĠĠĠĠĠĠĠĠĠĠĠĊ":1692,"output":1693,"options":1694,"ftware":1695,"ized":1696,"ĠJ":1697,"copy":1698,"conn":1699,"Ġevent":1700,"sk":1701,"reak":1702,"Ġopen":1703,"Node":1704,"ĠDe":1705,"Ar":1706,"Ġmay":1707,"OD":1708,"dfhf":1709,"Ġ200":1710,"spec":1711,"Ġuni":1712,"Ġ.":1713,"old":1714,"Â±":1715,"Ġunder":1716,"related":1717,"Ġkwargs":1718,"AME":1719,"Ġserver":1720,"process":1721,"vis":1722,"mod":1723,"page":1724,"Ġsize":1725,"'.":1726,"Ġelement":1727,"ling":1728,"Ġoptions":1729,"eta":1730,"ĠWITH":1731,"service":1732,"Ġdoes":1733,"Ġinter":1734,"ep":1735,"78":1736,"ÂģÂ":1737,"76":1738,"ogle":1739,"CA":1740,"Ġsuper":1741,"ponse":1742,"Tree":1743,"err":1744,"Ġback":1745,"ous":1746,"ribu":1747,"Ġread":1748,"Ġ8":1749,"grid":1750,"ticnet":1751,"senticnet":1752,"gle":1753,"Col":1754,"child":1755,"find":1756,"Ġtrans":1757,"Exception":1758,"The":1759,"ape":1760,"current":1761,"oi":1762,"Ġmod":1763,"Ġvalid":1764,"guage":1765,"Model":1766,"53":1767,"cation":1768,"52":1769,"lug":1770,"ĠIN":1771,"Ġmin":1772,"sor":1773,"xy":1774,"46":1775,")))":1776,"las":1777,"mer":1778,"pv":1779,"Ġtemplate":1780,"pass":1781,"ature":1782,"unk":1783,"1724":1784,"Ġ'\\":1785,"Ġpack":1786,"bs":1787,"Ra":1788,"ates":1789,"range":1790,"tocol":1791,"event":1792,"TTP":1793,")),":1794,"Ġwhile":1795,"Ġattr":1796,"fir":1797,"ÂĦ":1798,"TH":1799,"andom":1800,"network":1801,"lobal":1802,"Ãı":1803,"any":1804,"sup":1805,"FF":1806,"Âº":1807,"mission":1808,"ia":1809,"////":1810,"Ġcommand":1811,"const":1812,"Â²":1813,"Ġgener":1814,"parent":1815,"lat":1816,"43":1817,"Â§":1818,"uration":1819,"items":1820,"ĉĉĉĉ":1821,"Â»":1822,"NU":1823,"Ġresource":1824,"ste":1825,"std":1826,"96":1827,"Ġrec":1828,"Ġinput":1829,"TR":1830,"90":1831,"values":1832,"keys":1833,"Ġfiles":1834,"Ġrow":1835,"Â¿":1836,"fore":1837,"uk":1838,"58":1839,"Ġgroup":1840,"Ġcust":1841,"direct":1842,"mation":1843,"ublic":1844,"exp":1845,"For":1846,"ake":1847,"ĠValueError":1848,"ists":1849,"next":1850,"params":1851,"sa":1852,"HT":1853,"41":1854,"Com":1855,"Response":1856,"Â³":1857,"stream":1858,"Ġfilename":1859,"imple":1860,"other":1861,"Element":1862,"US":1863,"Ġcell":1864,"fter":1865,"ath":1866,"ĠPro":1867,"Def":1868,"eg":1869,"ĠGener":1870,"lation":1871,"tail":1872,"ATE":1873,"ANT":1874,"User":1875,"Ġq":1876,"structor":1877,"debug":1878,"ittest":1879,"XX":1880,"Ġparent":1881,"Ġcontin":1882,"cript":1883,"gram":1884,"Ġ2013":1885,"mt":1886,":`":1887,"Ġlabel":1888,"Ġmore":1889,"Ġover":1890,"Ġusing":1891,"NAME":1892,"Ġwork":1893,"ui":1894,"ĠReturns":1895,"Not":1896,"CE":1897,"vide":1898,"dev":1899,"prefix":1900,"FI":1901,"Ġconnection":1902,"ĠSM":1903,"Ġaction":1904,"ĠCh":1905,"ĠUR":1906,"fit":1907,"[-":1908,"settings":1909,"ĠPython":1910,"98":1911,"*-":1912,"lity":1913,"TestCase":1914,"Up":1915,"ped":1916,"ĠAn":1917,"Ġtuple":1918,"script":1919,"body":1920,"2329":1921,"Ġmake":1922,"adata":1923,"lags":1924,"admin":1925,"lection":1926,"lease":1927,"exec":1928,"No":1929,"Ġ',":1930,"null":1931,"92":1932,"23291724":1933,"oly":1934,"command":1935,"imal":1936,"orage":1937,"Ã§":1938,"compile":1939,"annel":1940,"change":1941,"Ġsome":1942,"Ġinto":1943,"Ġupdate":1944,"Ġpos":1945,"replace":1946,"Ġcall":1947,"ush":1948,"Â´":1949,"pk":1950,"actory":1951,"delete":1952,"entry":1953,")]":1954,"Ġoper":1955,"ven":1956,"Ġ]":1957,"IO":1958,"Bu":1959,"mark":1960,"session":1961,"71":1962,"ÂĪ":1963,"Ġ-*-":1964,"ression":1965,"ĠOR":1966,"function":1967,"Request":1968,"Ġroot":1969,"Ġimage":1970,"br":1971,"EX":1972,"Ġnext":1973,"ĠK":1974,"Ġwas":1975,"2011":1976,"\",\"":1977,"wh":1978,"fail":1979,"ilter":1980,"Tag":1981,"vices":1982,"dot":1983,"Ġsu":1984,"ÂĮ":1985,"post":1986,"okup":1987,"Ġdel":1988,"ĠSt":1989,"json":1990,"local":1991,"site":1992,"Ġfol":1993,"python":1994,"ymp":1995,"93":1996,"Address":1997,"essage":1998,"vert":1999,"files":2000,"IM":2001,"ear":2002,"uint":2003,"strip":2004,"swith":2005,"ĠSMALL":2006,"ating":2007,"Â©":2008,"Ġpage":2009,"ormal":2010,"Ġdatetime":2011,"Ġ},":2012,"call":2013,"Ġlast":2014,"91":2015,"Ġchange":2016,"off":2017,"Ġ\"%":2018,"Â¡":2019,"now":2020,"cls":2021,"language":2022,"ful":2023,"lag":2024,"Item":2025,"(*":2026,"can":2027,"********":2028,"serialize":2029,"':{'":2030,"gener":2031,"Ġmap":2032,"element":2033,"Ġtw":2034,"Ġ),":2035,"Ġorder":2036,"Ġ255":2037,"ning":2038,"lish":2039,"datetime":2040,"Date":2041,"Ġval":2042,"Ġ'/":2043,"quence":2044,"ORM":2045,"encode":2046,"ĠSee":2047,"Ġcontinue":2048,"az":2049,"number":2050,"ck":2051,"iction":2052,"Ġav":2053,"Ġyield":2054,"ures":2055,"save":2056,"Ġneed":2057,"Ġar":2058,"otal":2059,"aut":2060,"ÃĦ":2061,"Â¥":2062,"Integer":2063,"Ġpart":2064,"block":2065,"ternal":2066,"ĠAr":2067,"style":2068,"Ġdistribu":2069,"Ġcase":2070,"tual":2071,"Ġbreak":2072,"property":2073,"cy":2074,"frame":2075,"attern":2076,"utton":2077,"Ġfields":2078,"less":2079,"SC":2080,"color":2081,"unicode":2082,"ither":2083,"tiv":2084,"Ġimp":2085,"Ġparser":2086,"Ġexception":2087,"target":2088,"Ġtarget":2089,"Ġchild":2090,"xbe":2091,"DI":2092,"rate":2093,"51":2094,"dition":2095,"parameters":2096,"thing":2097,"connection":2098,"lect":2099,"env":2100,"Ġthen":2101,"He":2102,"perties":2103,"Ġclient":2104,"cor":2105,"ameter":2106,"esca":2107,"meta":2108,"Lo":2109,"176":2110,"Raises":2111,"dia":2112,"Qu":2113,"\".":2114,"formation":2115,"blast":2116,"ategory":2117,"YPE":2118,"rain":2119,"Ġallow":2120,"FT":2121,"224":2122,"build":2123,")*":2124,"Ġ'.":2125,"OP":2126,"Ġlevel":2127,"search":2128,"Group":2129,"onent":2130,"Ġhelp":2131,"io":2132,"Ġexpected":2133,"su":2134,"opyright":2135,"google":2136,"mid":2137,"mpty":2138,"=[":2139,"headers":2140,"ng":2141,"ITAL":2142,"ĠCAP":2143,"Ġsy":2144,"Me":2145,"By":2146,"Ac":2147,"Ġ''":2148,"bb":2149,"ected":2150,"Ġparse":2151,"ference":2152,"Ġ...":2153,"Ġqu":2154,"Attribute":2155,"CC":2156,"ympho":2157,"ization":2158,"Lympho":2159,"blastoid":2160,"Lymphoblastoid":2161,"AM":2162,"VER":2163,"ration":2164,"Profile":2165,"contrib":2166,"usy":2167,"ĠURL":2168,"ĠCAPITAL":2169,"Ã¨":2170,"Ġiter":2171,"Ġyour":2172,"Ġeach":2173,"tadata":2174,"ide":2175,"Ġfound":2176,"Ã¡":2177,"ailable":2178,"empty":2179,"ries":2180,"Ġcor":2181,"Ġpri":2182,"assertRaises":2183,"Bo":2184,"Ġsign":2185,"float":2186,")):":2187,"oreign":2188,"Âħ":2189,"ution":2190,"ive":2191,"From":2192,"QL":2193,"ffe":2194,"cc":2195,"Ġobjects":2196,"bose":2197,"Py":2198,"present":2199,"aaaa":2200,"]:":2201,"ink":2202,"Check":2203,"Ġheaders":2204,"Ġsee":2205,"queue":2206,"cle":2207,"FA":2208,"').":2209,"Âª":2210,"CL":2211,"gen":2212,"Config":2213,"Ġsp":2214,"PRO":2215,"ĠType":2216,"dfit":2217,"ĠGL":2218,"Ġsame":2219,"duct":2220,"conf":2221,"Ãħ":2222,"Ġdefin":2223,"Ġattribute":2224,"hep":2225,"Â¨":2226,"MA":2227,"tk":2228,",-":2229,"first":2230,"Ġinst":2231,"><":2232,"Ġpoint":2233,"Ġcount":2234,"ictionary":2235,"address":2236,"ific":2237,"CAF":2238,"iled":2239,"down":2240,"255":2241,"sche":2242,"Ġ2012":2243,"uri":2244,"ple":2245,"Susy":2246,"ĠOF":2247,"(-":2248,"SusyCAF":2249,"Class":2250,"SP":2251,"Ġag":2252,"Ġparameters":2253,"Ġter":2254,"email":2255,"Ġ):":2256,"Ġblock":2257,"QU":2258,"exception":2259,"Handler":2260,"Ġhere":2261,"Auth":2262,"lower":2263,"Ġparams":2264,"(?":2265,"verse":2266,"ÂĨ":2267,"ats":2268,"Form":2269,"ĠKey":2270,"Ġprocess":2271,"okie":2272,"NE":2273,"autom":2274,"oper":2275,"Ġgetattr":2276,"connect":2277,"comple":2278,"Size":2279,"Ġentry":2280,"OL":2281,"top":2282,"ĠPublic":2283,"tend":2284,"Message":2285,"Ġfloat":2286,"\"))":2287,"Des":2288,"entic":2289,"adz":2290,"847":2291,"Ġhasattr":2292,"ICF":2293,"Event":2294,"Ġman":2295,"parser":2296,"Ġtitle":2297,"Ġopt":2298,"nown":2299,"space":2300,"handler":2301,"Ġargument":2302,"sum":2303,"assertTrue":2304,"Ġencoding":2305,"automated":2306,"ĠGeneral":2307,"only":2308,"gl":2309,"ords":2310,"=(":2311,"ias":2312,"Ġspecified":2313,"Sh":2314,"Ġwithout":2315,"description":2316,"Ġlogging":2317,"ĠCopyright":2318,"Ġarray":2319,"make":2320,"req":2321,"Ipv":2322,"Ġview":2323,"Ġdirectory":2324,"Ġeither":2325,":'":2326,"Ad":2327,"Ġpython":2328,"igh":2329,"ĠFor":2330,"gin":2331,"Dict":2332,"del":2333,"older":2334,"abs":2335,"ULT":2336,"oolean":2337,"ular":2338,"Index":2339,"Ġport":2340,"%(":2341,"Ġrequired":2342,"eb":2343,"ob":2344,"ĠGNU":2345,"SG":2346,"escape":2347,"uble":2348,"Ġfind":2349,"Ġlink":2350,"environ":2351,"Âĩ":2352,"password":2353,"oreignKey":2354,"ART":2355,"Ġoff":2356,"RA":2357,"Ġthere":2358,"Ġses":2359,"xx":2360,"cond":2361,"usr":2362,"equal":2363,"send":2364,"inst":2365,"project":2366,"race":2367,"CON":2368,"Ġstream":2369,"ÂŃ":2370,"ready":2371,"Ġmulti":2372,"Ġarguments":2373,"patch":2374,"Â¯":2375,"Ġsession":2376,"Content":2377,"Ġprefix":2378,"day":2379,"OUT":2380,"Ġwrite":2381,"Ġsage":2382,"Ġstatus":2383,"Ġge":2384,"('/":2385,"rix":2386,"author":2387,"App":2388,"ause":2389,"arning":2390,"Â·":2391,"Ġlib":2392,"remove":2393,"Ġren":2394,"ipel":2395,"mms":2396,"177":2397,"Ġfollow":2398,"round":2399,"ĠSo":2400,"tails":2401,"Path":2402,"ometry":2403,"ish":2404,"ĀĀĀĀĀĀĀĀĀĀĀĀĀĀĀĀ":2405,"Ġdocument":2406,"UB":2407,"etch":2408,"Ġxml":2409,"cmd":2410,"ector":2411,"register":2412,"package":2413,"Ġop":2414,"PL":2415,"URL":2416,"ĠString":2417,"Ġmark":2418,"static":2419,"void":2420,"ipeline":2421,"SI":2422,"uid":2423,"Ġold":2424,"Ġimple":2425,"Ġhost":2426,"virtual":2427,"xff":2428,"show":2429,"FORM":2430,"~~~~":2431,"Ġlength":2432,"ITY":2433,"actor":2434,"layer":2435,"active":2436,"til":2437,"head":2438,"Ġpas":2439,"ĠSet":2440,"Ġ>=":2441,"Ġunicode":2442,"BC":2443,"Ġcache":2444,"dle":2445,"Ġexample":2446,"mi":2447,"rans":2448,"Ġwhere":2449,"Ġnon":2450,"ĠPar":2451,"Ġreturns":2452,"Valid":2453,"mented":2454,"UP":2455,"gex":2456,"Âį":2457,"Ġload":2458,"encoding":2459,"elper":2460,"Ġ</":2461,"ash":2462,"feed":2463,"repr":2464,"ingle":2465,"umpy":2466,"ward":2467,".,":2468,"gine":2469,"Comp":2470,"Is":2471,"Dec":2472,"Ġdest":2473,"')),":2474,"lugin":2475,"Ġexec":2476,"uccess":2477,"du":2478,"cf":2479,"offset":2480,"Ġfunc":2481,"lied":2482,"Ġfin":2483,"ĠGet":2484,"ntry":2485,":%":2486,"Ġpackage":2487,"Ġconn":2488,"Ver":2489,"linen":2490,"column":2491,"sw":2492,"Ġbody":2493,"VE":2494,"Ġ<=":2495,"ative":2496,"etwork":2497,"assertEquals":2498,"buffer":2499,"af":2500,"Log":2501,"IntegerField":2502,"Ġ37":2503,"Ġright":2504,"application":2505,"IME":2506,"Ġgo":2507,"This":2508,"rapper":2509,"ABLE":2510,"Ġ[\"":2511,"Ġits":2512,"Ġhandle":2513,":]":2514,"abled":2515,"xbd":2516,"ĠYou":2517,"part":2518,"ib":2519,"devices":2520,"ĠCON":2521,"ĠAND":2522,"Ã¤":2523,"Ġlocal":2524,"ForeignKey":2525,"ĠAt":2526,"ators":2527,"Ġinitial":2528,"Ġlines":2529,"reen":2530,"KE":2531,"Ġsupport":2532,"location":2533,"ati":2534,"dentifi":2535,"emplate":2536,"_(":2537,"VAL":2538,"Ġstyle":2539,"Ġinclude":2540,"Ġnum":2541,"ik":2542,"Result":2543,"-\\":2544,"Al":2545,"quire":2546,"oken":2547,"td":2548,"Ġextension":2549,"NO":2550,"iew":2551,"Ġafter":2552,"Ġvariable":2553,"div":2554,"edge":2555,"book":2556,"unCP":2557,"auto":2558,"Ġhandler":2559,"Man":2560,"Ġthread":2561,"cope":2562,"attributes":2563,"ĠANY":2564,"Ġresults":2565,"Ġthan":2566,"Sub":2567,"Ġret":2568,"cb":2569,"constructor":2570,"Ġdatabase":2571,"mas":2572,"Ġorig":2573,"Ġmo":2574,"Ġinfo":2575,"long":2576,"izer":2577,"left":2578,"tree":2579,"ĠOption":2580,"xroot":2581,"xrootd":2582,"words":2583,"Do":2584,"olling":2585,"Ġlambda":2586,"ticle":2587,"Di":2588,"startswith":2589,"derr":2590,"np":2591,"side":2592,"multi":2593,"GG":2594,"ero":2595,"UM":2596,"txt":2597,"Ġab":2598,"example":2599,"Ġcalled":2600,"An":2601,"Ġcharac":2602,"gr":2603,"SA":2604,"Â¶":2605,"DB":2606,"CK":2607,"plot":2608,"sible":2609,"Ġax":2610,"\"):":2611,"State":2612,").__":2613,"ĠCo":2614,"ĠWAR":2615,"Ġ[-":2616,"Ġ],":2617,"Ġ'<":2618,"Ġalso":2619,"Âĭ":2620,"22484":2621,"Ã¬":2622,"Inter":2623,"ope":2624,"enter":2625,"22484847":2626,"primary":2627,"Ġwx":2628,"ang":2629,"Ġprogram":2630,"]]":2631,"Ġframe":2632,"Ġbuild":2633,"Ã©":2634,"Dis":2635,"devids":2636,"else":2637,"stamp":2638,"Run":2639,"____":2640,"lineno":2641,"Th":2642,"fy":2643,"qz":2644,"Return":2645,"ĠNot":2646,"umns":2647,"Count":2648,"Âī":2649,"TO":2650,"IGHT":2651,"Ġ%}":2652,"username":2653,"util":2654,"Pre":2655,"cap":2656,"errors":2657,"Line":2658,"andard":2659,"Ġextra":2660,"166":2661,"tools":2662,"Ġref":2663,"ĠIS":2664,"Image":2665,"ĠZ":2666,"Ġinformation":2667,"task":2668,"cale":2669,"Ġattributes":2670,"Out":2671,"Rec":2672,"ĠException":2673,"licy":2674,"Create":2675,"Ġdir":2676,"Ġbefore":2677,"Ġauto":2678,"LI":2679,"ha":2680,"except":2681,"lt":2682,"Ġdistributed":2683,"Ġdictionary":2684,"rag":2685,"Ġfilter":2686,"RANT":2687,"ĠRes":2688,"cr":2689,"bl":2690,"Or":2691,"INTER":2692,"Per":2693,"Ġ\"\\":2694,"mote":2695,"Ġ%(":2696,"position":2697,"prot":2698,"resh":2699,"Ġproperty":2700,"ived":2701,"Ġbec":2702,"Ġlimit":2703,"ĠĠĠĠĠĠĠĠĠĠĠĠĠĊ":2704,"Ġlike":2705,"gnore":2706,"Parser":2707,"Ġass":2708,"ĠcustProfile":2709,"imp":2710,"Ġact":2711,"Ġfail":2712,"('\\":2713,"\"],":2714,"ason":2715,"domain":2716,">\\":2717,"ATION":2718,"vate":2719,"job":2720,"/%":2721,"Code":2722,"Ġwri":2723,"Ġbool":2724,"Âı":2725,"let":2726,"Ġglobal":2727,"Ġerr":2728,"ĠWARRANT":2729,"tom":2730,"Ġ12":2731,"ants":2732,"TYPE":2733,"decode":2734,"rary":2735,"Pack":2736,"Ġbeen":2737,"Ġdescription":2738,"Ġsoftware":2739,"Ġempty":2740,"Ġap":2741,"Ġexist":2742,"BU":2743,"ba":2744,"Ġalready":2745,"Ġrepresent":2746,"Ġprovi":2747,"Ġwant":2748,"Auto":2749,"Ġ'__":2750,"resol":2751,"Color":2752,"167":2753,"sql":2754,"Ġte":2755,"')])":2756,"Ġtests":2757,"kip":2758,"Ġcolumn":2759,"Ġdetails":2760,"Ġdon":2761,"YR":2762,"ARE":2763,"over":2764,"ĠPO":2765,"Ġsel":2766,"merz":2767,"Ġavailable":2768,"Ġlong":2769,"ntax":2770,"children":2771,"=%":2772,"ĠĠĠĠĠĠĠĠĠĠĠĠĠĠĊ":2773,"ef":2774,"stack":2775,"STR":2776,"Meta":2777,"Ġreturned":2778,"ĠWe":2779,"support":2780,"Ġenviron":2781,"Query":2782,"Ġpassed":2783,"ĠTHE":2784,"execute":2785,"Ġne":2786,"Ġshow":2787,"tests":2788,"Ptr":2789,"ported":2790,"Ġcolor":2791,"stop":2792,"hash":2793,"HTTP":2794,"Ġtwo":2795,"></":2796,"vision":2797,"ĠIt":2798,"ORT":2799,"ince":2800,"INE":2801,"{%":2802,"Str":2803,"ĠSoftware":2804,"Ġitems":2805,"Ġ'',":2806,"section":2807,"View":2808,"OS":2809,"Ġpost":2810,"Ġ'-":2811,"Ġpassword":2812,"fd":2813,"Ġsocket":2814,"Ġenv":2815,"Ġmain":2816,"shape":2817,"handle":2818,"IGN":2819,"tract":2820,"ERR":2821,"Ġregister":2822,"ĠĠĠĠĠĠĠĠĠĠĠĠĠĠĠĊ":2823,"ĠHTTP":2824,"cd":2825,"ĠName":2826,"au":2827,"src":2828,"Ġattrs":2829,"oices":2830,"messages":2831,"Int":2832,"coder":2833,"Entry":2834,"hen":2835,"ĠAdd":2836,"fin":2837,"Ġutf":2838,"subscription":2839,"Ġ\"'":2840,"ĠCom":2841,"End":2842,"oding":2843,"forms":2844,"Number":2845,"dist":2846,"attribute":2847,"Ġtop":2848,"ĠDE":2849,"]+":2850,"mg":2851,"olume":2852,"dleware":2853,"Map":2854,"(\\":2855,"DAT":2856,"lem":2857,"uff":2858,"Ġwidth":2859,"erred":2860,"__,":2861,".')":2862,"PI":2863,"]))":2864,"insert":2865,"----------------------------------------------------------------":2866,"metadata":2867,"Ġcmd":2868,"Ġvar":2869,"ĠImport":2870,"clean":2871,"adi":2872,"tz":2873,"Ġstrings":2874,"Ġjson":2875,"ĠĠĠĠĠĠĠĠĠĠĠĠĠĠĠĠĊ":2876,"ric":2877,"Ġ$":2878,"ĠUser":2879,"ĠTypeError":2880,"Ġsend":2881,"OM":2882,"Loc":2883,"Ġtemp":2884,"control":2885,"tuple":2886,"Ġerrors":2887,"vious":2888,"ride":2889,"Ġposition":2890,"Ġrece":2891,"comment":2892,"Ġtypes":2893,"SH":2894,"ĠUn":2895,"ÂĬ":2896,"Ġvis":2897,"Ġtask":2898,"\"\\":2899,"'].":2900,"ÃĲÂµÃĲ":2901,"Ġfull":2902,"exc":2903,"unittest":2904,"Property":2905,"Token":2906,"Ġdebug":2907,"Ġnow":2908,"callback":2909,"render":2910,"widget":2911,"Âĸ":2912,"bit":2913,"bytes":2914,"vp":2915,"Brain":2916,"alog":2917,"},'":2918,"Command":2919,"Ġjust":2920,"exists":2921,"Ġrender":2922,"rs":2923,"-%":2924,"Â®":2925,"00000000":2926,"Ġcomple":2927,"Sy":2928,"setup":2929,"ical":2930,"ublish":2931,"tags":2932,"Box":2933,"system":2934,"////////":2935,"Ġsearch":2936,"Ġreq":2937,"stdout":2938,"Option":2939,"fc":2940,")[":2941,"bility":2942,"ustom":2943,"expected":2944,"web":2945,"rt":2946,"bool":2947,"media":2948,"fl":2949,"tainer":2950,"),(":2951,"math":2952,"als":2953,"Ġbytes":2954,"clas":2955,"Ġlogger":2956,"Context":2957,"font":2958,"ae":2959,"Ġemail":2960,"Ġmethods":2961,"graph":2962,"conds":2963,"ailed":2964,"non":2965,"Ġignore":2966,"rowser":2967,"FAULT":2968,"very":2969,"Ġla":2970,"Ġsingle":2971,"NS":2972,"imum":2973,"Ġsystem":2974,"Âł":2975,"dest":2976,"termin":2977,"ek":2978,"Ġ{\"":2979,"Ġrandom":2980,"refe":2981,"Client":2982,"Ġdiffe":2983,"Page":2984,"ĉĊ":2985,"Format":2986,"Ġaddress":2987,"Ġbet":2988,"ins":2989,"argv":2990,"Âľ":2991,"manager":2992,"Le":2993,"record":2994,"gest":2995,"Ġunittest":2996,"abel":2997,"ends":2998,"Ġkeys":2999,"Imple":3000,"resp":3001,"ugh":3002,"GR":3003,"wise":3004,"ÂŁ":3005,"Buffer":3006,"128":3007,"Ġ'_":3008,"Ġlate":3009,"Connection":3010,"atom":3011,"attrs":3012,"sume":3013,"rest":3014,"ILITY":3015,"Header":3016,"Ġclas":3017,"ached":3018,");":3019,"Ġ100":3020,"Ġrecord":3021,"FORMAT":3022,"Ġcreated":3023,"]),":3024,"Table":3025,"pc":3026,"Âŀ":3027,"101":3028,"year":3029,"ĠID":3030,"Ġpla":3031,"sort":3032,"Ġcoding":3033,"Widget":3034,"Ġbecause":3035,"Ġ..":3036,"extension":3037,"ched":3038,"Âķ":3039,"flags":3040,"Ġoffset":3041,".\")":3042,"'})":3043,"Ġsche":3044,"Ġparameter":3045,"include":3046,"heet":3047,"9999":3048,"rel":3049,"Ġlanguage":3050,"SER":3051,")/":3052,"tmp":3053,"Ġservice":3054,"OW":3055,"Ġmat":3056,"Ġfollowing":3057,"Child":3058,"ories":3059,"Qt":3060,"real":3061,"/>":3062,"MB":3063,"tered":3064,"Ġthey":3065,"ĠNo":3066,"#!":3067,"Ġnumpy":3068,"thread":3069,"Ġstruct":3070,"full":3071,"Ġwidget":3072,"aded":3073,"Ġapplication":3074,"\"}":3075,"dc":3076,"dec":3077,"dered":3078,")',":3079,"ĠCheck":3080,"400":3081,"\"\"\",":3082,"GET":3083,"license":3084,"case":3085,"Point":3086,"arnings":3087,"ics":3088,"---":3089,"cul":3090,"apt":3091,"Ġstd":3092,"ĠHttp":3093,"pg":3094,"win":3095,"sq":3096,"oice":3097,"exit":3098,"Ġtmp":3099,"AGE":3100,"rule":3101,"XT":3102,"Ġraw":3103,"Action":3104,"Ġcallback":3105,"Default":3106,"oci":3107,"xbb":3108,"':'":3109,"Ġproject":3110,"Ġ32":3111,"cp":3112,"sm":3113,"ĠRE":3114,"Boolean":3115,"cer":3116,"rep":3117,"Ġrule":3118,"Ġsetup":3119,"sv":3120,"Len":3121,"stead":3122,"GE":3123,"entication":3124,"Ġreference":3125,"safe":3126,"LIC":3127,"OK":3128,"alled":3129,"bot":3130,"Âļ":3131,"flow":3132,"tex":3133,"Ġprovided":3134,"DateTime":3135,"00000":3136,"les":3137,"initial":3138,"window":3139,"Ġsta":3140,"unique":3141,"Ġapi":3142,"Ġ16":3143,"ACK":3144,"ĠData":3145,"'^":3146,"methods":3147,"Ref":3148,"On":3149,"plug":3150,"Ge":3151,"Ġmy":3152,"Ġinteger":3153,"mask":3154,".*":3155,"quote":3156,"EST":3157,"sage":3158,"sync":3159,"Ġencode":3160,"rough":3161,")'":3162,"Ġob":3163,"AAAA":3164,"Ġ_('":3165,"zy":3166,"Server":3167,"Ed":3168,"way":3169,"EL":3170,"arguments":3171,"Oper":3172,".\\":3173,"Ġsimple":3174,"desc":3175,"opt":3176,"ĠAny":3177,"ĠFOR":3178,"Ġ\"\"":3179,"ĠReturn":3180,"Â¬":3181,"Ġvoid":3182,"ween":3183,"Ġtree":3184,"ACE":3185,"ves":3186,"INT":3187,"Ġselect":3188,"Callback":3189,"timeout":3190,"utable":3191,"Iter":3192,">'":3193,"Ġthem":3194,"Reg":3195,"limit":3196,"PB":3197,"ged":3198,"Returns":3199,"true":3200,"ition":3201,"indent":3202,"display":3203,"Ġscript":3204,"extend":3205,"login":3206,"buf":3207,"stderr":3208,"KEY":3209,"sitive":3210,"Ġhash":3211,"Service":3212,"Manager":3213,"prec":3214,"Ġinstead":3215,"Ġdisplay":3216,"ĠDef":3217,"Ġ20":3218,"Ġdoesn":3219,"tw":3220,"nicode":3221,"skip":3222,"tep":3223,"opts":3224,"invalid":3225,"Window":3226,"Ġresp":3227,"rop":3228,"ured":3229,"Ġfe":3230,"Ġaccess":3231,"Ġspecific":3232,"Ġ14":3233,"ograph":3234,"hi":3235,"profile":3236,"account":3237,"game":3238,"ERROR":3239,"extra":3240,")\"":3241,"dentifier":3242,"Ġfont":3243,"ĠImportError":3244,"seq":3245,"served":3246,"rection":3247,"Ġcustom":3248,"cursor":3249,"wer":3250,"Ġtrue":3251,"azure":3252,"FO":3253,"eff":3254,"ĠQt":3255,"groups":3256,"Ġnamespace":3257,"itor":3258,"]*":3259,"results":3260,"`.":3261,"EXT":3262,"lang":3263,"atter":3264,"Ġtri":3265,"zone":3266,"yn":3267,"ILE":3268,"apping":3269,"orig":3270,"Ġremove":3271,"button":3272,"Ġimplement":3273,"zip":3274,"required":3275,"pha":3276,"Ġlocation":3277,"wn":3278,"tml":3279,"istr":3280,"tific":3281,"ĠBase":3282,"dump":3283,"ĠCreate":3284,"Ġoptional":3285,"raint":3286,"mm":3287,"fs":3288,"AutoField":3289,"ABILITY":3290,"Ġcontaining":3291,"lice":3292,"https":3293,"ks":3294,"gt":3295,"__)":3296,"fn":3297,"Ġeven":3298,"storage":3299,"oto":3300,"================================":3301,"Ġbuffer":3302,"Doc":3303,"olute":3304,"Lay":3305,"Ġcomment":3306,"Implemented":3307,"channel":3308,"With":3309,"her":3310,"IES":3311,"wd":3312,"unter":3313,"ground":3314,"Ġauthor":3315,"Ġabs":3316,"ring":3317,"Trans":3318,"'\",":3319,"Ġ~":3320,"atz":3321,"Stream":3322,"Ġexc":3323,"Ġcl":3324,"({":3325,"wx":3326,"Many":3327,"AY":3328,"xbf":3329,"FILE":3330,"amp":3331,"most":3332,"Sp":3333,"PRE":3334,"defin":3335,"ways":3336,"alias":3337,"tact":3338,"Ġ15":3339,"MO":3340,"Ġsave":3341,"socket":3342,"ditional":3343,"Ġleft":3344,"lative":3345,"logger":3346,"distri":3347,"Ġsure":3348,"ending":3349,"Ġsql":3350,"ystem":3351,"Gui":3352,"engine":3353,"#!/":3354,"ja":3355,"idx":3356,"uture":3357,"bound":3358,"Â¦":3359,"modules":3360,"IX":3361,"ĠVer":3362,"ĠCol":3363,"mbol":3364,"Cur":3365,"abc":3366,"Tests":3367,"leted":3368,"ello":3369,"ĠAll":3370,"sample":3371,"sets":3372,"ared":3373,"pth":3374,"sive":3375,"att":3376,"ops":3377,"Ġatom":3378,"ÂĲ":3379,"Ġdomain":3380,"Ġverbose":3381,"xba":3382,"ickle":3383,"Ġsm":3384,"ORD":3385,"namespace":3386,"wrap":3387,"={":3388,"Ġdelete":3389,"SD":3390,"300":3391,"lick":3392,"Gener":3393,"8859":3394,"IND":3395,"quires":3396,"png":3397,"Ġadded":3398,"delta":3399,"Input":3400,">>>":3401,"Ġfunctions":3402,"Ġcursor":3403,".'":3404,".',":3405,"signed":3406,"ude":3407,"bc":3408,"Ġpermission":3409,"MENT":3410,"help":3411,"uffix":3412,"ĠFree":3413,"################################################################":3414,"Ġfeed":3415,"ÂĶ":3416,"Ġmis":3417,"Packet":3418,"Ġbin":3419,"ilder":3420,"SET":3421,"fr":3422,"Ġnodes":3423,"press":3424,"Ġvi":3425,"Ġtimeout":3426,"ĠAttribute":3427,"licit":3428,"irs":3429,"INGS":3430,"Ġlookup":3431,"ÃĲÂµÃĳ":3432,"ÂĻ":3433,"hether":3434,",\"":3435,"Ġpublish":3436,"wri":3437,"Ġdev":3438,"greg":3439,"tify":3440,"Start":3441,"vers":3442,"ĠOptional":3443,"Ġtags":3444,"Su":3445,"mory":3446,"Ġfinally":3447,"TION":3448,"sport":3449,"ĠWITHOUT":3450,"Ġsequence":3451,"video":3452,"$',":3453,"complex":3454,"Found":3455,"SON":3456,"Ġdefined":3457,"properties":3458,"lear":3459,"Ġurllib":3460,"SQL":3461,"Ġ','":3462,"()[":3463,"PAT":3464,"Ġmon":3465,"Link":3466,"istory":3467,"ret":3468,"Ã«":3469,"Of":3470,"lip":3471,"Ns":3472,"mac":3473,"/{":3474,".%":3475,"Ġstatic":3476,"category":3477,"123":3478,"vas":3479,"leg":3480,"release":3481,"ose":3482,"dt":3483,"345":3484,"qzvp":3485,"172":3486,"nodes":3487,"ube":3488,"Ġchunk":3489,"clear":3490,"ĠGe":3491,"cted":3492,"span":3493,")\\":3494,"Ġpk":3495,"ible":3496,"clo":3497,"}}":3498,"ummy":3499,"classes":3500,"ĠFound":3501,"bind":3502,"POST":3503,"dar":3504,"ily":3505,"Ġmodify":3506,"rows":3507,"Ġopts":3508,"variable":3509,"install":3510,"Ġuti":3511,"icro":3512,"distribu":3513,"loader":3514,"random":3515,"iltin":3516,"ina":3517,"addr":3518,"Status":3519,"****************":3520,"ĠDec":3521,"card":3522,"Source":3523,"Ġhref":3524,"Ġserial":3525,"wait":3526,"Var":3527,"ÂĹ":3528,"tical":3529,"ced":3530,"ÃĲÂº":3531,"Ġ\"/":3532,"Ġcre":3533,"aaaaaaaa":3534,"END":3535,"known":3536,"ship":3537,"ĠAPI":3538,"like":3539,"Ġcontrol":3540,"uation":3541,"dic":3542,"total":3543,"PUT":3544,"spa":3545,"Ġthese":3546,"Feed":3547,"Control":3548,"ODO":3549,"Ġsite":3550,"------------------------------------------------------------------------":3551,"Multi":3552,"screen":3553,"licen":3554,"Ġloc":3555,"rer":3556,"Protocol":3557,"Ã¢":3558,"(\"%":3559,"rences":3560,"ccur":3561,"Ġsa":3562,"Ġfree":3563,"Ġmessages":3564,"Button":3565,"('%":3566,"Output":3567,"Ġbetween":3568,"Ġdown":3569,"127":3570,"access":3571,"IB":3572,"Ġflag":3573,"factory":3574,"Ġuri":3575,"Ġsum":3576,"ision":3577,"ĠFile":3578,"AND":3579,"points":3580,"vider":3581,"ĠNote":3582,"Ġskip":3583,"Resource":3584,"000000":3585,"Factory":3586,"ĠHT":3587,"ordin":3588,"###":3589,"ift":3590,"UTH":3591,"Ġimplied":3592,"ĠArgs":3593,"Validation":3594,"tab":3595,"Ġuseful":3596,"Mo":3597,"allow":3598,"Ġgdata":3599,"COL":3600,"'\"":3601,"Âĺ":3602,"global":3603,"Ġaccept":3604,"As":3605,"gh":3606,"ux":3607,"fetch":3608,"na":3609,"Ġtotal":3610,"ZE":3611,"Ġdec":3612,"'re":3613,"fill":3614,"pattern":3615,"normal":3616,"Ġzip":3617,"Ġpattern":3618,"hy":3619,"Ġrel":3620,"Ġterms":3621,"tx":3622,"FL":3623,"ĠKeyError":3624,"Ġsection":3625,"Ġnormal":3626,"FC":3627,"Ġword":3628,"double":3629,"vo":3630,"ĠInc":3631,"proxy":3632,"ĠSe":3633,"404":3634,"110":3635,"ENSE":3636,"entries":3637,"scale":3638,"ession":3639,"Method":3640,"173":3641,"atures":3642,"1777":3643,"sheet":3644,"Ġlater":3645,"itch":3646,"lash":3647,"ĠAR":3648,"alt":3649,"Ġxrange":3650,"Â£":3651,"ea":3652,"device":3653,"this":3654,"vars":3655,"Ġclose":3656,"BooleanField":3657,"gress":3658,"!!":3659,"iler":3660,"ker":3661,"Ġwindow":3662,"Ġclasses":3663,"Select":3664,"verbose":3665,"ĠNotImplemented":3666,"\"])":3667,"']:":3668,"Ġclean":3669,"Ġmock":3670,"Ġcallable":3671,"fb":3672,"ĠHTML":3673,"idden":3674,"OF":3675,"isted":3676,"HO":3677,"ĠPer":3678,"glext":3679,"ÂĽ":3680,"Down":3681,"Ġsecond":3682,"ĠApp":3683,"step":3684,"IR":3685,"keep":3686,"BO":3687,"asic":3688,"ĠFoundation":3689,"Ġsrc":3690,"ĠSer":3691,"annot":3692,"ITE":3693,"All":3694,"{{":3695,"month":3696,"Ġdifferent":3697,"Ġconver":3698,"Device":3699,"HER":3700,"ĠEX":3701,"Ġ::":3702,"Ġbound":3703,"SO":3704,"peri":3705,"Ġreal":3706,"Ġusername":3707,"titem":3708,"lookup":3709,"115":3710,"ets":3711,"ĠNOT":3712,"Ġhand":3713,"istry":3714,"document":3715,"views":3716,"Ġunique":3717,"Ġreplace":3718,"ene":3719,"sl":3720,"xbc":3721,"cent":3722,"If":3723,"ook":3724,"asy":3725,"ĠDefault":3726,"lex":3727,"cii":3728,"pping":3729,"IF":3730,"Ġ((":3731,"short":3732,"ank":3733,"used":3734,"Ġexpression":3735,"Ġflags":3736,"angle":3737,"Ġstack":3738,"note":3739,"chedule":3740,"soft":3741,"500":3742,"Ġlook":3743,"(%":3744,"ĠEn":3745,"expr":3746,"ctype":3747,"cret":3748,"Ag":3749,"ĠÃĲ":3750,"Ġ_(\"":3751,"ait":3752,"Ro":3753,"commit":3754,"TC":3755,"Ġinterface":3756,"Ġ11":3757,"ĠConfig":3758,"Ġcontains":3759,"],[":3760,"ptr":3761,"board":3762,"ĠAttributeError":3763,"Ġpop":3764,"ually":3765,"Â«":3766,"DEFAULT":3767,"matic":3768,"Ġspace":3769,"tran":3770,"Admin":3771,"edi":3772,"lite":3773,"Ġstop":3774,"layout":3775,"sue":3776,"Function":3777,"117":3778,"ĀĀĀĀĀĀĀĀĀĀĀĀĀĀĀĀĀĀĀĀĀĀĀĀĀĀĀĀĀĀĀĀ":3779,"ĉĉĊ":3780,"Ġforms":3781,"sure":3782,"Ġcorrect":3783,"Ġshort":3784,"Ġ[(":3785,"cat":3786,"256":3787,"Ġexists":3788,"fp":3789,"Ġ\":":3790,"cm":3791,"river":3792,"mme":3793,"Ġ[])":3794,"MAX":3795,"(['":3796,"none":3797,"YPD":3798,"Ġreport":3799,"draw":3800,"CHAR":3801,"wall":3802,"Ġeval":3803,"_)":3804,"stract":3805,"exceptions":3806,"TypeId":3807,"ROM":3808,"orld":3809,"Invalid":3810,"Module":3811,"dirname":3812,"MPL":3813,"uster":3814,"sumer":3815,"atterns":3816,"DIR":3817,"Ġprovide":3818,"119":3819,"ĠDjango":3820,"NN":3821,"achine":3822,"Template":3823,"')],":3824,"nap":3825,"Ġcer":3826,"sted":3827,"Ġtrace":3828,"DateTimeField":3829,"stats":3830,"FN":3831,"common":3832,"ĠHttpResponse":3833,"BUG":3834,"Ġhtml":3835,"165":3836,"142":3837,"\\\"":3838,"loop":3839,"Ġabout":3840,"posit":3841,"Label":3842,"CTION":3843,"trace":3844,"gd":3845,"Ġmultiple":3846,"actions":3847,"112":3848,"light":3849,"licenses":3850,"RAW":3851,"agement":3852,"Ġwhat":3853,"Ġenume":3854,"\"}),":3855,"Ġdeserial":3856,"Ġchannel":3857,"ams":3858,"simple":3859,"Ġrelated":3860,"PHE":3861,"zer":3862,"poly":3863,"Ġconfiguration":3864,"Frame":3865,"Ġheight":3866,"Ġcollection":3867,"LEU":3868,"(__":3869,"']['":3870,"bove":3871,"Ġreceived":3872,"Ġjoin":3873,"contents":3874,"iki":3875,"Ġweb":3876,"tems":3877,"changed":3878,"tice":3879,"ÃĽ":3880,"anel":3881,"irc":3882,"img":3883,"Ġ'#":3884,"dig":3885,"ÂĴ":3886,"ULL":3887,"eval":3888,"ites":3889,"Ġpolling":3890,"ower":3891,"Sec":3892,"ĠList":3893,"Ġ>>":3894,"Ġfil":3895,"XML":3896,"Ġinvalid":3897,"keyword":3898,"eeded":3899,"ASE":3900,"Ġ}}":3901,"em":3902,"Ġcontents":3903,"IE":3904,"\").":3905,"TEXT":3906,"cry":3907,"Ġfp":3908,"ĠGo":3909,"MET":3910,"One":3911,"Read":3912,"Ġkeyword":3913,"ĠDO":3914,"Python":3915,"Ġtra":3916,"Ġforce":3917,"118":3918,"ĠResource":3919,"]['":3920,"va":3921,"ould":3922,"uter":3923,"_,":3924,"apter":3925,"Ġplugin":3926,"Ġwhether":3927,"SION":3928,"Ġfoo":3929,"Checker":3930,"Ġoriginal":3931,"yload":3932,"diff":3933,"Width":3934,"URE":3935,"sec":3936,"ice":3937,"plat":3938,"0001":3939,"Ġsw":3940,"ases":3941,"gor":3942,"cluded":3943,"Ġ30":3944,"Ġmember":3945,"dential":3946,"Ġoperation":3947,"aster":3948,"dfmp":3949,"ility":3950,"__.":3951,"ural":3952,"ĠPOINTER":3953,"ace":3954,"NESS":3955,"columns":3956,"Length":3957,"ULAR":3958,"menu":3959,"sr":3960,"125":3961,"Ġ&',":3962,"ĠFIT":3963,"pool":3964,"Ġadmin":3965,"ĠField":3966,"113":3967,"Application":3968,"ines":3969,"800":3970,"Ġbeing":3971,"dentity":3972,"Ġabove":3973,"tim":3974,"xample":3975,"Ġfix":3976,"Ġedit":3977,"_.":3978,"POSE":3979,"Version":3980,"ĠPART":3981,"umeric":3982,"PAR":3983,"','','":3984,"yp":3985,"Ġthrough":3986,"orter":3987,"Ġconvert":3988,"lendar":3989,"CHANT":3990,"PATH":3991,"Ġ\",":3992,"roll":3993,"iso":3994,"163":3995,"denc":3996,"ERCHANT":3997,"ixin":3998,"ASS":3999,"mension":4000,"entity":4001,"tains":4002,"LL":4003,"}/":4004,"Ġpipeline":4005,"ĠExample":4006,"UD":4007,"WARE":4008,"Const":4009,"179":4010,")],":4011,"Ġaccount":4012,"CS":4013,"Simple":4014,"Ġdefaults":4015,"unit":4016,"LY":4017,"ons":4018,"report":4019,"reference":4020,"ĠAuth":4021,"Ġentity":4022,"Ġ'--":4023,"uce":4024,"New":4025,"sgi":4026,"ĠFITNESS":4027,"URPOSE":4028,"gettext":4029,"Ġindent":4030,"ĠOn":4031,"__':":4032,"axis":4033,"ĠSIGN":4034,"Unless":4035,"mock":4036,"Ġsuccess":4037,"pendenc":4038,":\\":4039,"ĠPURPOSE":4040,"ination":4041,"Ġenumerate":4042,"Ġwarnings":4043,"Âĳ":4044,"ket":4045,"Ġblank":4046,"ICULAR":4047,"']\"}),":4048,"ĠStringIO":4049,"Ġelements":4050,"urls":4051,"('-":4052,"binary":4053,"ĠPARTICULAR":4054,"ĠSO":4055,"Ġ\"<":4056,"mol":4057,"lyph":4058,"creen":4059,"ascii":4060,"Ġbuf":4061,"ĠTo":4062,"schema":4063,"geom":4064,"ĠNotImplementedError":4065,"Ġkw":4066,"ONE":4067,"gi":4068,"midi":4069,"Ġcharacters":4070,"132":4071,"TypeError":4072,"Ġbackend":4073,"3333":4074,"Ġsince":4075,"Ġ13":4076,"Ġevery":4077,"created":4078,"Ġgraph":4079,"Instance":4080,"gis":4081,"ditions":4082,"ĠTODO":4083,"Ġhow":4084,"->":4085,"Ġwould":4086,"114":4087,"Ġdraw":4088,"Ġnetwork":4089,"rot":4090,"ERCHANTABILITY":4091,"iddleware":4092,"bf":4093,"ĠXML":4094,"ĠSQL":4095,"Ġ19":4096,"ĠBO":4097,"ĠText":4098,"160":4099,"Ġdtype":4100,"Ġmeta":4101,"ND":4102,"(**":4103,"elements":4104,"bd":4105,"LECT":4106,"ueue":4107,"Ġph":4108,"moved":4109,"Ġsorted":4110,"Ġstri":4111,"REE":4112,"Ġbar":4113,"Ġlibrary":4114,"ond":4115,"309":4116,"zz":4117,"''']":4118,"Ġ40":4119,"scope":4120,"ĠST":4121,"Ġpossible":4122,"BJ":4123,"home":4124,"tics":4125,"raises":4126,"Ġassoci":4127,"spect":4128,"'''],":4129,"Ġparts":4130,"Ġdevclass":4131,"ĠTemplate":4132,"109":4133,"cast":4134,"Ġ{}),":4135,"aly":4136,"activ":4137,"ĠAl":4138,"509":4139,"APT":4140,"857":4141,"ĠOpen":4142,"Back":4143,"optional":4144,"ĠAs":4145,"track":4146,"TEST":4147,"tended":4148,"Ġspa":4149,"ĠComp":4150,"Ġagain":4151,"ÂĿ":4152,"pository":4153,"DF":4154,"Ġway":4155,"pipeline":4156,"enu":4157,"Âĵ":4158,"using":4159,"flag":4160,"Filter":4161,"EC":4162,"Search":4163,"Ġboth":4164,"++":4165,"3600":4166,"js":4167,"Float":4168,"ĠWARRANTIES":4169,"ĠDict":4170,"users":4171,"175":4172,"raise":4173,"dtype":4174,"Ġctypes":4175,"ient":4176,"Ġfl":4177,"ness":4178,"utes":4179,"interface":4180,"Ġstore":4181,"Arg":4182,"Ġcould":4183,"Ġrepr":4184,"DATA":4185,"ĠPo":4186,"Ġcharacter":4187,"ĠRequest":4188,"Cache":4189,"Ġnull":4190,"eq":4191,"Ġbyte":4192,"ĠOr":4193,"104":4194,"\":\"":4195,"139":4196,"hex":4197,"'d":4198,"sep":4199,"align":4200,"ĠBody":4201,"ification":4202,"ĠAd":4203,"Ġcomponent":4204,"Change":4205,"Spec":4206,"ĠsetUp":4207,"Ġtheir":4208,"stat":4209,"Ġ\".":4210,"nom":4211,"gorith":4212,"leep":4213,"()))":4214,"sten":4215,"crement":4216,"Ġpl":4217,"120":4218,")])":4219,"Process":4220,"IAL":4221,"ored":4222,"Ġeq":4223,"253":4224,"Ġsplit":4225,"MS":4226,"warn":4227,"Dir":4228,"Ġconstructor":4229,"tificate":4230,"Ãļ":4231,"Ġwrap":4232,"loads":4233,"convert":4234,"ving":4235,"Ġoutfile":4236,"STRING":4237,"css":4238,"private":4239,"shot":4240,"~~~~~~~~":4241,"nu":4242,"ĠDoc":4243,"Ġclo":4244,")\",":4245,"mk":4246,"Ġsen":4247,"Ġti":4248,"mpt":4249,"PC":4250,"Ġsuite":4251,"ung":4252,"001":4253,"Ġour":4254,"kind":4255,"Ġloop":4256,"Ġ\"__":4257,"105":4258,"llum":4259,"``.":4260,"directory":4261,"Ġmetadata":4262,"Ġpaths":4263,"Ġappro":4264,"Descri":4265,"some":4266,"149":4267,"'[":4268,"180":4269,"lities":4270,"UE":4271,"Ġ--------":4272,"ĠMERCHANTABILITY":4273,"170":4274,"Ġsample":4275,"cookie":4276,"Ġaxis":4277,"Ġ'')":4278,"ACT":4279,"Ġfailed":4280,"nb":4281,"Ġenvironment":4282,"ĠTh":4283,"Ġdocumentation":4284,"Ġdep":4285,"cla":4286,"bad":4287,"Ġdone":4288,"ancel":4289,"[:-":4290,"Ġwho":4291,"Ġconf":4292,"Ġbel":4293,"Ġproperties":4294,"Ġpublished":4295,"Ġalong":4296,"Ġmissing":4297,"endswith":4298,"parts":4299,"ĠPRO":4300,"tist":4301,"kt":4302,"folder":4303,"ĠTH":4304,"dirs":4305,"rack":4306,"fer":4307,"ĠĠĠĠĠĠĠĠĠĠĠĠĠĠĠĠĠĊ":4308,"argument":4309,"Ġlineno":4310,"ValidationError":4311,"Open":4312,"gregate":4313,"Ġqueue":4314,"Ġcommon":4315,"cessed":4316,"Ġallowed":4317,"Ġsepar":4318,"llumina":4319,"Array":4320,"ĠConstruct":4321,"250":4322,"ritems":4323,"Ġprotocol":4324,"Ġprevious":4325,"Exp":4326,"ranch":4327,"tt":4328,"Ġuid":4329,"curity":4330,"Ġsuch":4331,"Ġsetting":4332,"Illumina":4333,"SAPT":4334,"aries":4335,"\"'":4336,"generic":4337,"NBC":4338,"BL":4339,"Ġredirect":4340,"Ġutils":4341,"SIZE":4342,"ply":4343,"uring":4344,"Ġsort":4345,"Variable":4346,"onic":4347,"ĠBodymap":4348,"xfe":4349,"colors":4350,"ĠDecimal":4351,"adius":4352,"Ġgenerate":4353,"reset":4354,"regex":4355,"Ġalways":4356,"=_":4357,"Ġmask":4358,"dio":4359,"Ġstandard":4360,"Ġtokens":4361,"rl":4362,"ctx":4363,"rtype":4364,"enum":4365,"Ġstep":4366,"Warning":4367,"cell":4368,"Ġrelative":4369,"permission":4370,"ĠRun":4371,"Ġkind":4372,"Ġstorage":4373,")(":4374,"Pa":4375,"Ġcannot":4376,"Ġsupported":4377,"public":4378,"Min":4379,"inte":4380,"CODE":4381,"havi":4382,"-----":4383,"OG":4384,"Ġindic":4385,"alk":4386,"ouse":4387,"product":4388,"paper":4389,"timestamp":4390,"Ġactual":4391,"icon":4392,"Ġdt":4393,"('<":4394,"loy":4395,"Update":4396,"Ġmath":4397,"Network":4398,"Ġipv":4399,"UBLE":4400,"question":4401,"resolution":4402,"ĉĉĉĉĉ":4403,"ĠWARRANTY":4404,"sig":4405,"So":4406,"TIME":4407,"ĠSE":4408,"tities":4409,"Ġ60":4410,"USER":4411,"107":4412,"ĠQtGui":4413,"Ġdesc":4414,"MIN":4415,"ĠVersion":4416,"409":4417,"ĠGoogle":4418,"exer":4419,"sequence":4420,"Ġfinal":4421,"defaults":4422,"choices":4423,"Ġupdated":4424,"ivar":4425,"ĉĠ":4426,"seconds":4427,"ĠNO":4428,"mgmt":4429,"102":4430,"uction":4431,"operator":4432,"ANG":4433,"super":4434,"ĠĠĠĠĠĠĠĠĠĠĠĠĠĠĠĠĠĠĊ":4435,"wards":4436,"aved":4437,"Ġbased":4438,"ĠUse":4439,"Ġpoints":4440,"Ġfn":4441,"PORT":4442,"failUnless":4443,"dices":4444,"2010":4445,"Suite":4446,"/',":4447,"chunk":4448,"Ġ(%":4449,"second":4450,"upper":4451,"CD":4452,"star":4453,"Ġjob":4454,"Te":4455,"ished":4456,"Ġpoly":4457,"hook":4458,"ali":4459,"Ġbegin":4460,"akes":4461,"player":4462,"tten":4463,"/(":4464,"plugin":4465,"________":4466,">',":4467,"ier":4468,"PS":4469,"807":4470,"Edit":4471,"Ġotherwise":4472,"ire":4473,"pher":4474,"Ġreverse":4475,"Ġvariables":4476,"Task":4477,"``,":4478,"defined":4479,"volume":4480,"']\",":4481,"Ġmapping":4482,"*(":4483,"ĠFROM":4484,"px":4485,"protocol":4486,"Http":4487,"inv":4488,"Ġca":4489,"where":4490,"UTE":4491,"reverse":4492,"byte":4493,"igration":4494,"redirect":4495,"accept":4496,"BB":4497,"ado":4498,"uch":4499,"sd":4500,"Ġdecode":4501,"ĠMy":4502,"Ġidx":4503,"pol":4504,"xF":4505,"Ġuses":4506,"Ġip":4507,"ross":4508,"tyle":4509,"Ġwithin":4510,"Ġuint":4511,"Ġ-=":4512,"600":4513,"Ġproxy":4514,"Ġwar":4515,"pid":4516,"umb":4517,"NotFound":4518,"ĠBy":4519,"eek":4520,"adding":4521,"And":4522,"Ġresol":4523,"Ġcookie":4524,"Â¢":4525,"Ġencoded":4526,"Mixin":4527,"116":4528,"DO":4529,"cols":4530,"ĠĠĠĠĠĠĠĠĠĠĠĠĠĠĠĠĠĠĠĊ":4531,"lim":4532,"sole":4533,"zh":4534,"Ġgot":4535,"weight":4536,"Ġescape":4537,"ĠIP":4538,"MM":4539,"ateway":4540,"Ġalias":4541,"Ġneeded":4542,"precated":4543,"pref":4544,"Core":4545,"\\'":4546,")+":4547,"012":4548,"Bar":4549,"after":4550,"ority":4551,"ĠDRAW":4552,"LS":4553,"Ġplace":4554,"Ġperson":4555,"nored":4556,"Ġsc":4557,"Ġtrack":4558,"ĠQu":4559,"Struct":4560,"LOCK":4561,"Ġusers":4562,"center":4563,"Ġprofile":4564,"Ġexisting":4565,"Ġ{})":4566,"Ġretri":4567,"HTML":4568,"ĠError":4569,"ĠDRAWINGS":4570,"distribute":4571,"ested":4572,"ĠBOX":4573,"mar":4574,"Mod":4575,"ane":4576,"ĠSH":4577,"Parse":4578,"validate":4579,"Ġselected":4580,"Ġ42":4581,"istribu":4582,"success":4583,"1665":4584,"false":4585,"Ġobtain":4586,"codec":4587,"Ġspecial":4588,"Ġgenerated":4589,"178":4590,"129":4591,"docs":4592,"schemas":4593,"iteritems":4594,"You":4595,"Âİ":4596,"Ġplat":4597,"1669":4598,"force":4599,"Ġpresent":4600,"Ġshape":4601,"platform":4602,"TextField":4603,"ĠSub":4604,"Ġpacket":4605,"155":4606,"Ġlet":4607,"bab":4608,"tect":4609,"Ġspecify":4610,"ĠXXX":4611,"DC":4612,"pare":4613,"flush":4614,"Ġschema":4615,"Ġ(-":4616,"Ġrows":4617,"gorithm":4618,"respon":4619,"rad":4620,"gf":4621,"150":4622,"Layout":4623,"future":4624,"ĠDo":4625,"elem":4626,"istration":4627,"'%":4628,"Ġbit":4629,"Imp":4630,"matrix":4631,"Ġrv":4632,"updated":4633,"gments":4634,"Max":4635,"MPLATE":4636,"ĠĠĠĠĠĠĠĠĠĠĠĠĠĠĠĠĠĠĠĠĊ":4637,"Ġinstances":4638,"database":4639,"({'":4640,"Iterator":4641,">\"":4642,"roy":4643,"Ġdeserialized":4644,"Ġext":4645,"Ġclear":4646,"Ġyear":4647,"ialog":4648,"ĠSh":4649,"Ġbox":4650,"score":4651,"\"\",":4652,"labels":4653,"ĠOS":4654,"pkg":4655,"System":4656,"Ġ\"_":4657,"Ġatt":4658,"Ġ\"-":4659,"ki":4660,"Ġrunning":4661,"Thread":4662,"Prefix":4663,"Ġ>',":4664,"classmethod":4665,"FTWARE":4666,"IZ":4667,"Obj":4668,"rand":4669,"Ġgtk":4670,"Interface":4671,"ĠClient":4672,"SL":4673,"push":4674,"############":4675,"assertFalse":4676,"Ġlicense":4677,"aml":4678,"ĠImage":4679,"140":4680,"ixel":4681,"component":4682,"999":4683,"ignore":4684,"Ġ[[":4685,"cos":4686,"135":4687,"Ġinstall":4688,"137":4689,"Ġedge":4690,"/'":4691,"....":4692,"003":4693,"Ġimplementation":4694,",)":4695,"gger":4696,"|'":4697,"Ġreason":4698,"{}":4699,"MT":4700,"Menu":4701,"faces":4702,"={'":4703,"Jo":4704,"break":4705,"struction":4706,"ron":4707,"NG":4708,"eve":4709,"prop":4710,"apps":4711,"Ġproduct":4712,"wner":4713,"002":4714,"just":4715,"mes":4716,"Policy":4717,"ĠWindow":4718,".':":4719,"resourceGroup":4720,"ading":4721,"_):":4722,"aff":4723,"Ġmost":4724,"archive":4725,"SPACE":4726,"container":4727,"PER":4728,"uuid":4729,"USE":4730,"Ġ17":4731,"strict":4732,"Ġ25":4733,"distance":4734,"ĠAc":4735,"'][":4736,"004":4737,"__.__":4738,"Ġsim":4739,"PR":4740,"illa":4741,"124":4742,"GB":4743,"wb":4744,"Ġoverride":4745,"lots":4746,".\",":4747,"Ġsq":4748,"2012":4749,"Ġunit":4750,"links":4751,"gb":4752,"()):":4753,"ava":4754,"tokens":4755,"dr":4756,"NOT":4757,"Ġbutton":4758,"suite":4759,"Ġassociated":4760,"Ġgen":4761,"Ġnamed":4762,"AGS":4763,"expi":4764,"Ġtoo":4765,"itle":4766,"gon":4767,"perly":4768,"525":4769,"ĠMode":4770,"publish":4771,"mitted":4772,"ga":4773,"hs":4774,"modified":4775,"103":4776,"Ġraised":4777,"provider":4778,"elif":4779,"Ġ24":4780,"144":4781,"collection":4782,"Ġvari":4783,"custom":4784,"ICAL":4785,"Ġanother":4786,"mapping":4787,"Ġscope":4788,"Ġfill":4789,"START":4790,"backend":4791,"ĠLI":4792,"INFO":4793,"Ġmatrix":4794,"Ġwin":4795,"()),":4796,"LA":4797,"internet":4798,"Position":4799,"Ġtransaction":4800,"MPLE":4801,"Font":4802,"loaded":4803,"comments":4804,"scriptor":4805,"Container":4806,"person":4807,"Ġbinary":4808,"agent":4809,"ĠJSON":4810,"Plugin":4811,"packages":4812,"dat":4813,"ERS":4814,"CF":4815,"Ġoprot":4816,"EV":4817,"Ġseq":4818,"gment":4819,"ÃĲÂºÃĲ":4820,"warning":4821,"uplic":4822,"Ġ/>":4823,"Desc":4824,"Ġhigh":4825,"NV":4826,"download":4827,"Ġinv":4828,"ynam":4829,"master":4830,"mun":4831,"selected":4832,"Ġbad":4833,"111":4834,"ws":4835,"Ġsent":4836,"Ġwarran":4837,"Ġsubclass":4838,"Ġapplic":4839,"ĠGE":4840,"Ġrequests":4841,"Ġusage":4842,"sian":4843,"Net":4844,"sity":4845,"begin":4846,"ough":4847,"mag":4848,"Session":4849,"secret":4850,"paths":4851,"proto":4852,"Ġ<<":4853,"ONT":4854,"sqrt":4855,"147":4856,"ATOR":4857,"ĠDOUBLE":4858,"uted":4859,"192":4860,"`,":4861,"cut":4862,"owner":4863,"Ġcategory":4864,"helper":4865,"692":4866,"fg":4867,"ĠMake":4868,"Ph":4869,"LINE":4870,"Ġcolumns":4871,"Delete":4872,"Ġkeep":4873,"tone":4874,".)":4875,"AF":4876,"Ġmonth":4877,"Ġvisit":4878,"Display":4879,"Ġmatches":4880,"Ġdetermin":4881,"peed":4882,"=['":4883,"220":4884,"DATE":4885,"Ġsubject":4886,"Ġsetattr":4887,"sock":4888,"Ġabsolute":4889,"Decode":4890,"ĠLo":4891,"130":4892,"feeds":4893,"tool":4894,"ĠSOFTWARE":4895,"Ġday":4896,"307":4897,"TEMPLATE":4898,"mc":4899,"Ġwarranty":4900,"(\"\\":4901,"sis":4902,"sim":4903,"Ġequal":4904,"Style":4905,"Pri":4906,"AUTH":4907,"108":4908,"amily":4909,"plain":4910,"II":4911,"middleware":4912,"signal":4913,"Ġmodules":4914,"anti":4915,"Ġdig":4916,"Queue":4917,"Dialog":4918,"005":4919,"Ġparsed":4920,"Reader":4921,"-------":4922,"ĠTO":4923,"Level":4924,"(\"/":4925,"Mac":4926,"(('":4927,"169":4928,"Wrapper":4929,"pb":4930,"Ġoperator":4931,"Ġstdout":4932,"GT":4933,"Ax":4934,"Ġloader":4935,"EE":4936,"Ġhope":4937,"ISO":4938,"wsgi":4939,"_:":4940,"fici":4941,"acy":4942,"]',":4943,"Description":4944,"////////////////":4945,"zure":4946,"Ġremote":4947,"interval":4948,"many":4949,"resources":4950,"istered":4951,"ulation":4952,"Wri":4953,"Ġseconds":4954,"ARK":4955,"Ġcr":4956,"ski":4957,"1633":4958,"ĠCH":4959,"Access":4960,"134":4961,"lazy":4962,"Unicode":4963,"ĠLE":4964,"Met":4965,"Port":4966,"Ġredistribute":4967,"Ġbits":4968,"_%":4969,"ĠCode":4970,"ĉĠĠ":4971,"240":4972,"Ġsignal":4973,"Ġchanges":4974,"ping":4975,"ĠOTH":4976,"quested":4977,"Ġdevice":4978,"Ġconditions":4979,"dim":4980,"157":4981,"oriz":4982,"gy":4983,"ccurs":4984,"outfile":4985,"TYR":4986,"1000":4987,"Rel":4988,"role":4989,"Ġlocale":4990,"Names":4991,"export":4992,"ĠIO":4993,"GC":4994,"Ġchanged":4995,"Ġwrapper":4996,"\"%":4997,"Rou":4998,"mount":4999,"DEBUG":5000,"Reference":5001,"320":5002,"Ġwait":5003,"icrosoft":5004,"WORD":5005,"Ġctx":5006,"jpg":5007,"ĠAp":5008,"Ġnote":5009,"rup":5010,"[^":5011,")).":5012,"ifier":5013,"SGI":5014,"rb":5015,"Ġprimary":5016,"*.":5017,"Ġrequire":5018,"Ġexit":5019,"ARG":5020,"unct":5021,"wiki":5022,"complete":5023,"ĠMulti":5024,"159":5025,"FR":5026,"ntaxError":5027,"ĠSy":5028,"Block":5029,"wallpaper":5030,"993":5031,"122":5032,"2006":5033,"\"].":5034,"()]":5035,"getattr":5036,"RIP":5037,"rev":5038,"slug":5039,"Ġ50":5040,"images":5041,"cel":5042,"Lexer":5043,"locale":5044,"Encoder":5045,"Match":5046,"okia":5047,"106":5048,"CRE":5049,"reader":5050,"events":5051,"ĠWhen":5052,"okies":5053,"ĠColumn":5054,"ITION":5055,"alle":5056,"ulate":5057,"2005":5058,"ftime":5059,"__()":5060,"lg":5061,"868":5062,"dumps":5063,"Ġcodecs":5064,"arge":5065,"Ġrequires":5066,"roke":5067,"uding":5068,"anguage":5069,"ĠNode":5070,"ĠUnicode":5071,"1664":5072,"Ġ29":5073,"STAT":5074,"sur":5075,"143":5076,"gif":5077,"Ġpe":5078,"1767":5079,"Ġcomplete":5080,"pear":5081,"Helper":5082,"internal":5083,"deograph":5084,"Logger":5085,"flat":5086,"'m":5087,"geo":5088,"Ġpermissions":5089,"UI":5090,"Ġcalcul":5091,"Ġvia":5092,"Ġchoices":5093,"ĠMe":5094,"Ġbind":5095,"Rule":5096,"blem":5097,"ĠRa":5098,"Ġig":5099,"seek":5100,"=\"%":5101,"kes":5102,"SELECT":5103,"Ġvalidate":5104,"Ġknow":5105,"043":5106,"Ġtraceback":5107,"policy":5108,"Ġutil":5109,"egin":5110,"ÃĺÂª":5111,"Ġmany":5112,"cluding":5113,"ĠUN":5114,"DS":5115,"007":5116,"Ġwriting":5117,"ital":5118,"659":5119,"Ġ\"--":5120,"ARY":5121,"ORS":5122,"Ġevents":5123,"Ġnotice":5124,"Ġcurrently":5125,"ever":5126,"Lic":5127,"Ġiprot":5128,"Ġ')":5129,"BE":5130,"browser":5131,"Cl":5132,"readonly":5133,"Ġmer":5134,"zen":5135,"ringtone":5136,"alpha":5137,"Ġrest":5138,"found":5139,"IMIT":5140,"ĠUp":5141,"edirect":5142,"nan":5143,"Ġcorrespon":5144,"times":5145,"ird":5146,"Ġnet":5147,"oauth":5148,"meth":5149,"ĠHe":5150,"tio":5151,"Site":5152,"VERSION":5153,"gre":5154,"PE":5155,"Sign":5156,"136":5157,"utor":5158,"327":5159,"Ġautomatic":5160,"remote":5161,"1667":5162,"zero":5163,"ĠUni":5164,"Ġtab":5165,"126":5166,"Ġgl":5167,"added":5168,"+'":5169,"scan":5170,"ĠDI":5171,"Ġput":5172,"Ġ64":5173,"Ġchildren":5174,"Ġrights":5175,"Ġsafe":5176,"009":5177,"pose":5178,"bits":5179,"edia":5180,"Ġ{%":5181,"aris":5182,"inc":5183,"rece":5184,"integer":5185,"gg":5186,"hour":5187,"cessary":5188,"ssl":5189,"transform":5190,"Options":5191,"buck":5192,"Ġinte":5193,"ka":5194,"assword":5195,"bosity":5196,"Ġpatch":5197,"168":5198,"Ġpublic":5199,"Ġnumbers":5200,"generate":5201,"havior":5202,"ĠIndex":5203,"inf":5204,"dom":5205,"sertion":5206,"Ġpickle":5207,"Ġcalls":5208,"API":5209,"trl":5210,"duce":5211,"ĠNumber":5212,"serv":5213,"Ġdecor":5214,"egg":5215,"Proxy":5216,"single":5217,"Cal":5218,"streaming":5219,"templates":5220,"Post":5221,"Ġmime":5222,"pto":5223,"049":5224,"dy":5225,"174":5226,"ĠCF":5227,"olution":5228,"digest":5229,"Ġdeleted":5230,"duc":5231,"Ġlogin":5232,"region":5233,"ĠDi":5234,"Ġbasestring":5235,"ĠMA":5236,"Ġincluded":5237,"Ġoperations":5238,"ĠLicen":5239,"Ġwords":5240,"teral":5241,"Ġetc":5242,"see":5243,"Ġcoordin":5244,"sleep":5245,"Ġlock":5246,"Ġentries":5247,"Ġmedia":5248,"je":5249,"ERT":5250,"ynamic":5251,"ĠWindows":5252,"quiv":5253,"logy":5254,"xad":5255,"tition":5256,"tric":5257,"Database":5258,"Ġdiff":5259,"Ġcharset":5260,"199":5261,"Ġtran":5262,"1655":5263,"ragment":5264,"Serial":5265,"ĠTime":5266,"usage":5267,"ategories":5268,"154":5269,"189":5270,"ToMany":5271,"xfb":5272,"pages":5273,"agraph":5274,"='',":5275,"Ġinsert":5276,"filters":5277,"ĉĠĠĠ":5278,"hn":5279,"207":5280,"Ġpkg":5281,"Ġinit":5282,"234":5283,"Socket":5284,"Ġstored":5285,"License":5286,"655":5287,"Types":5288,"Ġwere":5289,"chemy":5290,"Ġmove":5291,"before":5292,"Range":5293,"\");":5294,"ony":5295,"Ġfeature":5296,"Ab":5297,"strings":5298,"dep":5299,"mu":5300,"iti":5301,"tore":5302,"click":5303,"dst":5304,"itespace":5305,"require":5306,"Ġexpect":5307,"Location":5308,"done":5309,"')(":5310,"Ġ18":5311,"atrix":5312,"Record":5313,"hand":5314,"Ġbot":5315,"final":5316,"Byte":5317,"}.":5318,"Ġhead":5319,"SCS":5320,"PH":5321,"Ġ})":5322,"boo":5323,"+\"":5324,"ĠParameters":5325,"xfc":5326,"Ġinstalled":5327,"164":5328,"Comple":5329,"StringIO":5330,"xed":5331,"Ġplot":5332,"counter":5333,"__\":":5334,"Ġmeans":5335,"serve":5336,"204":5337,"Begin":5338,"Fe":5339,"ones":5340,"unch":5341,"ence":5342,"ARB":5343,"OO":5344,"Ġscheme":5345,"ĠContent":5346,"za":5347,"ffset":5348,"acle":5349,"Ġchars":5350,"ram":5351,"NT":5352,"sin":5353,"ian":5354,"separ":5355,"Ġexpr":5356,"146":5357,"Ġexceptions":5358,"fname":5359,"builtin":5360,"My":5361,"uting":5362,"Ġzero":5363,"008":5364,"arr":5365,"fmt":5366,"napshot":5367,"xfd":5368,"889":5369,"398":5370,"lations":5371,"lon":5372,"1654":5373,"Ġremoved":5374,"abspath":5375,"repo":5376,"AE":5377,"Ġactive":5378,"Ġthose":5379,"ressed":5380,"gan":5381,"expand":5382,"Ġisn":5383,"ln":5384,"875":5385,"acter":5386,"[:,":5387,"VarInt":5388,"TY":5389,"chor":5390,"Ġ'[":5391,",))":5392,"ools":5393,"Ġdistribution":5394,"tty":5395,"Ġrepresentation":5396,"ĠBE":5397,"ĠOther":5398,"suffix":5399,"Ġcompati":5400,"unpack":5401,"Ġmp":5402,"MOD":5403,"writer":5404,"Decimal":5405,"Ġneeds":5406,"deserialize":5407,"184":5408,"xef":5409,"Ġsignature":5410,"mean":5411,"Ġexecute":5412,"gdata":5413,"202":5414,"Build":5415,"Loader":5416,"aged":5417,"Ġbelow":5418,"ited":5419,"Ġmight":5420,"sn":5421,"([])":5422,"Ġsubprocess":5423,")-":5424,"dentials":5425,"getitem":5426,"326":5427,"MD":5428,"Document":5429,"=='":5430,"Ġ?":5431,"term":5432,"ĠLog":5433,"vm":5434,"reshold":5435,"Ġtwisted":5436,"Ġdirectly":5437,"contact":5438,"Email":5439,"156":5440,"Ġtimestamp":5441,"hello":5442,"PBED":5443,"requen":5444,"priate":5445,"Ġextract":5446,"Ġmenu":5447,"HERE":5448,"198":5449,"lour":5450,"235":5451,"197":5452,"ĠKeyword":5453,"Ġuntil":5454,"phy":5455,"ko":5456,"Ġexpi":5457,"cmp":5458,"eries":5459,"384":5460,"Exist":5461,"CONT":5462,"href":5463,"plan":5464,"wi":5465,"Ġscale":5466,",),":5467,"contin":5468,"ffff":5469,"translate":5470,"ĠUP":5471,"]])":5472,"Ġadditional":5473,"Tool":5474,"886":5475,"Ġmanager":5476,"Ġignored":5477,"Ġ23":5478,"tb":5479,"PY":5480,"grade":5481,"145":5482,"pted":5483,"Trace":5484,"185":5485,"Be":5486,"Ġhe":5487,"MAP":5488,"vor":5489,"UTF":5490,"Ġ[('":5491,"Ġglob":5492,"ĠNew":5493,"basic":5494,"Ġrecur":5495,"ilt":5496,"xae":5497,"xdb":5498,"arDown":5499,"Does":5500,"dispatch":5501,"RECT":5502,"days":5503,"Ġmd":5504,"Ġfolder":5505,"DR":5506,"vs":5507,"375":5508,"xcb":5509,"REQU":5510,"ĠReg":5511,"Ġ500":5512,"cfg":5513,"ÃŃ":5514,"what":5515,"Over":5516,"Column":5517,"translation":5518,"history":5519,"Ġmail":5520,"xcf":5521,"nomial":5522,"Ġ'{":5523,"Li":5524,"Ġregex":5525,"[:]":5526,"Ġdouble":5527,"Graph":5528,"setdefault":5529,"Fin":5530,"playback":5531,"ĠLicensed":5532,"006":5533,"|\\":5534,"logging":5535,"Ġcontainer":5536,"ÃĹÂĻ":5537,"expression":5538,"Ġweight":5539,"xeb":5540,"library":5541,"1728":5542,"ĠKIND":5543,"Ġown":5544,"ILLIC":5545,"REEK":5546,"YRILLIC":5547,"2009":5548,"xdf":5549,"lap":5550,"Ġdiv":5551,"647":5552,"handlers":5553,"187":5554,"formed":5555,"AOD":5556,"324":5557,"Failed":5558,"inja":5559,"aterial":5560,"Ġfig":5561,"Dele":5562,"Extension":5563,"UID":5564,"bm":5565,"Ġcommands":5566,"velop":5567,"rong":5568,"jk":5569,"aaaaaaaaaaaaaaaa":5570,"Vector":5571,"visit":5572,"pdf":5573,"Ġacc":5574,"304":5575,"Write":5576,"herit":5577,"ater":5578,"free":5579,"Ġpr":5580,"194":5581,"etail":5582,"charset":5583,"ĠLoc":5584,"Ġreset":5585,"verage":5586,"Ġdistance":5587,"batch":5588,"mbed":5589,"301":5590,"\"/>":5591,"rank":5592,"Ġissue":5593,"Ġremain":5594,"Storage":5595,"ixed":5596,"Ġsomething":5597,"car":5598,"argin":5599,"outh":5600,"ffect":5601,"Ġgeometry":5602,"IGIT":5603,"697":5604,"Title":5605,"called":5606,"Ġapply":5607,"Ġinternal":5608,"Ġcop":5609,"ĠAsync":5610,"Ġ{},":5611,"enabled":5612,"ĠModel":5613,"Ġ'\\\\":5614,"inx":5615,"Ġids":5616,"chema":5617,"Ġexplicit":5618,"Settings":5619,"ICE":5620,"pix":5621,"jug":5622,"ToManyField":5623,"choice":5624,"depth":5625,"lec":5626,"Ġrelease":5627,"ĠAuthor":5628,"Middleware":5629,"Current":5630,"Ġlower":5631,"Ġstill":5632,"138":5633,"xaa":5634,"ĠLIC":5635,"Ġtimes":5636,"\")),":5637,"ĠOTHER":5638,"Ġfalse":5639,"LOG":5640,"Ġperform":5641,"xce":5642,"]):":5643,"Ġlayer":5644,"medi":5645,"unknown":5646,"Ġbl":5647,"neg":5648,"delay":5649,"Direct":5650,"fake":5651,"vari":5652,"gnu":5653,"222":5654,"pn":5655,":])":5656,"OWN":5657,"ational":5658,"Ġglyph":5659,"Ġappropriate":5660,"route":5661,"Mon":5662,"resses":5663,"Ġfactory":5664,"subject":5665,"READ":5666,"exclude":5667,"EB":5668,"Note":5669,"ipe":5670,":\"":5671,"Ġqs":5672,"rm":5673,"Sta":5674,"decimal":5675,"Ġsets":5676,"Ġ#:":5677,"152":5678,"oted":5679,"ĠLICENSE":5680,"Ġthreading":5681,"FY":5682,"Ġconnect":5683,"Cre":5684,"Ġgrid":5685,"Can":5686,"252":5687,"high":5688,"sifi":5689,"Fail":5690,"Ġdecimal":5691,"Ġus":5692,"units":5693,"666":5694,"DD":5695,"reed":5696,"Ġworks":5697,"298":5698,"tar":5699,"357":5700,"'>":5701,"Ġauthentication":5702,"vely":5703,"Ġord":5704,"Ġdelta":5705,"iod":5706,"Ġplatform":5707,"Descript":5708,"Ġenable":5709,"rays":5710,"Order":5711,"BR":5712,"ficient":5713,"34567":5714,"pu":5715,"/\"":5716,"assign":5717,"running":5718,"Web":5719,"Ġmatching":5720,"Redirect":5721,"ĠCommand":5722,"tected":5723,"services":5724,"ĠSpec":5725,"zA":5726,"209":5727,"gether":5728,"Ġwell":5729,"aving":5730,"ĠTrans":5731,"transaction":5732,"Ġleast":5733,"timeError":5734,"xaf":5735,")')":5736,"Ġregion":5737,"')},":5738,"EP":5739,"Ġalign":5740,"cen":5741,"HBC":5742,"itter":5743,"subscriptionId":5744,"xture":5745,"133":5746,"Ġda":5747,"xec":5748,"patterns":5749,"paces":5750,"Ġ])":5751,"derer":5752,"]],":5753,"010":5754,"Ġnecessary":5755,"isinstance":5756,"AttributeValue":5757,"609":5758,"344":5759,"ĠAC":5760,"Ġdefinition":5761,"revision":5762,"ĠThese":5763,"Ġassign":5764,"Uni":5765,"summary":5766,"ĠOut":5767,"205":5768,"Mark":5769,"Bad":5770,"tod":5771,"))))":5772,"Host":5773,"controller":5774,"tn":5775,"Ġterm":5776,"xab":5777,"Ġcy":5778,"ech":5779,"ifies":5780,"Ġgoogle":5781,"Ġbest":5782,"Script":5783,"ĠMeta":5784,"CR":5785,"wrapper":5786,"Ġ\"\",":5787,"554":5788,"Ġshell":5789,"original":5790,"ĠIMP":5791,"Operations":5792,"Ġboolean":5793,"appen":5794,"ĠLEFT":5795,"Route":5796,"ĠGeo":5797,"liance":5798,"Ġ))":5799,"CHE":5800,"Ġplt":5801,"Ġtake":5802,"Ġside":5803,"ev":5804,"signature":5805,"Rece":5806,"Ġfi":5807,"Ġtesting":5808,"rpc":5809,"Ġreserved":5810,"MID":5811,"blob":5812,"orary":5813,"Ġcopyright":5814,"195":5815,":',":5816,"iver":5817,"Writer":5818,"iling":5819,"CLUD":5820,"ĠImp":5821,"Ġvolume":5822,"CLUDING":5823,"rency":5824,"Ġmac":5825,"PFN":5826,"Ġcorresponding":5827,"yy":5828,"TABLE":5829,"Work":5830,"898":5831,"scheme":5832,"ĠVariable":5833,"rf":5834,"ii":5835,"Call":5836,"Ġidentifier":5837,"162":5838,"Row":5839,"jugate":5840,"uest":5841,"yes":5842,"ĠInter":5843,"Ġcases":5844,"xhtml":5845,"acing":5846,"(\"\"\"":5847,"brary":5848,"previous":5849,"208":5850,"ECT":5851,"ĠBu":5852,"Ġstatement":5853,"ĠElement":5854,"extensions":5855,"Num":5856,"LICENSE":5857,"ĠCYRILLIC":5858,"ĠFO":5859,"657":5860,"ROP":5861,"Ġbug":5862,"wo":5863,"254":5864,"203":5865,"alloc":5866,"183":5867,"Ġsuffix":5868,"Ġtz":5869,"area":5870,"reason":5871,"ordering":5872,"ROL":5873,"ĠDB":5874,"859":5875,"Descriptor":5876,"Cho":5877,"decor":5878,"bases":5879,"Attr":5880,"Ġflat":5881,"Ġlists":5882,"available":5883,"NotExist":5884,"sic":5885,"Ez":5886,"alect":5887,"Ġdimension":5888,"We":5889,"153":5890,"vals":5891,"NAMESPACE":5892,"Ġcap":5893,"Ġdid":5894,"Ali":5895,"Channel":5896,"sha":5897,"Import":5898,"assertIs":5899,"Unit":5900,"arm":5901,"SCRIP":5902,"ĠComment":5903,"[(":5904,"tick":5905,"nokia":5906,"ĠRec":5907,"xxxx":5908,"FromString":5909,"OLD":5910,"tification":5911,"ĠOGR":5912,"Ġsyntax":5913,"Empty":5914,"INPUT":5915,"Url":5916,"upload":5917,"pas":5918,"148":5919,"888":5920,"Ġquote":5921,"pair":5922,"675":5923,"Print":5924,"readline":5925,"ÂªÃł":5926,"xfa":5927,"extract":5928,"oph":5929,"attach":5930,"orn":5931,"Ġfetch":5932,"Ġappear":5933,"contains":5934,"Ġrate":5935,"Ġtyp":5936,"correct":5937,"rea":5938,"019":5939,"ĠPost":5940,"SV":5941,"Ġexport":5942,"Ġ()":5943,"Ġprop":5944,"Err":5945,"FIX":5946,"pendencies":5947,"digits":5948,"SR":5949,"missing":5950,"met":5951,"Ġdownload":5952,")?":5953,"ĠMo":5954,"]=":5955,"canvas":5956,"Copy":5957,"Sup":5958,"Ġassume":5959,"ÃĹÂķ":5960,"bucket":5961,")'),":5962,"Ġ''.":5963,"Pos":5964,"kb":5965,"backends":5966,"tf":5967,"compiler":5968,"Ġensure":5969,"PROC":5970,"CTYPE":5971,"oom":5972,"Geometry":5973,"Authentication":5974,"053":5975,"ilar":5976,"MI":5977,"basename":5978,"Bytes":5979,"numpy":5980,"hidden":5981,"ĀĀĀĀĀĀĀĀĀĀĀĀĀĀĀĀĀĀĀĀĀĀĀĀĀĀĀĀĀĀĀĀĀĀĀĀĀĀĀĀĀĀĀĀĀĀĀĀĀĀĀĀĀĀĀĀĀĀĀĀĀĀĀĀ":5982,"proc":5983,"1111":5984,"ĠRIGHT":5985,"Ġexclude":5986,"ĠIOError":5987,"selection":5988,"DoesNotExist":5989,"Ġonce":5990,"cho":5991,";\":":5992,"229":5993,"big":5994,"Ġparsing":5995,"Ġes":5996,"irtual":5997,"Ġtakes":5998,"vector":5999,"ÃİÂµ":6000,"ender":6001,"Exec":6002,"308":6003,"Ġtables":6004,"ĠDis":6005,"GLU":6006,"xcd":6007,"sired":6008,"otes":6009,"ĠApache":6010,"ĠProtocol":6011,"333":6012,"Ġverify":6013,"lert":6014,"sist":6015,"une":6016,"Ġavoid":6017,"tives":6018,"Ġelem":6019,"zilla":6020,"ĠMan":6021,"Sum":6022,"undle":6023,"#------------------------------------------------------------------------":6024,"607":6025,"vironment":6026,"ĠSimple":6027,"Ġrepresenting":6028,"NetDevice":6029,"']),":6030,"ABIC":6031,"bum":6032,">')":6033,"payload":6034,"SSL":6035,")**":6036,"registry":6037,"Top":6038,"conjugate":6039,"Ġmemory":6040,"dl":6041,"Ġderi":6042,"Ġlabels":6043,"aj":6044,"ĠMessage":6045,"Ġsig":6046,"redic":6047,"mem":6048,"Msg":6049,"deli":6050,"Ġfilters":6051,"MBJ":6052,"249":6053,"Ġapplicable":6054,"Ġdescri":6055,"ĠDate":6056,"chain":6057,"Ġactually":6058,"IVE":6059,"orizont":6060,"allen":6061,"ManyToManyField":6062,"ocus":6063,"Ġexpress":6064,"+=":6065,"xdd":6066,"015":6067,"Ġattemp":6068,"xac":6069,"plugins":6070,"Ġdst":6071,"(?:":6072,"ĠCONT":6073,"Ġ------------------------------------------------------------------------":6074,"UND":6075,"UC":6076,"ĠDIGIT":6077,"deleted":6078,"Ġlon":6079,"Ġpixel":6080,"IV":6081,"FE":6082,"649":6083,"ĠUSE":6084,"Br":6085,"organ":6086,"PT":6087,"ĠValidationError":6088,"Ġim":6089,"Inst":6090,"Ġduring":6091,"vartype":6092,"rol":6093,"validation":6094,"xee":6095,"ollow":6096,"ulated":6097,"854":6098,"compute":6099,"transport":6100,"xde":6101,"tl":6102,"Ġdefine":6103,"ĠGREEK":6104,"/')":6105,"slice":6106,"oll":6107,"Ġ1000":6108,"DEF":6109,"227":6110,"Ġneg":6111,"Ġtermin":6112,"Ġautomatically":6113,"tivity":6114,"Occurs":6115,"bed":6116,"Ġhelper":6117,"'<":6118,"Ġ22":6119,"ros":6120,"Mask":6121,"rp":6122,"vie":6123,"nick":6124,"257":6125,"1759":6126,"Ġprivate":6127,"Bin":6128,"([\"":6129,"Ġgroups":6130,",\\":6131,"121":6132,".'),":6133,"337":6134,"Ġappend":6135,"158":6136,"\"\"\")":6137,"specific":6138,"Ġdatastore":6139,"Ġscan":6140,"xdc":6141,"ĠĠĠĠĠĠĠĠĠĠĠĠĠĠĠĠĠĠĠĠĠĊ":6142,"apache":6143,"Parameters":6144,"xda":6145,"Stack":6146,"Remove":6147,"CESS":6148,"Ã¯":6149,"git":6150,"2008":6151,"strftime":6152,"Ġprev":6153,"Ġrequested":6154,"Nodes":6155,"Collection":6156,"Axis":6157,"generator":6158,"2007":6159,"direction":6160,"Ġtool":6161,"fri":6162,"305":6163,"186":6164,"HOST":6165,"reet":6166,"ied":6167,"duration":6168,"commands":6169,"556":6170,"Â¥Âį":6171,"ye":6172,"ync":6173,"259":6174,"('--":6175,"Ġwritten":6176,"Component":6177,"zeug":6178,"MODE":6179,"verify":6180,"Ġdoctest":6181,"('.":6182,"PBE":6183,"fff":6184,"resourceGroupName":6185,"Hello":6186,"277":6187,"erry":6188,"Func":6189,"mbols":6190,"ORIZ":6191,"ROOT":6192,"six":6193,"Ġtransform":6194,"325":6195,"Ġcomments":6196,"scal":6197,"############################################################################":6198,"symbol":6199,"Initial":6200,"PFNGL":6201,"Ġrelation":6202,"Av":6203,"alth":6204,"ferences":6205,"AGES":6206,"CONF":6207,"listen":6208,"206":6209,"rozen":6210,"AAAAAAAA":6211,"which":6212,"staticmethod":6213,"detail":6214,"xea":6215,"196":6216,"Ġalpha":6217,"679":6218,"srid":6219,"orizontal":6220,"Ġmaximum":6221,"Â¸ÂĻ":6222,"appengine":6223,"closed":6224,"Ġmean":6225,"Ġitself":6226,"mob":6227,"Â¤Â°":6228,"182":6229,"driver":6230,"Ġ###":6231,"ysis":6232,"ĠQuery":6233,"Author":6234,"Ġyet":6235,"kzeug":6236,"Ġ34":6237,"LETE":6238,"xcc":6239,"Ġcommit":6240,"ĠRed":6241,"Ġstderr":6242,"week":6243,"plotlib":6244,"Sequence":6245,"644":6246,"Ġplay":6247,"subclass":6248,"pag":6249,"897":6250,"ĠCustom":6251,"firm":6252,"374":6253,"Values":6254,"WR":6255,"VID":6256,"testing":6257,"Ġ80":6258,"enable":6259,"014":6260,"244":6261,"ands":6262,"Ãª":6263,"Ġdot":6264,"Ġpool":6265,"Ġ'*":6266,"Mu":6267,"Ġplayer":6268,"===":6269,"Ġcat":6270,"management":6271,"011":6272,"ĠURI":6273,"ĠCont":6274,"ĠOper":6275,"')]":6276,"Comment":6277,"339":6278,"1781":6279,"duction":6280,"ana":6281,"chars":6282,"forum":6283,"complexconjugate":6284,"uplicate":6285,"ĠĠĠĠĠĠĠĠĠĠĠĠĠĠĠĠĠĠĠĠĠĠĊ":6286,"rn":6287,"rd":6288,"pad":6289,"Ġpayload":6290,"avas":6291,"inner":6292,"1765":6293,"074":6294,"ATED":6295,"rules":6296,"lict":6297,"Ġstats":6298,"Ġincluding":6299,"Ġdump":6300,"Ġgover":6301,"ĠInvalid":6302,"Ġimg":6303,"397":6304,"alysis":6305,"Next":6306,"ĠGeometry":6307,"arison":6308,"Ġcla":6309,"Ġpackages":6310,"Ġfailure":6311,"Ġevalu":6312,"890":6313,"periment":6314,"Rect":6315,"ĠDatabase":6316,"exist":6317,"Ġprec":6318,"Ġ404":6319,"263":6320,"(\"-":6321,"Ġ'$":6322,"302":6323,"Ġrules":6324,"inline":6325,"Ġ2006":6326,"Ġ\"$":6327,"sites":6328,"Ġcompile":6329,"Ġdisable":6330,"Product":6331,"ĠTag":6332,"Ġpartic":6333,"(''":6334,"holder":6335,"LIED":6336,"encoded":6337,"csv":6338,"ACTER":6339,"avascript":6340,"Ġ2010":6341,"Height":6342,"190":6343,"ĠAS":6344,"044":6345,"Ġgame":6346,"Ġ26":6347,"Ġsur":6348,"ĠWSGI":6349,"article":6350,"Ġslice":6351,"247":6352,"CUM":6353,"stit":6354,"Ġextensions":6355,"polling":6356,"parameter":6357,"blue":6358,"878":6359,"Target":6360,"zeros":6361,"logo":6362,"Ġversions":6363,"shell":6364,"Elements":6365,"216":6366,"Accept":6367,"Mock":6368,"security":6369,"ĠEV":6370,"reduce":6371,"por":6372,"izard":6373,"Ġimages":6374,"Password":6375,"Ġgenerator":6376,"349":6377,"Category":6378,"ĠGroup":6379,"193":6380,"des":6381,"(',":6382,"TRIB":6383,"alchemy":6384,"Ġcalling":6385,"Ġpygame":6386,"rations":6387,"HEAD":6388,"Ġali":6389,"Ġbehavior":6390,"Op":6391,"ny":6392,"Ġsaved":6393,"Rate":6394,"997":6395,"141":6396,"Ġci":6397,"series":6398,"CAL":6399,"lc":6400,"Ġstat":6401,"ĠDEFAULT":6402,"gree":6403,"841":6404,"Ġxmlns":6405,"Ġscreen":6406,"ĠSystem":6407,"bal":6408,"LT":6409,"override":6410,"Ġstructure":6411,"relation":6412,"245":6413,"two":6414,"849":6415,"bg":6416,"clone":6417,"oller":6418,"Ġround":6419,"SY":6420,"Attributes":6421,"amr":6422,"895":6423,"identifier":6424,"Tran":6425,"environment":6426,"ĠLIMIT":6427,"Ġpairs":6428,"ĠExp":6429,"379":6430,"Ġmodified":6431,"mut":6432,"Ġexact":6433,"654":6434,"Ġ'+":6435,"Results":6436,"Ġ31":6437,"ĠEND":6438,"idual":6439,"Fa":6440,"Loop":6441,"bottom":6442,"RefCount":6443,"ĠOUT":6444,"ĠThere":6445,"Unknown":6446,"issue":6447,"tile":6448,"Ġ//":6449,"Local":6450,"named":6451,"GRO":6452,"Ġpair":6453,"POINT":6454,"andid":6455,"Ġbasic":6456,"ourse":6457,"Ġ----------":6458,"Ġregistered":6459,"ĠTType":6460,"Ġglyphs":6461,"qs":6462,"Ġprovides":6463,"asure":6464,"Sc":6465,"359":6466,"requency":6467,"Ġconstants":6468,"ucket":6469,"Ġcompliance":6470,"Draw":6471,"Ġhappen":6472,"ĠConfiguration":6473,"YY":6474,"Ġalgorithm":6475,"functions":6476,"DITION":6477,"NUM":6478,">%":6479,"loor":6480,"Ġ35":6481,"ĠĠĠĠĠĠĠĠĠĠĠĠĠĠĠĠĠĠĠĠĠĠĠĊ":6482,"Ġconstruct":6483,"ĠWHERE":6484,":\",":6485,"wkt":6486,"ĠForm":6487,"')[":6488,"Store":6489,"ĠLine":6490,"LIST":6491,"visible":6492,"Ġdeprecated":6493,"dn":6494,"Ġlayout":6495,"xca":6496,"GI":6497,"Ġok":6498,"(\"<":6499,"7701":6500,"SimpleRefCount":6501,"Ġbatch":6502,"Main":6503,"264":6504,"features":6505,"GA":6506,"Ġlinks":6507,"teri":6508,"Ġvideo":6509,"ysql":6510,"lso":6511,"Ġfr":6512,"Ġsuccessful":6513,"Ġdirection":6514,"Ġ'\"":6515,"297":6516,"iteral":6517,"calar":6518,"slot":6519,"reply":6520,"Ġlimitations":6521,"279":6522,"chron":6523,"ov":6524,"(':":6525,"Only":6526,"symme":6527,"Ġicon":6528,"Ġknown":6529,"Ġqueryset":6530,"Wifi":6531,"apply":6532,"alf":6533,"016":6534,"ULE":6535,"phone":6536,"Ġiterator":6537,"mor":6538,"=',":6539,"ÂģÂ®":6540,"Conn":6541,"188":6542,"ĠIMPLIED":6543,"Constraint":6544,"sect":6545,"clar":6546,"period":6547,"peat":6548,"Ġ2011":6549,"605":6550,"cert":6551,"ĠTable":6552,"Ġ28":6553,"tables":6554,"Ġtempfile":6555,"copyright":6556,"Ġsupp":6557,"Ġendpoint":6558,"Cookie":6559,":-":6560,"Ġaround":6561,"674":6562,"Ġ36":6563,"347":6564,"Ġstrip":6565,"tries":6566,"809":6567,"062":6568,"_*":6569,"boolean":6570,"1729":6571,"Ġpages":6572,"striction":6573,"Ġprobab":6574,"projects":6575,"dx":6576,"norm":6577,"schedule":6578,"Bz":6579,"uses":6580,"Ġpatterns":6581,"lev":6582,"Ġtar":6583,"Ġconnections":6584,"Entity":6585,"ĠON":6586,"border":6587,"ah":6588,"ĠIni":6589,"POINTER":6590,"Ġrole":6591,"VAR":6592,"identity":6593,"Sm":6594,"maps":6595,"ĠQU":6596,"mobile":6597,"ĠUpdate":6598,"jor":6599,"Ġev":6600,"utc":6601,"Ġlang":6602,"Load":6603,"PU":6604,"Ġsmart":6605,"Ġseen":6606,"Ġoccur":6607,"COM":6608,"xE":6609,"677":6610,"Random":6611,"232":6612,"239":6613,"Ġdat":6614,"sical":6615,"Ġtuples":6616,"ithub":6617,"'ll":6618,"Ġraises":6619,"AV":6620,"------":6621,"cached":6622,"Foo":6623,"FloatField":6624,"Ġoauth":6625,"consumer":6626,"TF":6627,"Ġ_(":6628,"SyntaxError":6629,"Operation":6630,"Ġinspect":6631,"REQUEST":6632,"Ġjo":6633,"Ġengine":6634,"Ġrecent":6635,"Ġcached":6636,"041":6637,"pecode":6638,"039":6639,"228":6640,"Ġextend":6641,"303":6642,"sapt":6643,"334":6644,"SITE":6645,"Ġ27":6646,"saptone":6647,"Ġstar":6648,"Encoding":6649,"887":6650,"constants":6651,"getvalue":6652,"Atom":6653,"progress":6654,"lies":6655,"ĠBAS":6656,"dence":6657,"275":6658,"ĠLO":6659,"lace":6660,"214":6661,"294":6662,"roid":6663,"879":6664,"ru":6665,"chan":6666,"ĠĠĠĠĠĠĠĠĠĠĠĠĠĠĠĠĠĠĠĠĠĠĠĠĊ":6667,"Ġiterable":6668,"ĠtearDown":6669,"dimension":6670,"ĠFOUR":6671,"Ġunits":6672,"Positive":6673,"=\\\"":6674,"references":6675,"ĠDAT":6676,"Del":6677,"expect":6678,"otor":6679,"013":6680,"Ġsymbol":6681,"ffi":6682,"ISE":6683,"amma":6684,"etri":6685,"quare":6686,"uess":6687,"Ġpur":6688,"builder":6689,"may":6690,"feature":6691,"Children":6692,"ĠInteger":6693,"181":6694,"Ġgoverning":6695,"Ġtb":6696,"special":6697,"226":6698,"ELD":6699,"Configured":6700,"udio":6701,"131":6702,"ĠParse":6703,"',),":6704,"isten":6705,"Ġexpand":6706,"Regex":6707,"Cons":6708,"BACK":6709,"Ġborder":6710,"Flag":6711,"Ġcomplex":6712,"Ãĸ":6713,":`~":6714,"=\"\"":6715,"Ġallows":6716,"Ġpick":6717,"Ġmaster":6718,"ĠNULL":6719,"Ġlin":6720,"WAR":6721,"ORY":6722,"gmail":6723,"Ġupload":6724,"ĠPoint":6725,"ÂĤ\",":6726,"localhost":6727,"black":6728,"Ġ(_":6729,"Ġorigin":6730,"Ġbackground":6731,"Ġmerge":6732,"Ġlaw":6733,"ĠObject":6734,"ately":6735,"PD":6736,"acity":6737,"([[":6738,"Properties":6739,"Tri":6740,"restype":6741,"ĠRuntimeError":6742,"Bind":6743,"monoph":6744,"EM":6745,"********************************":6746,"1637":6747,"monophonic":6748,"Ġvirtual":6749,"Ġ38":6750,"ĠSpa":6751,"aller":6752,"bre":6753,"quences":6754,"ÃĹÂĶ":6755,"under":6756,"Args":6757,"isdir":6758,"sol":6759,"roperly":6760,"memory":6761,"512":6762,"constraint":6763,"failure":6764,"baz":6765,"Ġblob":6766,"ICES":6767,"afe":6768,"Ġfilenames":6769,"Ġ'&":6770,"Ġmag":6771,"come":6772,"Configuration":6773,"Xml":6774,"sym":6775,"resolve":6776,"TAG":6777,"Impl":6778,"coords":6779,"ĠAUTH":6780,"Root":6781,"Ġnothing":6782,"Offset":6783,"Ġtmpl":6784,"?\\":6785,"ĠUnless":6786,"Ġrect":6787,"354":6788,"Ġvector":6789,"ORIZONT":6790,"prog":6791,"Last":6792,"vol":6793,"Enter":6794,"Ġstarting":6795,"Ġshutil":6796,"\"]:":6797,"cesses":6798,"Ġproto":6799,"Ġfake":6800,"fast":6801,"377":6802,"Ġtemplates":6803,"alent":6804,"Person":6805,"ORIZONTAL":6806,"glob":6807,"Ġactions":6808,"1024":6809,"bff":6810,"disk":6811,"Ġagainst":6812,"TRP":6813,"151":6814,"Ġaddr":6815,"Article":6816,"sender":6817,"Deleter":6818,"'+":6819,"relative":6820,"background":6821,"Parameter":6822,"ĠMARK":6823,"Ġcolors":6824,"047":6825,"mapper":6826,"Ġinitialized":6827,"izes":6828,"plus":6829,"Ġinside":6830,"tit":6831,"6666":6832,"885":6833,"Ġagreed":6834,"Go":6835,"Ġfd":6836,"ifest":6837,"LED":6838,"assertNot":6839,"FLAGS":6840,"exact":6841,"ĠSite":6842,"Ġshared":6843,"Ġgeom":6844,"places":6845,"pendent":6846,"ĠACUTE":6847,"045":6848,"ĠMark":6849,"permissions":6850,"istribution":6851,"mous":6852,"Ġasync":6853,"DITIONS":6854,"erge":6855,"ality":6856,"608":6857,"Ġviews":6858,"Ġmade":6859,"Ġimplemented":6860,"223":6861,"WN":6862,"xB":6863,"('_":6864,"argtypes":6865,"First":6866,"894":6867,"Ġvars":6868,"Ġreader":6869,"mime":6870,"ĠÃĳ":6871,"urity":6872,"274":6873,"\"})":6874,"Ġselection":6875,"lists":6876,"while":6877,"[\\":6878,"ĠCONDITIONS":6879,"xC":6880,")\")":6881,"Ġmapper":6882,"merge":6883,"Ġcontact":6884,"Ġregular":6885,"lavor":6886,"ĠDAM":6887,"../":6888,"shift":6889,"roperlyConfigured":6890,"Bit":6891,"pendency":6892,"configuration":6893,"ula":6894,"calendar":6895,"ĠBASIS":6896,"warnings":6897,"acc":6898,"Metadata":6899,"Ġest":6900,"225":6901,"Ġdescriptor":6902,"readsheet":6903,"Ġowner":6904,"SCRIPT":6905,":`.":6906,"SSION":6907,"details":6908,"markup":6909,"cff":6910,"ĠBUT":6911,"Ġdistutils":6912,"xA":6913,"ĠInitial":6914,"country":6915,"based":6916,"Ġhour":6917,"cmath":6918,"ircle":6919,"Ġclosed":6920,"gtk":6921,"(_(\"":6922,"adio":6923,"555":6924,"ipient":6925,"family":6926,"trical":6927,"ibility":6928,"Mis":6929,"scape":6930,"Ġio":6931,"ĠARABIC":6932,"296":6933,"Files":6934,"requires":6935,"Program":6936,"233":6937,"ĠItem":6938,"cleaned":6939,"MBER":6940,"FD":6941,"...)":6942,"endpoint":6943,"ban":6944,"Ġmarker":6945,"844":6946,"Ġchain":6947,"805":6948,"Ġsimp":6949,"Generator":6950,"stdin":6951,"Testing":6952,"nr":6953,"ĠCO":6954,"676":6955,"green":6956,"559":6957,"Ġnorm":6958,"CM":6959,"notify":6960,"Ġdisk":6961,"306":6962,"`:":6963,"Inte":6964,"Ġrout":6965,"]\\":6966,"cluster":6967,"ĠProfile":6968,"840":6969,"Ġlex":6970,"async":6971,"cod":6972,"lected":6973,"Layer":6974,"xs":6975,"Ġhex":6976,"configure":6977,"CHO":6978,"external":6979,"Handle":6980,"ĠBo":6981,"Show":6982,"048":6983,"munic":6984,"ĠOtherwise":6985,"ĠCONTROL":6986,"condition":6987,"Ġcompute":6988,"299":6989,"cms":6990,"Ġconsumer":6991,"Ġimported":6992,"694":6993,"Debug":6994,"nail":6995,"gc":6996,"ĠOutput":6997,"]'":6998,"ideo":6999,"Ġaut":7000,"ism":7001,"precation":7002,"Word":7003,"tid":7004,"quivalent":7005,"323":7006,"RED":7007,"factor":7008,"proj":7009,"Ġpie":7010,"ĠTe":7011,"Cannot":7012,"Ġenabled":7013,"Ġfit":7014,"ESIS":7015,"AMPLE":7016,"preferred":7017,"Ġcombin":7018,"CLASS":7019,"putVarInt":7020,"52545":7021,"tc":7022,"Stop":7023,"pure":7024,"Ġssl":7025,"URI":7026,"Ġ####":7027,"rum":7028,"Uti":7029,"states":7030,"ĠCOP":7031,"Ġdesired":7032,"Poly":7033,"Ġcounter":7034,"rst":7035,"023":7036,"more":7037,"Lookup":7038,"NGTH":7039,"Ġloaded":7040,"603":7041,"rypto":7042,"Ġhandling":7043,"drop":7044,"freq":7045,"Ġ\"+":7046,"FORMATS":7047,"874":7048,"allowed":7049,"hd":7050,"328":7051,"']))":7052,"Ġ._":7053,"046":7054,"Ġrep":7055,"onymous":7056,"ĠArg":7057,"ĠOnly":7058,"riteri":7059,"tenant":7060,"Defin":7061,"Ġ21":7062,"XXXX":7063,"BP":7064,"epcopy":7065,"utdown":7066,"Lock":7067,"Builder":7068,"geos":7069,"ETIME":7070,"ctypes":7071,"Ġsupports":7072,"ĠSome":7073,"237":7074,"rv":7075,"Ġugettext":7076,"Directory":7077,"SERVER":7078,"ĠIndexError":7079,"Ġsock":7080,"Ġgood":7081,"ĠTry":7082,"Ġextr":7083,"ĠTestCase":7084,"Cer":7085,"aps":7086,"uda":7087,"Runner":7088,"when":7089,"PROTO":7090,"ĠSP":7091,"LENGTH":7092,"meri":7093,"695":7094,"PARATOR":7095,"umbnail":7096,"NING":7097,"1632":7098,"Ġslot":7099,"pick":7100,"Indent":7101,"Ġast":7102,"formats":7103,"Space":7104,"attrib":7105,"but":7106,"ording":7107,"gri":7108,"getLogger":7109,"INGLE":7110,"Ġgettext":7111,"645":7112,"ufe":7113,"should":7114,"cremental":7115,"Ġhook":7116,"Ġanything":7117,"\"',":7118,"topic":7119,"siz":7120,")}":7121,"Ġrot":7122,"Member":7123,"tices":7124,"dff":7125,"amsung":7126,"panel":7127,"Ġconstant":7128,"returns":7129,"1660":7130,"295":7131,"033":7132,"Ġklass":7133,"Parent":7134,"Ġglobals":7135,"ges":7136,"extr":7137,"Use":7138,"rowse":7139,"ĠEvent":7140,"777":7141,"1234":7142,"017":7143,"Non":7144,"176309":7145,"LYPD":7146,"ople":7147,"notes":7148,"radius":7149,"qname":7150,"sorted":7151,"288":7152,"Ġurlparse":7153,"ĠTHIS":7154,"[\"_":7155,">,":7156,"%%":7157,"pname":7158,"boot":7159,"gui":7160,"absolute":7161,"Ġdf":7162,"Ġtt":7163,"statement":7164,"ighb":7165,"MAT":7166,"Send":7167,"Ġdestination":7168,"Ġprogress":7169,"Ġrepo":7170,"servers":7171,"apro":7172,"Project":7173,"ĠSp":7174,"IPE":7175,"king":7176,"HttpResponse":7177,"Ġdispatch":7178,"998":7179,"AK":7180,"'(":7181,"Ġsol":7182,"prev":7183,"212":7184,"ĠLIMITED":7185,"606":7186,"ĠCan":7187,"Exists":7188,"codecs":7189,"ming":7190,"Ġbook":7191,"ticket":7192,"248":7193,"HOD":7194,"ada":7195,"640":7196,"PLYPD":7197,"lime":7198,"Ġ2009":7199,"LANG":7200,"Ġinterpre":7201,"MPTY":7202,"kill":7203,"Ġproblem":7204,"ĠChar":7205,"Track":7206,"<<":7207,"Ġcause":7208,"Vis":7209,"aci":7210,"lide":7211,"850":7212,"compati":7213,"Ġhistory":7214,"346":7215,"177730":7216,"656":7217,"([(":7218,"Ġwarning":7219,"557":7220,"got":7221,"rupt":7222,"ives":7223,"compress":7224,"Reco":7225,"ducer":7226,"ĠRFC":7227,"394":7228,"Ġbuilt":7229,"urllib":7230,"Ġnever":7231,"Ġdigits":7232,"ography":7233,"Failure":7234,"traceback":7235,"shared":7236,"portal":7237,"\\.":7238,"1663":7239,"Â°\",":7240,"It":7241,"Ġfixed":7242,"219":7243,"Ġmarkup":7244,"Ġ00":7245,"Ġconverted":7246,"ĠLes":7247,"BASE":7248,"350":7249,"ĠLi":7250,"raft":7251,"conver":7252,"bro":7253,"reater":7254,"hostname":7255,"kel":7256,"igrations":7257,"Ġinner":7258,"Ġordering":7259,"Ġaliases":7260,"ked":7261,"destroy":7262,"ANCE":7263,"Icon":7264,"etails":7265,"Matrix":7266,"Prop":7267,"161":7268,"PRESS":7269,"Ġvalidation":7270,"{\"":7271,"beta":7272,"Ġfname":7273,"presen":7274,"Ġrecords":7275,"363":7276,"tor":7277,"Ġparticular":7278,"follow":7279,"Permission":7280,"indices":7281,"ĠAlso":7282,"876":7283,"Ġ^":7284,"emit":7285,"UES":7286,"Ġexamples":7287,"802":7288,"246":7289,"Tra":7290,"Ġbuiltin":7291,"1783":7292,"numeric":7293,"LOW":7294,"994":7295,"1784":7296,"ĠFunction":7297,"();":7298,"ĠVERT":7299,"uit":7300,"Ġdepth":7301,"ceed":7302,"335":7303,"wrapped":7304,"Selection":7305,"Ġhttps":7306,"aliases":7307,"yaml":7308,"ĠGEOS":7309,"ĠImproperlyConfigured":7310,"erkzeug":7311,"Ġconstraint":7312,"449":7313,"aclass":7314,"Ġdecorator":7315,"recur":7316,"ĠVERTICAL":7317,"2000":7318,"?',":7319,"ĠPre":7320,"Ġdialog":7321,"Ġturn":7322,"ĠRead":7323,"Body":7324,"ĠLe":7325,"Backend":7326,"axes":7327,"kos":7328,"ĠWeb":7329,"Ġcompatibility":7330,"VALID":7331,"826":7332,"ĠGeneric":7333,"2020":7334,"Ġfeatures":7335,"Temp":7336,"018":7337,"995":7338,"696":7339,"ĠCHAR":7340,"lid":7341,"Ġsecurity":7342,"ĠOSError":7343,"ota":7344,"Ġ\")":7345,"Ca":7346,"marker":7347,"Ġdetermine":7348,"addCallback":7349,"Ġtimedelta":7350,"KT":7351,"Schema":7352,"ÃĤ":7353,"842":7354,"nor":7355,"uab":7356,"executable":7357,"DA":7358,"SUB":7359,"MULT":7360,"Media":7361,"Codec":7362,"ario":7363,"price":7364,"AttributeChecker":7365,"need":7366,"Job":7367,"648":7368,"166512":7369,"rig":7370,"258":7371,"escaped":7372,"vance":7373,"Ġcompiler":7374,"WS":7375,"ĠLesser":7376,"dataresource":7377,"UNCTYPE":7378,"Ġpref":7379,"crypt":7380,"oot":7381,"221":7382,"vid":7383,"adwords":7384,"Close":7385,"dataset":7386,"echo":7387,"rypt":7388,"eng":7389,"assertIn":7390,"Ġscore":7391,"ĠOAuth":7392,"ICATION":7393,"ASP":7394,"Cell":7395,"Ġupper":7396,"ĠFind":7397,"program":7398,"JSON":7399,"'\\\\":7400,"Ġworld":7401,"branch":7402,"Ġ33":7403,"Ġblocks":7404,"DIRECT":7405,"}\\":7406,"Ġrank":7407,"exe":7408,"&#":7409,"Ġ77":7410,"ĠWH":7411,"dummy":7412,"Ġcollections":7413,"bmp":7414,"678":7415,"Ext":7416,"CAC":7417,"213":7418,"Microsoft":7419,"matches":7420,"operation":7421,"Ġrc":7422,"ĠLOG":7423,"217":7424,"Account":7425,"NONE":7426,"Ġreactor":7427,"GIN":7428,"Ġtranslation":7429,"ĠIs":7430,"vec":7431,"Ġreferences":7432,"Ġgra":7433,"378":7434,"keywords":7435,"ĠMock":7436,"Ġ'.'":7437,"train":7438,"ĠCal":7439,"896":7440,"('.')":7441,"origin":7442,"LYS":7443,"Ġperiod":7444,"Ġcenter":7445,"cwd":7446,"diffe":7447,"658":7448,"APP":7449,"278":7450,"stub":7451,"posed":7452,"ulator":7453,"Ġlow":7454,"avi":7455,"RGB":7456,"ĠDon":7457,"Ġmem":7458,"lv":7459,"edu":7460,"Ġstuff":7461,"ĠStop":7462,"Ġ2008":7463,"sib":7464,"803":7465,"395":7466,"Ġ':":7467,"Ġ{{":7468,"Ġfuture":7469,"Tuple":7470,"power":7471,"ji":7472,"urnal":7473,"Ġsender":7474,"Could":7475,"663":7476,"activate":7477,"808":7478,"rift":7479,"ells":7480,"Ġ(?":7481,"ao":7482,"cn":7483,"__',":7484,"1718":7485,"!!!!":7486,"243":7487,"Ġcompare":7488,"versions":7489,"cores":7490,"Ġbranch":7491,"udo":7492,"PREFIX":7493,"Â¤Â¨":7494,"culate":7495,"aw":7496,"Ġworking":7497,"996":7498,"parsed":7499,"sensitive":7500,"gdal":7501,"ability":7502,"pus":7503,"Ġbro":7504,"Ġsqlite":7505,"antity":7506,"MON":7507,"Ġ\"\")":7508,"udb":7509,"latex":7510,"./":7511,"OGR":7512,"Ġchecks":7513,"Params":7514,"enticated":7515,"+',":7516,"recv":7517,"][\"":7518,"etag":7519,"decla":7520,"dividual":7521,"Ġlat":7522,"Argument":7523,"698":7524,"ALI":7525,"NC":7526,"failed":7527,"gfe":7528,"wifi":7529,"NotFoundError":7530,"Ġattach":7531,"ÃĹÂľ":7532,"(_('":7533,"Ġreally":7534,"ĠPOST":7535,"mesh":7536,"dian":7537,"shake":7538,"ĠProtocolBuffer":7539,"chart":7540,"edges":7541,"Ġtimezone":7542,"ĠÃĺ":7543,"setitem":7544,"ade":7545,"215":7546,"geometry":7547,"673":7548,"ports":7549,"ĠEast":7550,"Ġenum":7551,"enticate":7552,"scripts":7553,"Ġ*',":7554,"almost":7555,"Geo":7556,"Ġangle":7557,"standard":7558,"Â¸ÂŃ":7559,"pm":7560,"BY":7561,"Ġlisten":7562,"Ġflow":7563,"PP":7564,"gz":7565,"amount":7566,"Left":7567,"otype":7568,"646":7569,"ident":7570,"kernel":7571,"Ġunknown":7572,"xFF":7573,"codes":7574,"anon":7575,"Single":7576,"AI":7577,"seline":7578,"ĠNow":7579,"ategor":7580,"Bound":7581,"Ġ59":7582,"Ġmid":7583,"Ġleg":7584,"sistent":7585,"direc":7586,"Ġthings":7587,"city":7588,"ĠClass":7589,"lier":7590,"land":7591,"ĠArticle":7592,"spam":7593,"ective":7594,"Ġbackwards":7595,"pairs":7596,"AST":7597,"Ġcondition":7598,"together":7599,"276":7600,"Ġnested":7601,"cookies":7602,"Ġvarious":7603,"Exit":7604,"blocks":7605,"tu":7606,"pending":7607,"\"},":7608,"FS":7609,"clusive":7610,"Enum":7611,"ĠRemove":7612,"Ġcanvas":7613,"191":7614,"Panel":7615,"ĠExamples":7616,"Ġdirectories":7617,"sertionError":7618,"Ġazure":7619,"Ġsupplied":7620,"Ġamount":7621,"059":7622,"elf":7623,"Double":7624,"ĠInput":7625,"ĠCur":7626,"ALA":7627,"cancel":7628,"gous":7629,"171":7630,"Decoder":7631,"Ġ409":7632,"042":7633,"Enabled":7634,"slash":7635,"}',":7636,"packet":7637,"Ġsec":7638,"\"+":7639,"ĠServer":7640,"cepted":7641,"Complex":7642,"setting":7643,"Ġgeneric":7644,"php":7645,"cv":7646,"Ġcert":7647,"itude":7648,"806":7649,"spar":7650,"668":7651,"ÃİÂº":7652,"','','','','":7653,"Find":7654,"wap":7655,"166380":7656,"lint":7657,"273":7658,"rÃĥ":7659,"Ġprocessing":7660,"DT":7661,"bus":7662,"Folder":7663,"ANS":7664,"errypy":7665,"cha":7666,"Ġzone":7667,"providers":7668,"tzinfo":7669,"Cursor":7670,"inity":7671,"Language":7672,"ĠOver":7673,"cnt":7674,"270":7675,"tasks":7676,"dialog":7677,"ĠBSD":7678,"LEX":7679,"Clo":7680,"Ġinterval":7681,"]).":7682,"1769":7683,"368":7684,"uac":7685,"Grid":7686,"tip":7687,"PARAM":7688,"322":7689,"GROUP":7690,"CUR":7691,"Ġresources":7692,"Ġwhose":7693,"Ġless":7694,"Ġboundary":7695,"lah":7696,"ÂļÂĦ":7697,"Ġty":7698,"________________":7699,"Standard":7700,"aves":7701,"ĠPoly":7702,"subscriptions":7703,"Ġpid":7704,"aprof":7705,"Ġsym":7706,"DAY":7707,"Make":7708,"inetics":7709,"Ġchr":7710,"ically":7711,"REG":7712,"hat":7713,"Ġiden":7714,"356":7715,"ÃĹÂ¨":7716,"timer":7717,"Ġdrop":7718,"============":7719,"ĠAsian":7720,"DefaultDeleter":7721,"Ġbrowser":7722,"Ġ45":7723,"NULL":7724,"Ġcfg":7725,"acquire":7726,"Ġoptim":7727,"samples":7728,"Ġcluster":7729,"Mapping":7730,"ASN":7731,"262":7732,"241":7733,"subprocess":7734,"outube":7735,"DELETE":7736,"Ġcons":7737,"props":7738,"ĠTEST":7739,"Ġstrict":7740,"analy":7741,"INST":7742,"Enable":7743,"stroke":7744,"845":7745,"843":7746,"\"><":7747,"Compiler":7748,"Ġbases":7749,"Pool":7750,"ridge":7751,"aggregate":7752,"processor":7753,"}'":7754,"038":7755,"xD":7756,"oring":7757,"ĠHORIZONTAL":7758,"99999999":7759,"Ġdirec":7760,"virt":7761,"symmetrical":7762,"Ġdocstring":7763,"slots":7764,"isfile":7765,"Ġ''),":7766,"XY":7767,"Ġsecret":7768,"653":7769,"uaprof":7770,"Ġface":7771,"CB":7772,"ROPoller":7773,"mysql":7774,"multiple":7775,"054":7776,"Changed":7777,"ights":7778,"globals":7779,"itions":7780,"THR":7781,"interfaces":7782,"376":7783,"github":7784,"cli":7785,"Ġentities":7786,"057":7787,"velopment":7788,"rstrip":7789,"Ġplan":7790,"040":7791,"238":7792,"Ġcopies":7793,"QtGui":7794,"Ġmatplotlib":7795,"ius":7796,"Ġ'(":7797,"compare":7798,"Ġideograph":7799,"GS":7800,"define":7801,"863":7802,"Ġbucket":7803,"Ġclone":7804,"Pe":7805,"Ġpytest":7806,"submit":7807,"Ġrev":7808,"Ġpad":7809,"846":7810,"sf":7811,"pow":7812,"listdir":7813,"Flow":7814,"@@":7815,"Ġcorrectly":7816,"026":7817,"moves":7818,"Ġvery":7819,"Â¸Â£":7820,"Ġaccording":7821,"650":7822,"Ġbottom":7823,"321":7824,"Ġwhitespace":7825,"once":7826,"velope":7827,"Ġverbosity":7828,"Ġnewline":7829,"Ġgeo":7830,"Ter":7831,"collect":7832,"gres":7833,"RES":7834,"mtime":7835,"1727":7836,"Cor":7837,"ITS":7838,"normalize":7839,"pickle":7840,"STATE":7841,"xtures":7842,"perm":7843,"Ġconverter":7844,"appro":7845,"ategy":7846,"Ġfmt":7847,"team":7848,"ĠCFUNCTYPE":7849,"share":7850,"Ġinline":7851,"ĠEXAMPLE":7852,"Ġactiv":7853,"Ġchoice":7854,"Ġcsv":7855,"sto":7856,"856":7857,"Ġarchive":7858,"jar":7859,"Ġ51":7860,"Ġ600":7861,"xi":7862,"tv":7863,"LEFT":7864,"priority":7865,"ĠTests":7866,"VICE":7867,"Normal":7868,"Ġ55":7869,"members":7870,"world":7871,"party":7872,"Ġchunks":7873,"028":7874,"literal":7875,"Almost":7876,"versed":7877,"pie":7878,"hr":7879,"watch":7880,"ĠChange":7881,"Ġhandlers":7882,"Ġunless":7883,"IFI":7884,"Vertex":7885,"Ġansw":7886,"IST":7887,"('',":7888,"Ġpointer":7889,"ĠBad":7890,"Ġ2007":7891,"Ġsetuptools":7892,"creation":7893,"848":7894,"================================================================":7895,"Ġrepository":7896,"widgets":7897,"Ġcapt":7898,"ĠOP":7899,"Ġwriter":7900,"ĉĉĉĉĉĉ":7901,"syco":7902,"cogn":7903,"ĠSINGLE":7904,"ĠResponse":7905,"Ġpor":7906,"pan":7907,"Ġinstanti":7908,"Ġ39":7909,"Ġcreating":7910,"Ġ\"\"\"<":7911,"Ġcertificate":7912,"ĠEach":7913,"Ġdataset":7914,"Ġfactor":7915,"Ġregistry":7916,"Ġ\"[":7917,"Machine":7918,"Ġgive":7919,"YPES":7920,"UNT":7921,"Ġnd":7922,"ĠSign":7923,"udd":7924,"operations":7925,"Ġurls":7926,"/$',":7927,"Ġannot":7928,"Expr":7929,"ology":7930,"ĠLIABILITY":7931,"Formatter":7932,"allenge":7933,"AlmostEqual":7934,"oma":7935,"ĠFIX":7936,"Ġdummy":7937,"AER":7938,"ĠValid":7939,"Tex":7940,"ÃĹÂŀ":7941,"scribe":7942,"336":7943,"stock":7944,"ZZ":7945,"__:":7946,"Keys":7947,"Package":7948,"LC":7949,"timezone":7950,"Browser":7951,"Ġtrailing":7952,"Ġseries":7953,"supported":7954,"backup":7955,"__(**":7956,"unctuation":7957,"Ġformats":7958,"Ġkeywords":7959,"dif":7960,"COLOR":7961,"NA":7962,"Ġindices":7963,"Custom":7964,"lsType":7965,"Ġimplements":7966,"]{":7967,"scalar":7968,"079":7969,"Inf":7970,"210":7971,"Ġplain":7972,"Ġwrong":7973,"('/')":7974,"tection":7975,"answer":7976,"ĠPerson":7977,"gouskos":7978,"444":7979,"mot":7980,"frames":7981,"fact":7982,"348":7983,"Items":7984,"Ġexternal":7985,"pytest":7986,"396":7987,"hide":7988,"capt":7989,"onical":7990,"FIELD":7991,"Fl":7992,"Ġdele":7993,"'',":7994,"ÂĮ\",":7995,"Ameri":7996,"Ġimports":7997,"Login":7998,"small":7999,"lying":8000,">\",":8001,"ĠSec":8002,"ÂĤÂĴ":8003,"METHOD":8004,"Ġ(('":8005,"*\\":8006,"Ġcb":8007,"Ġbig":8008,"ky":8009,"illi":8010,"242":8011,"Ġretval":8012,"693":8013,"Ġ'/'":8014,"FOR":8015,"lopen":8016,"ĠSession":8017,"Virtual":8018,"mul":8019,"Literal":8020,"Ġpush":8021,"Ġbuilder":8022,"KEN":8023,"bine":8024,"hist":8025,"quiet":8026,"Ġsqlalchemy":8027,"ani":8028,"ĠWork":8029,"tm":8030,"2019":8031,"Ġofwhat":8032,"ders":8033,"semb":8034,"Ġunpack":8035,"353":8036,"Controller":8037,"Save":8038,"Ġts":8039,"992":8040,"Ġpolicy":8041,"ĠNE":8042,"ĠStr":8043,"ÂģÂĹ":8044,"CONTENT":8045,"Ġzope":8046,"Information":8047,"figure":8048,"Ġthree":8049,"??":8050,"165993":8051,"Ġep":8052,"continue":8053,"176548":8054,"Ġmiddleware":8055,"brand":8056,"kit":8057,"173692":8058,"343":8059,"ENCE":8060,"370":8061,"irth":8062,"Prompt":8063,"javascript":8064,"Sample":8065,"layers":8066,"uz":8067,"LOAD":8068,"voke":8069,"Ġ1024":8070,"Dest":8071,"peg":8072,"Ġdays":8073,"Ġslug":8074,"Iteration":8075,"tire":8076,"Deferred":8077,"Ġcont":8078,"Ġcontroller":8079,"lencode":8080,"linear":8081,"Ġletter":8082,"/>.":8083,"abstract":8084,"ĠLay":8085,"Ġwarn":8086,"moving":8087,"ĠCHARACTER":8088,"990":8089,"828":8090,"TP":8091,"390":8092,"MAIL":8093,"PIPE":8094,"walk":8095,"OB":8096,"DEX":8097,"ĠDocument":8098,"ASK":8099,"Ġcard":8100,"Conver":8101,"643":8102,"utiful":8103,"uad":8104,"iterator":8105,"ÂģÂĻ":8106,"ned":8107,"775":8108,":],":8109,"Ġmakes":8110,"calc":8111,"Ġcomponents":8112,"Ġfails":8113,"Ġnone":8114,"Ġspaces":8115,"contenttypes":8116,"die":8117,"Video":8118,"raries":8119,"RC":8120,"compat":8121,"checker":8122,"ĠSup":8123,"358":8124,"Ġequivalent":8125,"779":8126,"processed":8127,"ĠDEBUG":8128,"Ġweak":8129,"YRIGHT":8130,"Ġcreation":8131,"ONG":8132,"omer":8133,"Ġcaller":8134,"Ġlocals":8135,"Agent":8136,"Â¤Âķ":8137,"ĠLIGHT":8138,"tence":8139,"visioning":8140,"arrow":8141,"Binary":8142,"radi":8143,"ĠEXAMPLES":8144,"218":8145,"Ġshift":8146,"Ġ).":8147,"Tab":8148,"ĠHow":8149,"percent":8150,"ffero":8151,"MEDI":8152,"EVT":8153,"setText":8154,"DV":8155,"rive":8156,"loyment":8157,"Ġdefer":8158,"Ġgets":8159,"Choice":8160,"ĠAffero":8161,"youtube":8162,"categories":8163,"allation":8164,"ĠTmin":8165,"ĠCIR":8166,"FB":8167,"processing":8168,"uncate":8169,"udf":8170,"Ġsummary":8171,"war":8172,"forward":8173,"ueb":8174,"Ġrendered":8175,"rozenset":8176,"VIDED":8177,"failUnlessEqual":8178,"ĠUsed":8179,"SM":8180,"853":8181,"Ġsimilar":8182,"LIN":8183,"ulk":8184,"ernel":8185,"Transport":8186,"Ġ401":8187,"075":8188,"FFER":8189,"published":8190,"Ġwon":8191,"ised":8192,"ĠTmax":8193,"samsung":8194,"ĠINCLUDING":8195,"prep":8196,"AERESIS":8197,"Ġcoordinate":8198,"utors":8199,"Ġweek":8200,"ĠTC":8201,"ĠDIAERESIS":8202,"Ġ128":8203,"558":8204,"Ġpretty":8205,"373":8206,"arange":8207,"plural":8208,"ĠAnd":8209,"Global":8210,"nx":8211,"machine":8212,"ĠFIXME":8213,"Adapter":8214,"602":8215,"Ġretrieve":8216,"Param":8217,"MAC":8218,"251":8219,"Ġresolve":8220,"Ġsv":8221,"873":8222,"blog":8223,"TRACT":8224,"',)":8225,"Ġ48":8226,"SOUR":8227,"774":8228,"Ġsubclasses":8229,"ĠSCons":8230,"ĠRaises":8231,"locals":8232,"293":8233,"Part":8234,"393":8235,"Ġeffect":8236,"2013":8237,"Ġrather":8238,"processors":8239,"writeField":8240,"repository":8241,"dentifiers":8242,"ARD":8243,"338":8244,"ABASE":8245,"browse":8246,"Role":8247,"Ġta":8248,"021":8249,"tele":8250,"bilities":8251,"ĠLoad":8252,"Ġ'':":8253,"PA":8254,"858":8255,"pixel":8256,"precationWarning":8257,"vÃĥ":8258,"distribution":8259,"EY":8260,"ĠSelect":8261,"ĠBLOCK":8262,"ĠClsType":8263,"queryset":8264,"ĠSY":8265,"'ve":8266,"Ġam":8267,"syntax":8268,"=\"\",":8269,"atar":8270,"Cjk":8271,"coord":8272,"DIS":8273,"changes":8274,"dp":8275,"Ġarea":8276,"Step":8277,"stmt":8278,"Ġpub":8279,"Basic":8280,"ĠGET":8281,"Ġchecking":8282,"efficient":8283,"')))":8284,"Ġsmall":8285,"Ġtrigger":8286,"Ġprepare":8287,"OPTION":8288,"Ġhttplib":8289,"ris":8290,"Ġsources":8291,"UMN":8292,"Ġmachine":8293,"coun":8294,"Some":8295,"lar":8296,"ĠRequired":8297,"amera":8298,"cost":8299,"Ġroute":8300,"Received":8301,"PositiveIntegerField":8302,"330":8303,"Ġwrapped":8304,"defs":8305,"893":8306,"Ġnor":8307,"seed":8308,"Ġouter":8309,"Ġfast":8310,"COMP":8311,"_('":8312,"ĠProcess":8313,"Ġarrays":8314,"sz":8315,"secure":8316,"QtCore":8317,"ku":8318,"bold":8319,"through":8320,"dependent":8321,"white":8322,"ĠBuild":8323,"ĠĠĠĠĠĠĠĠĠĠĠĠĠĠĠĠĠĠĠĠĠĠĠĠĠĊ":8324,"GD":8325,"Pt":8326,"Ġapps":8327,"timedelta":8328,"ĠJo":8329,"Scale":8330,"TeV":8331,"Ideograph":8332,"variables":8333,"compatible":8334,">=":8335,"ÂĢÂĤ":8336,"Ġminimum":8337,"Ġbetter":8338,"Ġsha":8339,"unlink":8340,"speed":8341,"172822":8342,"ĠBY":8343,"823":8344,"Api":8345,"ĠFirst":8346,"Zip":8347,"irror":8348,"231":8349,"oked":8350,"Ġdelay":8351,"838":8352,"ĠGLenum":8353,"digit":8354,"descriptor":8355,"HH":8356,"272":8357,"095":8358,"Ġdeal":8359,"editor":8360,"imate":8361,"America":8362,"Ġnegative":8363,"ssh":8364,"ĠMap":8365,"GEOS":8366,"Accessor":8367,"Fields":8368,"056":8369,"rees":8370,"Ġagent":8371,"ListResult":8372,"))*":8373,"ĠService":8374,"fk":8375,"ERY":8376,"Contains":8377,"theme":8378,"Raw":8379,"uaa":8380,"Skip":8381,"Ġmet":8382,"(\"\"":8383,"veloper":8384,"Ctrl":8385,"peak":8386,"Timer":8387,"ĠTR":8388,"nchron":8389,"Please":8390,"([^":8391,"audio":8392,"ĠSource":8393,"Unified":8394,"Ġpadding":8395,"oose":8396,"342":8397,"ĠFORM":8398,"Constant":8399,"Â¸Âģ":8400,"Screen":8401,"Ġtrain":8402,"Ġul":8403,"mmedi":8404,"058":8405,"ossible":8406,"Ġprecision":8407,"Ġ44":8408,"connected":8409,"Ġorm":8410,"coming":8411,"550":8412,"Ġstates":8413,"Flags":8414,"Other":8415,"Ġoverrid":8416,"Ġste":8417,"Hash":8418,"doctest":8419,"ullable":8420,"290":8421,"ĠLanguage":8422,"Ġsegment":8423,"UCT":8424,"166033":8425,"FLEX":8426,"Â¤Â¸":8427,"Ġ--------------------------------":8428,"547":8429,"today":8430,"usted":8431,"dv":8432,"ĠCor":8433,"Ġqual":8434,"console":8435,"Sim":8436,"Ġsalt":8437,"that":8438,"wav":8439,"ĠEVENT":8440,"Ġremaining":8441,"Ġ_,":8442,"Provider":8443,"sson":8444,"sources":8445,"inct":8446,"Ġarticle":8447,"340":8448,"ĠModule":8449,"Ġsimplejson":8450,"Ġ75":8451,"Ġscalar":8452,"pointer":8453,"ĠInt":8454,"ternate":8455,"098":8456,"Copyright":8457,"Help":8458,"arc":8459,"eautiful":8460,"sch":8461,"Ġrunner":8462,"Ġcore":8463,"'[?":8464,"findall":8465,"Lim":8466,"TestSuite":8467,"VALUE":8468,"ĠAuto":8469,"177718":8470,"adow":8471,"ACTION":8472,"installed":8473,"KB":8474,"ucc":8475,"Ġcollect":8476,"Red":8477,"2021":8478,"Soup":8479,"Ġsci":8480,"Small":8481,"NODE":8482,"CG":8483,"UnifiedIdeograph":8484,"CjkUnifiedIdeograph":8485,"STATUS":8486,"hint":8487,"281":8488,"existing":8489,"Clean":8490,"^^":8491,"+)":8492,"Convert":8493,"Ġlarge":8494,"redicate":8495,"Timeout":8496,"Ġtasks":8497,"Dictionary":8498,"Bl":8499,"tach":8500,"wbmp":8501,"Ġaxes":8502,"}\".":8503,"ĠDAMAGES":8504,"wml":8505,"230":8506,"078":8507,"instances":8508,"ĠUSA":8509,"circ":8510,"spection":8511,"nsity":8512,"ICT":8513,"mited":8514,"Ġms":8515,"ĠTw":8516,"MODULE":8517,"pay":8518,"Ġcontrib":8519,"Ġadding":8520,"Ne":8521,"ufa":8522,"Usage":8523,".*?":8524,"finish":8525,"AuthenticationError":8526,"acer":8527,"ACKET":8528,"sqlite":8529,"WW":8530,"Ġcone":8531,"Ġproj":8532,"Book":8533,"Ġschedule":8534,"ĠAb":8535,"sycopg":8536,"2222":8537,"tel":8538,"ĠPROVIDED":8539,"cred":8540,";'":8541,"Sizer":8542,"Ġmembers":8543,"titude":8544,"670":8545,"switch":8546,"ornado":8547,"883":8548,"CUMFLEX":8549,"ippe":8550,"arb":8551,"Ġretrie":8552,"Ġpag":8553,"retry":8554,"rfc":8555,"codings":8556,"ModelAdmin":8557,"Ġvim":8558,"catalog":8559,"052":8560,"Ġthing":8561,"TYPES":8562,"Section":8563,"Ġcoordinates":8564,"__(*":8565,"coeff":8566,"553":8567,"mbedded":8568,"ĠTABLE":8569,"=&":8570,"34400":8571,"ĠCOPYRIGHT":8572,"Pattern":8573,"uous":8574,"Ġ65":8575,"Ġqueries":8576,"strong":8577,"fixed":8578,"Ġpi":8579,"refresh":8580,"Ġexplicitly":8581,"refs":8582,"Ġreturning":8583,"ĠĠĠĠĠĠĠĠĠĠĠĠĠĠĠĠĠĠĠĠĠĠĠĠĠĠĊ":8584,"LD":8585,"asis":8586,"AX":8587,"Ġleading":8588,"pw":8589,"ĠCIRCUMFLEX":8590,"serialization":8591,"+\\":8592,"Security":8593,"Ã¤Âº":8594,"qn":8595,"Ġincludes":8596,"Static":8597,"ĠshortDesc":8598,"blems":8599,"Ġtopic":8600,"ĠPath":8601,"Ġprobably":8602,"MC":8603,"Ġpriority":8604,"calls":8605,"Queryset":8606,"Ġsending":8607,"artist":8608,"GIS":8609,"prepare":8610,"CLDC":8611,"Ġ79":8612,"392":8613,"RY":8614,"Ġnodelist":8615,"Owner":8616,"Ġchecked":8617,"DW":8618,"ftp":8619,"Ġliteral":8620,"ĠShould":8621,"DATETIME":8622,"268":8623,"ĠContext":8624,"isation":8625,"672":8626,"ĠPh":8627,"Report":8628,"ĠToken":8629,"Definition":8630,"disable":8631,"778":8632,"boundary":8633,"Ġones":8634,"Ġalt":8635,"channels":8636,"Ġcodec":8637,"_='":8638,"Transform":8639,"Gateway":8640,"Ġable":8641,"Ġ\"(":8642,"ĠConvert":8643,"Generic":8644,"ASH":8645,"effect":8646,"5254534400":8647,"Ġ([":8648,"068":8649,"_))":8650,"Ġ-------":8651,"SIM":8652,"assertAlmostEqual":8653,"henius":8654,"bes":8655,"impl":8656,"ANGE":8657,"Ġnormalize":8658,"trics":8659,"Ġreading":8660,"ĠDefaults":8661,"662":8662,"Domain":8663,"pred":8664,"best":8665,"Cs":8666,"Finder":8667,"destination":8668,"JK":8669,"dash":8670,"ĠStream":8671,"uv":8672,"097":8673,"checked":8674,"good":8675,"ĉĉĉĊ":8676,"setuptools":8677,"trols":8678,"***":8679,"OFF":8680,"Ġ74":8681,"Ġidentity":8682,"Ren":8683,"nbsp":8684,"Ġuuid":8685,"band":8686,"166950":8687,"spli":8688,">.":8689,"sually":8690,"Ġexecution":8691,"uck":8692,"NUMBER":8693,"Clas":8694,"UNK":8695,"ino":8696,"ĠEXPRESS":8697,"kk":8698,"phi":8699,"Ġdisabled":8700,"!\"":8701,"Ġfid":8702,"ĠMethod":8703,"({\"":8704,"Ġfact":8705,"andidate":8706,"UST":8707,"+-":8708,"Ġtxt":8709,"photo":8710,"=[],":8711,"RAY":8712,"ĠStart":8713,"Ġreply":8714,"acl":8715,"cee":8716,"QApplication":8717,"Ġattempt":8718,"Ġ=>":8719,"BUFFER":8720,"Ġlonger":8721,"La":8722,"limiter":8723,"QuerysetEqual":8724,"ables":8725,"uo":8726,"ĠAdmin":8727,"Phy":8728,"Ġinf":8729,"352":8730,"Course":8731,"same":8732,"ganization":8733,"uba":8734,"rhenius":8735,"TERN":8736,"RPC":8737,"ticks":8738,"ĠSR":8739,"yer":8740,"Ġforward":8741,"PASS":8742,"Ġ47":8743,"ADD":8744,"gration":8745,"Ġ{}))":8746,"Ġslash":8747,"Ġcontinuation":8748,"Ġentire":8749,"LG":8750,"poch":8751,"nÃĥ":8752,"SHA":8753,"typecode":8754,"Ġ256":8755,"Common":8756,"Act":8757,"records":8758,"poll":8759,"ubb":8760,"Â¤Â¿":8761,"ĠMon":8762,"Namespace":8763,"etc":8764,"]}":8765,"WH":8766,"activity":8767,"Ġprior":8768,"verbosity":8769,"sid":8770,"nsure":8771,"orth":8772,"otos":8773,"Ġrevision":8774,"Ġgc":8775,"counts":8776,"TEXTURE":8777,"kwds":8778,"udent":8779,"Merge":8780,"ĠTClist":8781,"Engine":8782,"HIE":8783,"Ġquestion":8784,"Ġexecuted":8785,"authors":8786,"ratio":8787,"orgia":8788,"Ġ2005":8789,"Remote":8790,"olds":8791,"requests":8792,"Expression":8793,"After":8794,"enc":8795,"690":8796,"sb":8797,"880":8798,"Ġserializer":8799,"ĠPlease":8800,"Ġmuch":8801,"atural":8802,"ExistsError":8803,"oston":8804,"Ġaggregate":8805,"Ġswitch":8806,"ju":8807,"rab":8808,"Ġdriver":8809,"Ġsequences":8810,"MIDP":8811,"IA":8812,"sph":8813,"Expected":8814,"assertQuerysetEqual":8815,"Identifier":8816,"lst":8817,"inator":8818,"ĠĠĠĠĠĠĠĠĠĠĠĠĠĠĠĠĠĠĠĠĠĠĠĠĠĠĠĊ":8819,"ARM":8820,"inux":8821,"Ġargv":8822,"snapshot":8823,"031":8824,"CHOICES":8825,"ToOne":8826,"ufb":8827,"=('":8828,"073":8829,"bob":8830,"Total":8831,"Ġtyped":8832,"/\",":8833,"ĠSSL":8834,"ĠIPython":8835,",'\\":8836,"Ġproperly":8837,"anded":8838,"Ġapplied":8839,"lb":8840,"components":8841,"362":8842,"Region":8843,"Pop":8844,"TEX":8845,"ĠRel":8846,"166408":8847,"pur":8848,"292":8849,"phinx":8850,"094":8851,"ĠDummy":8852,"must":8853,"Ġln":8854,"447":8855,"SData":8856,"zi":8857,"BA":8858,"WC":8859,"ÂµÃł":8860,"Ġ49":8861,"Ġindividual":8862,"Ġderived":8863,"ĠAssertionError":8864,"ĠReserved":8865,"Gen":8866,"strument":8867,"_[":8868,"Sw":8869,"mouse":8870,"setObject":8871,"Ġcookies":8872,"}'.":8873,"peer":8874,"Ġeverything":8875,"ContentType":8876,"Tune":8877,"preview":8878,"291":8879,"Ġarch":8880,"Ġdue":8881,"aaaaaaaaaaaaaaaaaaaaaaaaaaaaaaaa":8882,"intain":8883,"eError":8884,"ordinates":8885,"ĠFe":8886,"quit":8887,"Ġdocuments":8888,"urther":8889,"manage":8890,"YLE":8891,"Incremental":8892,"2014":8893,"Ġhostname":8894,"ASC":8895,"Ġanswer":8896,"whitespace":8897,"Ġsymp":8898,"ATT":8899,"qt":8900,"ĠUTF":8901,"=\\":8902,"ended":8903,"Ġformatted":8904,"Ġtranslate":8905,"~~~~~~~~~~~~~~~~":8906,"ipv":8907,"setUp":8908,"threads":8909,"covery":8910,"Ġdirs":8911,"definition":8912,"063":8913,"Lines":8914,"################################################":8915,"QuerySet":8916,"nodelist":8917,"ĠProduct":8918,"549":8919,"Ġnil":8920,"Listen":8921,"inputs":8922,"Ġpopulated":8923,"actual":8924,"ientation":8925,"Ġenough":8926,"Ġsignals":8927,";\\":8928,"CHECK":8929,"ĠTask":8930,"izers":8931,"ĠQtCore":8932,"Ġcv":8933,"OIN":8934,"ĠHttpResponseError":8935,"Abstract":8936,"threshold":8937,"Distance":8938,"Ġcycle":8939,"dns":8940,"Internal":8941,"splitlines":8942,"strs":8943,"Ġ300":8944,"Ġpname":8945,"Ġchart":8946,"COMMENT":8947,"fixture":8948,"PM":8949,"Ġconversion":8950,"tok":8951,"##############################################################################":8952,"constant":8953,"Ġgd":8954,"Ġ43":8955,"QQ":8956,"Migration":8957,"ales":8958,"ETHER":8959,"Structure":8960,"ĠSHALL":8961,"VM":8962,"uca":8963,"cedure":8964,"Ġawait":8965,"tablename":8966,"RI":8967,"formatter":8968,"Active":8969,"Area":8970,"Ġprevent":8971,"Ġunsigned":8972,"ISING":8973,"Â©\",":8974,"Ġ90":8975,"SIGN":8976,"551":8977,"ÂĢÂģ":8978,"separator":8979,"ÃĺÂªÃĺ":8980,"SK":8981,"076":8982,"csrf":8983,"FileName":8984,"CONFIG":8985,"Ġsuc":8986,"142857":8987,"Tags":8988,"accounts":8989,"Ġproc":8990,"Library":8991,"Ġlst":8992,"Ġsouth":8993,"642":8994,"Ġhy":8995,"klass":8996,"Ġcapi":8997,"3456789":8998,"Ġthreads":8999,"Ġenter":9000,"Ġradius":9001,"REF":9002,"clause":9003,"1788":9004,"Ġhard":9005,"ĠMod":9006,"ĠEng":9007,"ĠDocTest":9008,"POS":9009,"176201":9010,"archy":9011,"rgb":9012,"callable":9013,"ĠOK":9014,"Ġdependencies":9015,"NET":9016,"COMM":9017,"bra":9018,"formset":9019,"oman":9020,"ĠResourceNotFoundError":9021,"Feature":9022,"worker":9023,"clusion":9024,"MEDIA":9025,"Ġinitialize":9026,"was":9027,"ini":9028,"ĠState":9029,"ĠLIABLE":9030,"=\"_":9031,"Ġchecker":9032,"452":9033,"ĠCall":9034,"SW":9035,"()``":9036,"PromptReco":9037,"remain":9038,"xyz":9039,"Ġvm":9040,"ĠBoston":9041,"\"][\"":9042,"indexes":9043,"claime":9044,"------------------------":9045,"vcodec":9046,"ĠEnvironment":9047,"749":9048,"CREATE":9049,"ante":9050,"isode":9051,"Ġconven":9052,"Ġeasy":9053,"jpeg":9054,"osite":9055,"Ġmimetype":9056,"getter":9057,"rename":9058,"Ġpower":9059,"cate":9060,"ĠÃĥ":9061,"Ġimmedi":9062,"glyph":9063,"ien":9064,"vides":9065,"Right":9066,"ĠRights":9067,"Errors":9068,"adcast":9069,"ĠEOF":9070,"ĠARISING":9071,"ĠResourceExistsError":9072,"cycle":9073,"Ġwhole":9074,"TOKEN":9075,"BUT":9076,"ĠCOM":9077,"Chain":9078,"Ġcherrypy":9079,"tell":9080,"ODE":9081,"ĉĉĠ":9082,"ĠPermission":9083,"Ġfragment":9084,"forge":9085,"Filename":9086,"ĠTORT":9087,"cipher":9088,"fun":9089,"652":9090,"Ġls":9091,"SOURCE":9092,"ĠNAS":9093,"swig":9094,"ĠĠĠĠĠĠĠĠĠĠĠĠĠĠĠĠĠĠĠĠĠĠĠĠĠĠĠĠĊ":9095,"870":9096,"={}":9097,"_'":9098,"ĠClientAuthenticationError":9099,"Fr":9100,"partition":9101,"QtQt":9102,"spatial":9103,"1734":9104,"Pr":9105,"ĠWHETHER":9106,"troop":9107,"gene":9108,"izing":9109,"545":9110,"Ġftype":9111,"Ġconeq":9112,"ĠshowIndent":9113,"Align":9114,"bet":9115,"rase":9116,"ĠNOTE":9117,"clip":9118,"ĠMySQL":9119,"ĠConst":9120,"COLUMN":9121,"fm":9122,"Ġkinetics":9123,"Export":9124,"GLN":9125,"Ġds":9126,"Ġcc":9127,"Ġvals":9128,"Ġmu":9129,"ÃĹÂ¢":9130,"ĠCONTRACT":9131,"icture":9132,"unded":9133,"Ġ(\\":9134,"bp":9135,"Ġgeneral":9136,"872":9137,"reads":9138,"major":9139,"=[\"":9140,"bri":9141,"allel":9142,"sess":9143,"ailab":9144,"DateField":9145,"Ġflush":9146,"Long":9147,"'/":9148,",%":9149,"Move":9150,"ĠMOD":9151,"ĠSUB":9152,"////////////////////////////////":9153,"Ġcatch":9154,"trip":9155,"Ġitertools":9156,"RIGHT":9157,"El":9158,"........":9159,"incip":9160,"heritance":9161,"Ġcmp":9162,"ĠHandle":9163,"Ġsix":9164,"nsor":9165,"addWidget":9166,"_{":9167,"foot":9168,"finished":9169,"ĠOne":9170,"Seq":9171,"nn":9172,"mutable":9173,"etrieve":9174,"Ġwidgets":9175,"peated":9176,"*',":9177,"lr":9178,"dm":9179,"Ġspatial":9180,"Ġri":9181,"lÃĥ":9182,"deck":9183,"Ġtok":9184,"1762":9185,"ĠDOWN":9186,"Ġprovider":9187,"ĠConnection":9188,"AIL":9189,"172868":9190,"456":9191,"ptime":9192,"tends":9193,"ALIAS":9194,"1634":9195,"401":9196,"=[]":9197,"atal":9198,"Ġduration":9199,"since":9200,"anging":9201,"[~":9202,",(":9203,"852":9204,"serted":9205,"ffered":9206,"setObjectName":9207,"881":9208,"ĠSpatial":9209,"ĠDATA":9210,"Ġetag":9211,"ÃĲÂºÃĳ":9212,"Ġprocessed":9213,"gateway":9214,"cu":9215,"atype":9216,"Ġct":9217,"registration":9218,"Ġpixels":9219,"SEPARATOR":9220,"Multiple":9221,"Inline":9222,")\"\"\"":9223,"Ġwerkzeug":9224,"DLE":9225,"862":9226,"TON":9227,"Ġcirc":9228,"776":9229,"Ġaddresses":9230,"AAA":9231,"Ġstatements":9232,"ATTRIB":9233,"eps":9234,"outer":9235,"DATABASE":9236,"2018":9237,"GData":9238,"ibling":9239,"]\"":9240,"ucb":9241,"ometries":9242,"ĠFILE":9243,"Ġplural":9244,"deepcopy":9245,"Conf":9246,"372":9247,"ĠSearch":9248,"kan":9249,"Ġcipher":9250,"ued":9251,"ama":9252,"445":9253,"Ġdc":9254,"ĠHolder":9255,"061":9256,"cas":9257,"Character":9258,"company":9259,"GRE":9260,"pared":9261,"\"][":9262,"adj":9263,"497":9264,"Ġaname":9265,"]-":9266,"Tube":9267,"__),":9268,"uef":9269,"META":9270,"iterable":9271,"747":9272,"ĠStatus":9273,"olver":9274,"Ġintern":9275,".'''":9276,"svn":9277,"Ġabstract":9278,"Ġsync":9279,"reat":9280,"}),":9281,"VERT":9282,"Ġpt":9283,"bounds":9284,"srs":9285,"Ob":9286,"ÃİÂµÃİ":9287,"1763":9288,"micro":9289,"Ġll":9290,"Null":9291,"ĠWith":9292,"1787":9293,"Keyword":9294,"Ġedges":9295,"ĠBook":9296,"ĠView":9297,"live":9298,"stand":9299,"inger":9300,"union":9301,"tour":9302,"ailability":9303,"Ġdetect":9304,"?'":9305,"661":9306,"Setup":9307,"aemon":9308,"avig":9309,"ĠDIS":9310,"have":9311,"Ġassigned":9312,"SN":9313,"certificate":9314,"OBJ":9315,"scene":9316,"Tr":9317,"PK":9318,"finite":9319,"srf":9320,"Ġcalculate":9321,"books":9322,"Ġemit":9323,"grees":9324,"ele":9325,"vertex":9326,"typ":9327,"nested":9328,"Required":9329,"aac":9330,"773":9331,"currency":9332,"Ġdifference":9333,"Ġsep":9334,"stor":9335,"GER":9336,"Ġoptparse":9337,"ĠTrace":9338,"ĠDist":9339,"Ġcar":9340,"Ġetree":9341,"Plan":9342,"smart":9343,"Uri":9344,"legate":9345,"mentation":9346,"Sur":9347,"Ġclick":9348,"ura":9349,"anchor":9350,"sifier":9351,"Clear":9352,"Ġgran":9353,"tral":9354,"letter":9355,"552":9356,"SIG":9357,"Ġpositive":9358,"ĠFake":9359,"Player":9360,"BLYPD":9361,"phab":9362,"acted":9363,"341":9364,"Ip":9365,"Ġsympy":9366,"difference":9367,"STYLE":9368,"WISE":9369,"Ġdebugging":9370,"ĠAttr":9371,"'),('":9372,"QUE":9373,"ĠCount":9374,"Contact":9375,"ĠOptions":9376,"('')":9377,")*(":9378,"orator":9379,"Ġcs":9380,"ĠSTR":9381,"ĠPage":9382,"Ġnick":9383,"cour":9384,"aN":9385,"ĠLocal":9386,"Ġmargin":9387,"sections":9388,"Endpoint":9389,"ĠCho":9390,"currentTime":9391,"Ġworker":9392,"legal":9393,"construct":9394,"ancy":9395,"hosts":9396,"IMAGE":9397,"ĠStopIteration":9398,"443":9399,"ĠPri":9400,"ErrorFormat":9401,"Ġhandled":9402,"()])":9403,"Ġincorrect":9404,"[%":9405,"Public":9406,",,":9407,"sia":9408,"ubf":9409,"alp":9410,"VEL":9411,"Has":9412,"096":9413,"ucf":9414,"757":9415,"kinter":9416,"uaf":9417,":/":9418,"ĠJava":9419,"ĠURLs":9420,"ĠPack":9421,"ĠIF":9422,"892":9423,"steps":9424,"ubc":9425,"Split":9426,")|":9427,"Ġdefines":9428,"ĀĀĀĀĀĀĀĀĀĀĀĀĀĀĀĀĀĀĀĀĀĀĀĀĀĀĀĀĀĀĀĀĀĀĀĀĀĀĀĀĀĀĀĀĀĀĀĀĀĀĀĀĀĀĀĀĀĀĀĀĀĀĀĀĀĀĀĀĀĀĀĀĀĀĀĀĀĀĀĀĀĀĀĀĀĀĀĀĀĀĀĀĀĀĀĀĀĀĀĀĀĀĀĀĀĀĀĀĀĀĀĀĀĀĀĀĀĀĀĀĀĀĀĀĀĀĀĀ":9429,"jobs":9430,"Mozilla":9431,"Ġdisplayed":9432,"ĠlongDesc":9433,"Ġrestriction":9434,"Ġmemo":9435,"\"%(":9436,"doctype":9437,"iro":9438,"025":9439,"RequestHandler":9440,"Ġsn":9441,"mal":9442,"Ġvisible":9443,"361":9444,"QUAL":9445,"Ġgu":9446,"271":9447,"Ġ102":9448,"errno":9449,"Ġhit":9450,"Ġcurr":9451,"ĠDelete":9452,"Ass":9453,"builtins":9454,"Unable":9455,"Async":9456,"Success":9457,"TESTFN":9458,"strap":9459,"ĠMedia":9460,"ĠminOccurs":9461,"Ġexactly":9462,"RST":9463,"ĠAdding":9464,"Ġans":9465,"CACHE":9466,"encoder":9467,"Ġsqrt":9468,"Play":9469,"Ġhashlib":9470,"setKey":9471,"Wh":9472,"partial":9473,"Ġrepresents":9474,".\"),":9475,"resourceGroups":9476,"FFFF":9477,"Arch":9478,"filepath":9479,"=''):":9480,"Ġdom":9481,"WA":9482,"tax":9483,"stan":9484,"ERIC":9485,"597":9486,"Ġloading":9487,"Ġbc":9488,"Ġquotes":9489,"alg":9490,"Ġerrno":9491,"Âģ\",":9492,"prompt":9493,"LP":9494,"ectrum":9495,"Ġseparate":9496,"Ġhome":9497,"logical":9498,"gp":9499,"Ġmetavar":9500,"797":9501,"lent":9502,"diag":9503,"Ġtail":9504,"managed":9505,"ucd":9506,"Ġflask":9507,"ceeded":9508,"Ġtm":9509,"rator":9510,"fire":9511,"udc":9512,"windows":9513,"ĠProject":9514,"Ġnumeric":9515,"ufd":9516,"sli":9517,"surface":9518,"cons":9519,"Ġfigure":9520,"ĠKEY":9521,"adapter":9522,"LOCAL":9523,"Created":9524,"Ġspeed":9525,"Headers":9526,"room":9527,"!\")":9528,"pts":9529,"Ġpending":9530,"Ġreplacement":9531,"651":9532,"Ġeditor":9533,"saver":9534,"cleanup":9535,"Ġ*=":9536,"Objects":9537,"ĠLayer":9538,"050":9539,"readlines":9540,"Ġlocations":9541,"Publish":9542,"261":9543,"Ġ\"{":9544,"sparse":9545,"Ġclause":9546,"duced":9547,"setattr":9548,"172791":9549,"Ġspecifies":9550,"oth":9551,"Â°_":9552,"Â¸Âĩ":9553,"3000":9554,"Ġtes":9555,"vertical":9556,"/(?":9557,"seen":9558,"Ġtransport":9559,"Ġol":9560,"vey":9561,"bian":9562,"salt":9563,"Ġformset":9564,"MONTH":9565,"638":9566,"Ġrecursive":9567,"ĠEd":9568,"radio":9569,"1780":9570,"dynamic":9571,"dz":9572,"Ġ1398":9573,">`":9574,"structure":9575,"={},":9576,"Example":9577,"Ġ/></":9578,"ĠGRA":9579,"Ġfrozenset":9580,"connections":9581,"negative":9582,"882":9583,"ĠISO":9584,"ĠMay":9585,"}{":9586,"ĠOTHERWISE":9587,"SERT":9588,"671":9589,"clock":9590,"')):":9591,"COD":9592,"ufc":9593,"()).":9594,"Ġcredentials":9595,"Ġcatalog":9596,"house":9597,"Allow":9598,"saved":9599,"Ġsuccessfully":9600,"btn":9601,"ĠFoo":9602,"Ġ46":9603,"Ġcodes":9604,"Ġrelationship":9605,"Ġthrow":9606,"curr":9607,"ĠCustomConstraint":9608,"snd":9609,"FLAG":9610,"MESS":9611,"ĠDes":9612,"pedia":9613,"uae":9614,"who":9615,"ĠGEO":9616,"Ġstarts":9617,"ĠEN":9618,"Ġbackup":9619,"GEN":9620,"'[?]',":9621,"Ġsubscription":9622,"ubd":9623,"331":9624,"TuneZ":9625,"APE":9626,"ÂĤÂĭ":9627,"Ġminutes":9628,"ĠNon":9629,"physical":9630,"OPEN":9631,"Ġmut":9632,"ĠSu":9633,"ĠEmail":9634,"NORM":9635,"fileno":9636,"=\"/":9637,"uec":9638,"WO":9639,"clicked":9640,"ordered":9641,"\\\\\\":9642,"ython":9643,"ĠBe":9644,"ectors":9645,"monitor":9646,"mq":9647,"](":9648,"176702":9649,"FUN":9650,"Ġprompt":9651,"baseline":9652,"liz":9653,"641":9654,"lify":9655,"Init":9656,"ellow":9657,"___":9658,"lette":9659,"MAN":9660,"Ġtemporary":9661,"Ġmaterial":9662,"ĠFormat":9663,"Ġui":9664,"Ġpartial":9665,"ĠmaxOccurs":9666,"ĠFin":9667,"Install":9668,"quot":9669,"Ġsk":9670,"Ġscipy":9671,"ĠArrhenius":9672,"Ġfs":9673,"1653":9674,"THON":9675,"Ġ99":9676,"resize":9677,"Card":9678,"uee":9679,"Ġ\"\"\"\\":9680,"072":9681,"ips":9682,"phase":9683,"COOK":9684,"861":9685,"ĠEmpty":9686,"Serialize":9687,"Ġ;":9688,"ĠGRAVE":9689,"8888":9690,"Sets":9691,"Rout":9692,"Bot":9693,"Ġexecutable":9694,"Ġreportlab":9695,"Ġke":9696,"Ġpolynomial":9697,"extent":9698,"Ġndarray":9699,"Ġconnected":9700,":</":9701,"Ġbecome":9702,"disabled":9703,"Ġplugins":9704,"']]":9705,"CV":9706,"440":9707,"ARCH":9708,"Ġescaped":9709,"ĠRo":9710,"822":9711,"ĠBoolean":9712,"Ġmanagement":9713,"mx":9714,"metaclass":9715,"Encode":9716,"312":9717,"Missing":9718,"quoted":9719,"ĠParser":9720,"Ġindicates":9721,"Ġ\"''":9722,"ĠÃ¢":9723,"HI":9724,"Ġcols":9725,"dll":9726,"('''":9727,"(\"--":9728,"splitext":9729,"Ġlazy":9730,"setKeyframe":9731,"tabs":9732,"ggle":9733,"bib":9734,"scroll":9735,"ĠValue":9736,"Ġglobs":9737,"Used":9738,"lu":9739,"TLS":9740,"orph":9741,"terms":9742,"istributions":9743,"det":9744,"\")[":9745,"itable":9746,"Environment":9747,"dk":9748,"871":9749,"selector":9750,"Ġmatched":9751,"ADDR":9752,"ĠHttpResponseRedirect":9753,"minute":9754,"ĠCity":9755,"thrift":9756,"ĠAUTHORS":9757,"Ġ'%(":9758,"Ġseparator":9759,"validators":9760,"targets":9761,"BLOCK":9762,"optim":9763,"NECTION":9764,"Ring":9765,"XXX":9766,"repeat":9767,"Ġ2004":9768,"without":9769,"2004":9770,"istent":9771,"DecodeError":9772,"Ġversionadded":9773,"024":9774,"vc":9775,"Ġnillable":9776,"Editor":9777,"strptime":9778,"178365":9779,"DEFIN":9780,"urlopen":9781,"851":9782,"locations":9783,"acters":9784,"1666":9785,"eros":9786,"Django":9787,"Second":9788,"Ġtaken":9789,"691":9790,"screensaver":9791,"horizontal":9792,"Ġcp":9793,"ROW":9794,"594":9795,"padding":9796,"0002":9797,"VALUES":9798,"rollback":9799,"Ġsystems":9800,"))),":9801,"Ġhidden":9802,"rss":9803,"Ġ54":9804,"crete":9805,"ternative":9806,"tential":9807,"33333333":9808,"HttpResponseError":9809,"precision":9810,"ILD":9811,"Ġiso":9812,"igrate":9813,"May":9814,"037":9815,"[[":9816,"namespaces":9817,"ĠQUOT":9818,"ĠCre":9819,"Ġdigest":9820,"cloud":9821,"821":9822,"Ġeas":9823,"ĠHeader":9824,"numbers":9825,"uestion":9826,"#-----------------------------------------------------------------------------":9827,"Ġordered":9828,"bid":9829,"ĠEa":9830,"logout":9831,"servation":9832,"Stats":9833,"Ġcategories":9834,"health":9835,"Register":9836,"Kit":9837,"theta":9838,"ĠSELECT":9839,"modify":9840,"INAL":9841,"Mul":9842,"MSG":9843,"446":9844,"Ġdidn":9845,"checksum":9846,"Ġupdates":9847,"eggs":9848,"SCE":9849,"binding":9850,"uea":9851,"Ġruns":9852,"ĠNetwork":9853,"280":9854,"qa":9855,"Mag":9856,"tÃĥ":9857,"assertNotEqual":9858,"Ġconside":9859,"Ġear":9860,"versal":9861,"Ġvisibility":9862,"rospection":9863,"claimer":9864,"Ġconsole":9865,"OC":9866,"Ġwsgi":9867,"Ġchecksum":9868,"BS":9869,"decoder":9870,"hours":9871,"Categor":9872,"fv":9873,"loading":9874,"051":9875,"Ġalignment":9876,"ergy":9877,"Ġprom":9878,"JECT":9879,"TS":9880,"351":9881,"Ġdeclar":9882,"about":9883,"STO":9884,"addTest":9885,"hu":9886,"Ġunderlying":9887,"034":9888,"Ġarr":9889,"trigger":9890,"Modified":9891,"Ġpassing":9892,"inted":9893,"nf":9894,"randint":9895,"Cancel":9896,"cion":9897,"ĠBack":9898,"Ġexpressions":9899,"Ġcalendar":9900,"ĠDele":9901,"Full":9902,"Ġide":9903,"Lib":9904,"Ġred":9905,"expires":9906,"Partial":9907,"TODO":9908,";',":9909,"ĠMac":9910,"dh":9911,"371":9912,"ĠAL":9913,"457":9914,"entities":9915,"Ġusually":9916,"uby":9917,">\")":9918,"Geom":9919,"Ġmigrations":9920,"Ġmaps":9921,"urlencode":9922,"Ġ67":9923,"Ġ!":9924,"paragraph":9925,"IDENT":9926,"Ġbygroups":9927,"Ġ\\\\":9928,"311":9929,"cpu":9930,"Ġretry":9931,"Ġstarted":9932,"=\"\"\"":9933,"mpath":9934,"NORE":9935,"tis":9936,"('#":9937,"dialect":9938,"terals":9939,"Ġsi":9940,"ensure":9941,"Ġkernel":9942,"Points":9943,"Ġ97":9944,"ĠStandard":9945,"ĠACTION":9946,"mkdir":9947,"Pickle":9948,"1301":9949,"Ġbeginning":9950,"Ġindexes":9951,"Ġcertain":9952,"Ġpeer":9953,"Ġhandles":9954,"RL":9955,"Ġrouter":9956,"INIT":9957,"onts":9958,"Ġplease":9959,"DOWN":9960,"Ġformatter":9961,"Ori":9962,"ALIGN":9963,"into":9964,"ĠQUOTATION":9965,"211":9966,"character":9967,"='%":9968,".</":9969,"ilent":9970,"Ġpip":9971,"etree":9972,"lia":9973,"Ġsimply":9974,"10000":9975,"OAuth":9976,"attname":9977,"rating":9978,"FILES":9979,"magic":9980,"bbet":9981,"multipart":9982,"ĠIPv":9983,"wt":9984,"ica":9985,"ĠAction":9986,"Ġinputs":9987,"/*":9988,"ĠEnd":9989,"Ġ400":9990,"See":9991,"libs":9992,"working":9993,"rit":9994,">\"\"\"":9995,"745":9996,"Ġhist":9997,"imports":9998,"ticast":9999,"ano":10000,"Ġresulting":10001,"kÃĥ":10002,"pagation":10003,"dirty":10004,"Ġfinished":10005,"Ġcreates":10006,"Volume":10007,"ĠLa":10008,"CLA":10009,"Ġdirname":10010,"staff":10011,"####################################################################":10012,"360":10013,"album":10014,"177053":10015,"...\"":10016,"Transaction":10017,"levant":10018,"ĠEntry":10019,"poli":10020,"quent":10021,"794":10022,"want":10023,"448":10024,"bbetchar":10025,"sphinx":10026,"COUNT":10027,"VV":10028,"how":10029,"0000000000000000":10030,"alignment":10031,"Ġtheme":10032,"Ġnullable":10033,"bel":10034,"voice":10035,"Ġoutside":10036,"Any":10037,"jj":10038,"Utf":10039,"ĠSyntaxError":10040,"UU":10041,"Ġdocs":10042,"ÃĹÂĲ":10043,"tively":10044,"ya":10045,"aring":10046,"weak":10047,"Ġjinja":10048,"Ġframes":10049,"confirm":10050,"Ġfunctionality":10051,"kick":10052,"091":10053,"Ġcancel":10054,"sessions":10055,"LR":10056,"ĠTLS":10057,"childNodes":10058,"ĠAzure":10059,"ĠBR":10060,"1732":10061,"891":10062,"signals":10063,"licies":10064,"cont":10065,"NOWN":10066,"494":10067,"Schedule":10068,"venio":10069,"represent":10070,"gpp":10071,"ĠEMPTY":10072,"ĠASC":10073,"035":10074,"ĠSkip":10075,"styles":10076,",[":10077,"Ġdivision":10078,"391":10079,"093":10080,"ĠGraph":10081,"focus":10082,"Spa":10083,"bitrary":10084,"ĠIter":10085,"lm":10086,"combo":10087,"LANGU":10088,"cuts":10089,";\"":10090,"Rot":10091,"thumbnail":10092,"ifiers":10093,"Ġbr":10094,"reshape":10095,"831":10096,"hexdigest":10097,"Ġdisclaimer":10098,"ĠStorage":10099,"Ġaren":10100,"munity":10101,"ARRAY":10102,"ĠHowever":10103,"esh":10104,"Ġrand":10105,"Ġsymbols":10106,"zoom":10107,"Ġsoup":10108,"ĠMax":10109,"QP":10110,"har":10111,"ĠHE":10112,"Ġlexer":10113,"ĠNUM":10114,"indic":10115,"Ġws":10116,"combin":10117,"runner":10118,"nonce":10119,"176304":10120,"EMAIL":10121,"Ã°":10122,"ÃĹÂĳ":10123,"declared":10124,"atory":10125,"ral":10126,"sibly":10127,"transition":10128,"595":10129,"ĠLink":10130,"hit":10131,"403":10132,"organization":10133,"xm":10134,"032":10135,"\"')":10136,"795":10137,"Ġpylint":10138,"datastore":10139,"Ġ95":10140,"svg":10141,"cryption":10142,"MY":10143,"capture":10144,"Ġoverridden":10145,"HEADER":10146,"aging":10147,"gral":10148,"bundle":10149,"Ġ{'':":10150,"Ġconsume":10151,"Dist":10152,"cgi":10153,"usion":10154,"stricted":10155,"Ġdoing":10156,"Ġconfigured":10157,"ToOneField":10158,"Ġguess":10159,"extras":10160,"Ġfri":10161,"ÂªÃ£":10162,"pat":10163,"latest":10164,"objs":10165,"cid":10166,"029":10167,"vanced":10168,"grity":10169,"rr":10170,"midp":10171,"uan":10172,"mmar":10173,"Ġ84":10174,"bbox":10175,"TCP":10176,"uate":10177,"ocity":10178,"WID":10179,"until":10180,"nost":10181,"Named":10182,"Ġadapter":10183,"ĠInst":10184,"ogram":10185,"ĠBeautiful":10186,"bz":10187,"Ġfurther":10188,"Ġdynamic":10189,"SHORT":10190,"ulo":10191,"Connect":10192,"ens":10193,"REAM":10194,"CAT":10195,"501":10196,"authentication":10197,"ĠMIT":10198,"Ġshouldn":10199,"Ġcompiled":10200,"Â¸_":10201,"Ġplaces":10202,"ĠTE":10203,"260":10204,"urtle":10205,"postgres":10206,"Ġgr":10207,"SOCK":10208,"spy":10209,"Ġcross":10210,"Ġstroke":10211,"flash":10212,"aching":10213,"480":10214,"ĠQueue":10215,"ather":10216,"ĠMatrix":10217,"165415":10218,"onal":10219,"unctools":10220,"STRUCT":10221,"java":10222,"Ġring":10223,"ĠInstance":10224,"ĠGiven":10225,"balance":10226,"---+":10227,"msrest":10228,"bat":10229,"ĠRedistributions":10230,"Ġec":10231,"lexer":10232,"LEVEL":10233,"rou":10234,"Reset":10235,"Ġcountry":10236,"ĠReference":10237,"ora":10238,"Fetch":10239,"hw":10240,"546":10241,"utions":10242,"ouch":10243,"Private":10244,"ENTER":10245,"ĠColor":10246,"798":10247,"INCLUDING":10248,"Chunk":10249,"BUTTON":10250,"ICAg":10251,"CY":10252,"lator":10253,"ographic":10254,"Ġ70":10255,"Windows":10256,"ÂģÂ«":10257,"Ġreplaced":10258,"Ġcontained":10259,"Ġanaly":10260,"cing":10261,"obile":10262,"Ġintegers":10263,"Ġconfigure":10264,"weet":10265,"PG":10266,"deredDict":10267,"314":10268,"Ġservers":10269,"flatten":10270,"ĠForeignKey":10271,"ben":10272,"Ġthreshold":10273,"SPAN":10274,"Ġpara":10275,"Ġsess":10276,"Upload":10277,"Ġfinish":10278,"ym":10279,"misc":10280,"Ġfew":10281,"Ġextended":10282,"2033":10283,"fetchone":10284,")==":10285,"Ġproblems":10286,"ocial":10287,"Ġconflict":10288,"INVALID":10289,"Ġvol":10290,"Ġpprint":10291,"manifest":10292,"Center":10293,"413":10294,"Ġdy":10295,"ALLED":10296,"Ġsever":10297,"Tw":10298,"Plot":10299,"kein":10300,"Ġmouse":10301,"Ġroutines":10302,"Rep":10303,"1733":10304,"Ġstdin":10305,"lips":10306,"Cmd":10307,"Ġrestrict":10308,"lstrip":10309,"ĠTri":10310,"hg":10311,"priv":10312,"Ġsnapshot":10313,"Ġcounts":10314,"examples":10315,"Ġcare":10316,"ÃĥÂº":10317,"UNI":10318,"TagList":10319,"deri":10320,"['{%":10321,"Ġcompatible":10322,"Routing":10323,"spi":10324,"Insert":10325,"endor":10326,"ĠĠĠĠĠĠĠĠĠĠĠĠĠĠĠĠĠĠĠĠĠĠĠĠĠĠĠĠĠĊ":10327,"APPS":10328,"deps":10329,"Db":10330,"Pl":10331,"IFICATION":10332,"confir":10333,")(\\":10334,"ARMErrorFormat":10335,"STER":10336,"Ġser":10337,"ĉĉĠĠ":10338,"__))":10339,"Ġ(...)":10340,"kedirs":10341,"margin":10342,"Â¸Â¡":10343,"ĠMAX":10344,"iness":10345,"Symbol":10346,"Ġtargets":10347,"Ġegg":10348,"pyc":10349,"Times":10350,"Ġer":10351,"fh":10352,"Ġ'-'":10353,"Ġpipe":10354,"ĠTemplateSyntaxError":10355,"prod":10356,"Ġnamespaces":10357,"<=":10358,"Ġsamples":10359,"ues":10360,"Ġdialect":10361,"nz":10362,"',)),":10363,"Ġ\"(('":10364,"dae":10365,"ĠVAL":10366,"fullname":10367,"Ġnx":10368,"Â¥Âĩ":10369,"ĠnodeName":10370,":]:":10371,"ĠVector":10372,"DQ":10373,"071":10374,"lis":10375,"Ġgoing":10376,"435":10377,"poses":10378,"167807":10379,"etools":10380,"deprecated":10381,"Ġqn":10382,"1635":10383,"forma":10384,"Polygon":10385,"ĠAss":10386,"Ġreduce":10387,"Ġgreater":10388,"070":10389,"']\"})":10390,"ato":10391,"chdir":10392,"pipe":10393,"1672":10394,"ESC":10395,"ĠControl":10396,"SEQU":10397,"SETT":10398,"SU":10399,"ĠArguments":10400,"Ġ\"''\",":10401,"}\"":10402,"Ġdates":10403,"Events":10404,"erce":10405,"Ġshare":10406,"ancer":10407,"['_":10408,"Categoria":10409,"cies":10410,"ĠSta":10411,"991":10412,"${":10413,"Popen":10414,"Ġindicating":10415,"WM":10416,"started":10417,"Ġfollowed":10418,"Colour":10419,"Ġsteps":10420,"Setting":10421,"^\\":10422,"Ġconsidered":10423,"Â¸ÂĶ":10424,"editable":10425,"Done":10426,"ĠExtension":10427,"Signature":10428,"Ġadds":10429,"090":10430,"DEFINED":10431,"('\\\\":10432,"Ġboto":10433,"Ġcomparison":10434,"wizard":10435,"NMP":10436,"176886":10437,"Ġ\"&":10438,"Ġtile":10439,"vered":10440,"dates":10441,"Ġruntime":10442,"Ġdeferred":10443,"oracle":10444,"pd":10445,"rical":10446,"Short":10447,"pin":10448,"Ġ<=>":10449,"conv":10450,"Optional":10451,"GPL":10452,"Ġdimensions":10453,"FIL":10454,"queries":10455,"1656":10456,"decorators":10457,"Ġ_\\":10458,"ĠMain":10459,"deferred":10460,"Ġ\"\".":10461,"foreign":10462,"plt":10463,"ventory":10464,"**(":10465,"segment":10466,"Proto":10467,"==\"":10468,"tifications":10469,"incipal":10470,"Ġful":10471,"IndexError":10472,"Ġ|=":10473,"erature":10474,"kg":10475,"Ġ':'":10476,"XmlElement":10477,"coeffs":10478,"Ġshown":10479,"165364":10480,"ĠAtom":10481,"Ġsubstit":10482,"little":10483,"365":10484,"lectr":10485,"Ġsin":10486,"Limit":10487,"Ġevaluate":10488,"ĠPossible":10489,"xxxxxxxx":10490,"Pixel":10491,"ustr":10492,"ĠÃĻ":10493,"Ġanchor":10494,"Ġiteration":10495,"ĠFrame":10496,"DED":10497,"Ġserialized":10498,"SB":10499,"tls":10500,"There":10501,"receiver":10502,"ANY":10503,"VERTEX":10504,"ADMIN":10505,"Ġnb":10506,"Ġtools":10507,"ranges":10508,"initialize":10509,"wm":10510,"istic":10511,"Ġsrs":10512,"ĠFloat":10513,"lave":10514,"rh":10515,"Actions":10516,"Ġcast":10517,"CFG":10518,"assertIsInstance":10519,"Deserialize":10520,"ores":10521,"SGe":10522,"Ġdepends":10523,"ĠThey":10524,"specified":10525,"uites":10526,"plays":10527,"Ġsr":10528,"ays":10529,"MAIN":10530,"spawn":10531,"064":10532,"Zero":10533,"#:":10534,"172949":10535,"EVENT":10536,"Ġind":10537,"ĠALL":10538,"Ġrestart":10539,"'),)\",":10540,"310":10541,"credentials":10542,"iving":10543,"ecke":10544,"GetTypeId":10545,"utilities":10546,"Ġrpc":10547,"ECIAL":10548,"IDE":10549,"chool":10550,"jid":10551,"!'":10552,"fetchall":10553,"riginal":10554,"ORDER":10555,"minor":10556,"Ġimmediately":10557,"Ġspecification":10558,"sider":10559,"ball":10560,"latin":10561,"imen":10562,"sively":10563,"Â¤Â¤":10564,"ffb":10565,"Ġmagic":10566,"Ġtimer":10567,"Ġdeli":10568,"Ġstaticmethod":10569,"pagin":10570,"Mail":10571,"Ġ57":10572,"lerance":10573,"332":10574,".+":10575,"ĠGLint":10576,"ising":10577,"Ġparagraph":10578,"andbox":10579,"'\")":10580,"ĠNS":10581,"ĠWrite":10582,"hl":10583,"ĠĠĠĠĠĠĠĠĠĠĠĠĠĠĠĠĠĠĠĠĠĠĠĠĠĠĠĠĠĠĊ":10584,"269":10585,")':":10586,"TD":10587,"scr":10588,"dependencies":10589,"soup":10590,"Ġwhy":10591,"getcwd":10592,"Ġdetail":10593,"silent":10594,"ĠMicrosoft":10595,"Ġdrawing":10596,"Append":10597,"ToString":10598,"codename":10599,"1800":10600,"Ġhad":10601,"957":10602,"QUERY":10603,"IPS":10604,"ages":10605,"sigma":10606,"Users":10607,"ĠContentType":10608,"ÂģÂ¯":10609,"\">%":10610,"STATIC":10611,"dele":10612,"'(?":10613,"protected":10614,"Polling":10615,"roles":10616,"LROPoller":10617,"036":10618,"gid":10619,"xp":10620,"polation":10621,"ĠcStringIO":10622,"ecause":10623,"limits":10624,"FLO":10625,"EXP":10626,"Cy":10627,"ABC":10628,"ught":10629,"flavor":10630,"AGG":10631,"uffff":10632,"ERO":10633,"176286":10634,"bank":10635,"mtree":10636,"ĠHOLD":10637,"Interrupt":10638,"ĠApplication":10639,"ĠReport":10640,"ffa":10641,"Ġ87":10642,"Ġimplicit":10643,"WE":10644,"Ġjs":10645,"readed":10646,"1638":10647,"marks":10648,"/?":10649,"!\\":10650,"riteria":10651,"cognized":10652,"236":10653,"lio":10654,"ATOM":10655,"Ġmk":10656,"cx":10657,"Ġdns":10658,"027":10659,"Ġ02":10660,"ĠAttrMap":10661,"ĠrateCourse":10662,"Ġpoll":10663,"struc":10664,"scriber":10665,"Ġask":10666,"089":10667,"cldc":10668,"022":10669,"increment":10670,"AH":10671,"TOP":10672,"ullet":10673,"fid":10674,"opener":10675,"1723":10676,"WARNING":10677,"MARK":10678,"Ġfailures":10679,"ÂģÂĦ":10680,"legend":10681,"ftype":10682,"Ġserialize":10683,"756":10684,"fileobj":10685,"APH":10686,"loaders":10687,"Ġdiag":10688,"specs":10689,"KeyError":10690,"Ġrespon":10691,"DN":10692,"Ġwaiting":10693,"WPBED":10694,"Ġcomma":10695,"]')":10696,"65536":10697,"icsson":10698,"ĠResult":10699,"746":10700,"Ġduplicate":10701,"ĠNumeric":10702,"CEPT":10703,"openid":10704,"267":10705,"ĠGLuint":10706,"Ġ%}{%":10707,"Ġcover":10708,"ĠNe":10709,"543":10710,"heel":10711,"texture":10712,"Ġdx":10713,"declar":10714,"476":10715,"caten":10716,"796":10717,"vt":10718,"posix":10719,"Ġdefinitions":10720,"Ġfo":10721,"indered":10722,"fac":10723,"{\\":10724,"Ġlinear":10725,"Sync":10726,"BIT":10727,"jw":10728,"etter":10729,"allclose":10730,"Ġmar":10731,"ĠElementTree":10732,"ĠCa":10733,"rement":10734,"ĠTree":10735,"Ġpermitted":10736,"shutdown":10737,"herited":10738,"Ġlooking":10739,"ctl":10740,"SESSION":10741,"ĠFeed":10742,"termine":10743,"angul":10744,"Render":10745,"lain":10746,"7777":10747,"fully":10748,"AODSIM":10749,"PHA":10750,"Ġcoords":10751,"284":10752,"__[":10753,"Ġ94":10754,"both":10755,"Ġcm":10756,"unsigned":10757,"ĠPass":10758,"ÃĹÂĻÃĹÂ":10759,"Ġexpires":10760,"((\"":10761,"ĠPY":10762,"TRIBUT":10763,"Ġtransition":10764,"CLO":10765,"vl":10766,"vr":10767,"7200":10768,"Real":10769,"adtz":10770,"weekday":10771,"Ġgit":10772,"Ġ(),":10773,"Ġbg":10774,"'''})":10775,"BER":10776,"Eval":10777,"Ġfa":10778,"cade":10779,"Util":10780,"ĠOperator":10781,"attachment":10782,"2001":10783,"Ġcleanup":10784,"Ok":10785,"generacy":10786,"ĠMin":10787,"Ġproper":10788,"restore":10789,"166841":10790,"0000000":10791,"NEW":10792,"UBE":10793,"Ġ*_":10794,"ĠPDF":10795,"Ġ[(\"":10796,"ĠCurrent":10797,"Summer":10798,"Ġtell":10799,"Ġretrieved":10800,"guid":10801,"Ġcss":10802,"fromUtf":10803,"ĠPL":10804,"Ġef":10805,"alone":10806,"Ġequ":10807,"ĠFilter":10808,"contain":10809,"Ġgranted":10810,"596":10811,"Coord":10812,"symbols":10813,"viation":10814,"Angle":10815,"DL":10816,"adm":10817,"Ġhelpers":10818,"such":10819,"stime":10820,"rx":10821,"Car":10822,"ORK":10823,"stone":10824,"listener":10825,"QCD":10826,"ĠLINE":10827,"loss":10828,"undefined":10829,"Ġsrid":10830,"Phone":10831,"glet":10832,"700":10833,"Assign":10834,"Ġoverwrite":10835,"descr":10836,"Ġsleep":10837,"Ġresponses":10838,"ĠLibrary":10839,"BF":10840,"\";":10841,"within":10842,"gamma":10843,"Ġhighlight":10844,"seudo":10845,"morph":10846,"\"></":10847,">[":10848,"aper":10849,"YE":10850,")/(":10851,"Html":10852,"Scope":10853,"ixmap":10854,"Click":10855,"Ġfh":10856,"598":10857,"router":10858,"bn":10859,"ĠPunctuation":10860,"WIDTH":10861,"ĠPostGIS":10862,"Ġquoted":10863,"AAAAAAAAAAAAAAAA":10864,"pabilities":10865,"5555":10866,"Ġlogged":10867,"Ġzeros":10868,"Ġoutputs":10869,"degree":10870,"Ġhold":10871,"Ġlogic":10872,"written":10873,"UG":10874,"urlpatterns":10875,"Repository":10876,"logs":10877,"AIN":10878,"Ġ\"*":10879,"makedirs":10880,"1764":10881,"Â¸Â¢":10882,"tia":10883,"minutes":10884,"framework":10885,"TRIBUTORS":10886,"addresses":10887,"Ġidentify":10888,"ĠSER":10889,"Available":10890,"Ġcau":10891,":\")":10892,"Ġdigit":10893,"Ġ85":10894,"ĠCache":10895,"Ġ56":10896,"usters":10897,"-',":10898,"Ġadj":10899,"Ġreceive":10900,"nes":10901,"Ġaudio":10902,"DWMP":10903,"SCSMP":10904,"SCSNMP":10905,"OneToOneField":10906,"ĠTYPE":10907,"Ġinterfaces":10908,"avg":10909,"Ġmesh":10910,"178100":10911,"ij":10912,"Ġpercent":10913,"Ġorg":10914,"Sys":10915,"SUP":10916,"compiled":10917,"tistics":10918,"576":10919,"Ġrs":10920,"INDEX":10921,"ĠMis":10922,"Ġdegeneracy":10923,"Ġweights":10924,"ĠDetails":10925,"ĠCl":10926,"experiment":10927,"Ġappears":10928,"resolvers":10929,"prox":10930,"]|":10931,"Ġcgi":10932,"pf":10933,"azy":10934,"495":10935,"TraceSource":10936,"ĠThat":10937,"urope":10938,"tially":10939,"Ġgui":10940,"ByName":10941,"Â¥ÂĢ":10942,"ĠCA":10943,"ONLY":10944,"TagName":10945,"Ġteam":10946,"received":10947,"RT":10948,"chrX":10949,"Ġrecipient":10950,"Memory":10951,"ĠĠĠĠĠĠĠĠĠĠĠĠĠĠĠĠĠĠĠĠĠĠĠĠĠĠĠĠĠĠĠĊ":10952,"1999":10953,"ĠTemp":10954,"presented":10955,"Ġgetting":10956,"'%(":10957,"frequency":10958,"iprot":10959,"''')":10960,"ĠVER":10961,"Ġcho":10962,"Free":10963,"Ġtx":10964,"Ġinstallation":10965,"Ġ68":10966,"1715":10967,"does":10968,"hold":10969,"Ġmanually":10970,"pressRoute":10971,"Ġassignment":10972,"LM":10973,"2110":10974,"*,":10975,"fragment":10976,"ĠNAME":10977,"linux":10978,"Ġaccepts":10979,"Ġfixture":10980,"('__":10981,"GUI":10982,"xxx":10983,"Ġhack":10984,"quantity":10985,"Ġ*,":10986,"routing":10987,"ĠLabel":10988,"Subject":10989,"tabstop":10990,"450":10991,"ience":10992,"Ġendif":10993,"315":10994,"Ġthough":10995,"Ġpdf":10996,"ĠET":10997,"Ġcwd":10998,"265":10999,"ĠCFG":11000,"izations":11001,"Ġfab":11002,"Wait":11003,"Ġnl":11004,"ĠPlace":11005,"NORMAL":11006,"Cleanup":11007,"Ġsilent":11008,"ÃİÂºÃİ":11009,"Ġmapped":11010,"MG":11011,"partner":11012,"Identity":11013,"Ġforeign":11014,"Shape":11015,"Ġhaving":11016,"167898":11017,"ints":11018,"INSERT":11019,"spaces":11020,"Ġxs":11021,"Ġzipfile":11022,"mmutable":11023,"ĠOracle":11024,"STREAM":11025,"Ġservices":11026,"Ġlooks":11027,"ĠPrint":11028,"Ġvertex":11029,"gm":11030,"Ġ-->":11031,"SPON":11032,"ĠAP":11033,"ATTR":11034,"Constructor":11035,"ÂĮ_":11036,"Creates":11037,"WRITE":11038,"Ġcli":11039,"Ġ%%":11040,"sonyer":11041,"MIC":11042,"ENG":11043,"elcome":11044,"Win":11045,"IGNORE":11046,"ĠTraceback":11047,")``":11048,"Ġoperators":11049,"mgr":11050,"INDOW":11051,"Ġ88":11052,"sonyericsson":11053,"Ġche":11054,"||":11055,"Ġspecifying":11056,"TeX":11057,"Ġfreq":11058,"KEYWORD":11059,"1768":11060,"zon":11061,"Ġtrying":11062,"Ġhours":11063,"disconnect":11064,"DIRS":11065,"checkbox":11066,"Â¸\",":11067,"chunks":11068,"Ġfallback":11069,"headline":11070,"fÃĥ":11071,"ElementsBy":11072,"BD":11073,"Ġlatest":11074,"sizer":11075,"outputs":11076,"ĠDraw":11077,"069":11078,"ustomer":11079,"Ġcity":11080,"Ġphase":11081,"van":11082,"asc":11083,"cw":11084,"Ġupgrade":11085,"405":11086,"Ġdependency":11087,"548":11088,"ico":11089,"OBJECT":11090,"reload":11091,"ĠCONTRIBUTORS":11092,"verts":11093,"Ġseed":11094,"rdf":11095,"AtomBase":11096,"Ġmeth":11097,"Fill":11098,"RSA":11099,"Ġincrement":11100,"Release":11101,"positions":11102,"Ġfilesystem":11103,"TUR":11104,"poration":11105,"lte":11106,"scores":11107,"ĠBasic":11108,"$')":11109,"PTR":11110,"etry":11111,"bing":11112,"publisher":11113,"urations":11114,"Ġrestore":11115,"Ġgives":11116,"Ġformatting":11117,"edString":11118,"nswer":11119,"LINK":11120,"('/',":11121,"Operator":11122,"Ġ----------------------------------------------------------------":11123,"vd":11124,"319":11125,"dating":11126,"vided":11127,"ĠGD":11128,"0101":11129,"Segment":11130,"COOKIE":11131,"Ġwindows":11132,"jp":11133,"Ġtoday":11134,"REMO":11135,"atqz":11136,"287":11137,"GO":11138,"news":11139,"}},":11140,"Ġ[%":11141,"uncp":11142,"Ġlibraries":11143,"Ġss":11144,"llable":11145,"Ġstati":11146,"REC":11147,"Ġbib":11148,"ĠBar":11149,"ĠSince":11150,"ima":11151,"748":11152,"]'},":11153,"additional":11154,"Ġconsist":11155,"Ġstub":11156,"/.":11157,"Ġperformed":11158,"Try":11159,"Notify":11160,"Selected":11161,"amb":11162,"Sibling":11163,"Ġinteractive":11164,"077":11165,"pect":11166,"cpp":11167,"opro":11168,"levels":11169,"Stub":11170,"Div":11171,"comparison":11172,"ATURE":11173,"Validator":11174,"High":11175,"SF":11176,"HOME":11177,"Ġirc":11178,"088":11179,"Ġpol":11180,"Ġshall":11181,"dead":11182,"agers":11183,"055":11184,"Batch":11185,"Ġnose":11186,"Ġed":11187,"cells":11188,"++++":11189,"Ġpieces":11190,"parents":11191,"half":11192,"sizei":11193,"Ġplaceholder":11194,"kely":11195,"twisted":11196,"atalog":11197,"umen":11198,"SGIX":11199,"Ġleave":11200,"ĠProperty":11201,"ĠSim":11202,"Ġ2000":11203,"ĠWhether":11204,"TK":11205,"decl":11206,"Pay":11207,"nume":11208,"detect":11209,"Listener":11210,"Cap":11211,"Ġ\"\":":11212,"DecimalField":11213,"ĠParam":11214,"Ġspan":11215,"Ġdepending":11216,"Ġpanel":11217,"matched":11218,"318":11219,"Ġends":11220,"ĠCodec":11221,"386":11222,"Ġdecoded":11223,"Details":11224,"cards":11225,"Ci":11226,"cross":11227,"aign":11228,"ĠĠĠĠĠĠĠĠĠĠĠĠĠĠĠĠĠĠĠĠĠĠĠĠĠĠĠĠĠĠĠĠĊ":11229,"RUN":11230,"ars":11231,"Called":11232,"289":11233,"HF":11234,"jÃĥ":11235,"ANK":11236,"Ġblue":11237,"elve":11238,"Ġtzinfo":11239,"Processor":11240,"readsheets":11241,"Ġxy":11242,"IFIED":11243,"eting":11244,"tol":11245,"demo":11246,"ĠByte":11247,"ICK":11248,"ĠÃ¬":11249,"zph":11250,"Ġmodification":11251,"Den":11252,"xmlns":11253,"hooks":11254,"Ġaddition":11255,"1789":11256,"Ġnova":11257,"boardInterrupt":11258,",**":11259,"496":11260,"Ġ\"%(":11261,"Â±\",":11262,"Ġauthors":11263,"DLEWARE":11264,"];":11265,"Ġcut":11266,"male":11267,"Ġframework":11268,"()'":11269,"Ġarbitrary":11270,"Ġdistribute":11271,"Before":11272,"Ġvalidator":11273,"admi":11274,"`)":11275,"ĠMust":11276,"reactor":11277,"ĠHOLDERS":11278,"285":11279,"ala":11280,"modern":11281,"LAB":11282,"general":11283,"ELE":11284,"+)/":11285,"vin":11286,"Asc":11287,"355":11288,"Ġmechan":11289,"Ġcopied":11290,"Ġ302":11291,"metrics":11292,"checks":11293,"Ġissubclass":11294,"Ġmiddle":11295,"313":11296,"Ġattrib":11297,"CASE":11298,"crypto":11299,"feat":11300,"Generate":11301,"BAD":11302,"Ġlost":11303,"atan":11304,"ĠCookie":11305,"MESSAGE":11306,"ĠTIME":11307,"fixtures":11308,"Ġ---":11309,"Tick":11310,"ĠSET":11311,"retch":11312,"Ġstatist":11313,";&":11314,"zo":11315,"abcdef":11316,"(\"_":11317,"ĠPa":11318,"PASSWORD":11319,"sitemap":11320,"1668":11321,"UV":11322,"iden":11323,"Ġticket":11324,"Ġpartition":11325,"weights":11326,"Yes":11327,"=_(\"":11328,"Ġ2001":11329,"Utils":11330,"Certificate":11331,"ares":11332,"km":11333,"Ġbasename":11334,"mediate":11335,"challenge":11336,"Monitor":11337,"Ġcells":11338,"via":11339,"floor":11340,"ĠCp":11341,"Ġfrequency":11342,"Ap":11343,"Ġ69":11344,"sie":11345,"092":11346,"Ġnargs":11347,"san":11348,"Ġretain":11349,"Ġpb":11350,"paque":11351,"Ġcnt":11352,"VS":11353,"rg":11354,"ĠPe":11355,"Ġlevels":11356,"Ġidentifi":11357,"Â¨\",":11358,"Ġident":11359,"directories":11360,"versity":11361,"algorithm":11362,"efficients":11363,"aptor":11364,"Ġdescribed":11365,"Ġlanguages":11366,"FORMS":11367,"ĠDeleting":11368,"Leg":11369,"ĠVariables":11370,"serializer":11371,"tan":11372,"'')":11373,"remaining":11374,"Ġassumed":11375,"converter":11376,"ĠLocation":11377,"Ġprece":11378,"4444":11379,"Ġevt":11380,"Ġincre":11381,"166438":11382,"defer":11383,"Ġmovie":11384,"ACC":11385,"ĠONE":11386,"DEP":11387,"anonymous":11388,"########################":11389,"412":11390,"ĠDistutils":11391,"xpath":11392,"::-":11393,"Ġdim":11394,"ussian":11395,"ĠTeam":11396,"testuser":11397,"starter":11398,"lecule":11399,"Ġcost":11400,"Authorization":11401,"birth":11402,"viding":11403,"noop":11404,"Ġ\"\\\\":11405,"364":11406,"CODING":11407,"Ġpypy":11408,"Multicast":11409,"ills":11410,"Ġapplications":11411,"Ġenc":11412,"Ġgreen":11413,"kl":11414,"Ġsecure":11415,"Theme":11416,"Â¸Âļ":11417,"SCHE":11418,"alo":11419,"/\\":11420,"Ġinserted":11421,"DU":11422,"REL":11423,"FIRST":11424,"Actor":11425,"900":11426,"://%":11427,"ĠPolygon":11428,"Programming":11429,"758":11430,"Ġever":11431,"fic":11432,"Progress":11433,"perms":11434,"hh":11435,"decoding":11436,"getElementsBy":11437,"IFICATIONS":11438,"tention":11439,"ĠTEXT":11440,"AUTHOR":11441,"Ġrefresh":11442,"astype":11443,"Ġdecla":11444,"owski":11445,"AddressValue":11446,"UUID":11447,"Ġcms":11448,"SETTINGS":11449,"highlight":11450,"1710":11451,"you":11452,"Ġscopes":11453,"Ġrenderer":11454,"<!":11455,"Ġsolution":11456,"Game":11457,"associ":11458,"Ġsigned":11459,"Ġeg":11460,"acodec":11461,"hard":11462,"acon":11463,"arest":11464,"166922":11465,"IFT":11466,"colour":11467,"Ġroutine":11468,"ĠUNDEFINED":11469,"MF":11470,"Scan":11471,"alter":11472,"ickness":11473,"ĠAttrMapValue":11474,"shal":11475,"tivi":11476,"memo":11477,"measure":11478,"BIN":11479,"Ġcos":11480,"decorator":11481,"8601":11482,"ElementTree":11483,"1795":11484,"para":11485,"fort":11486,"rem":11487,"Edge":11488,"friend":11489,":')":11490,"ropy":11491,"paste":11492,"ĠCategory":11493,"AttributeError":11494,"Â¸Â±":11495,"PrefixedString":11496,"Â¤Â¦":11497,"ENSION":11498,"Ġmasked":11499,"\"\"\"\"":11500,"ALF":11501,"Creation":11502,"'\"},":11503,"Off":11504,"Ġque":11505,"__'):":11506,"ĠSequence":11507,"FAIL":11508,"Ba":11509,"station":11510,"793":11511,"ASCII":11512,"Ġbroken":11513,"Ġ'</":11514,"165570":11515,"IPV":11516,"PACK":11517,"ĠContact":11518,"Shell":11519,"drag":11520,"fied":11521,"ĉĉĠĠĠ":11522,"RR":11523,"ĠAdditional":11524,"macro":11525,"ILDE":11526,"Ġparents":11527,"Ġ63":11528,"Software":11529,"NotImplemented":11530,"Ġphone":11531,"ĠIncrement":11532,"samp":11533,"IEW":11534,"ament":11535,"Ġps":11536,"anted":11537,"ongs":11538,"docstring":11539,"Join":11540,"INET":11541,"ĠBRACKET":11542,"TAGS":11543,"External":11544,"Â¸Â¥":11545,"Ġreversed":11546,"ancestor":11547,"aking":11548,"apis":11549,"ĠMIME":11550,"ĠPlugin":11551,"Place":11552,",'.':":11553,"Ġfileobj":11554,"Ġmigration":11555,"going":11556,"RESS":11557,"Ġtries":11558,"buildout":11559,"750":11560,"LANGUAGE":11561,"Ġ\\\"":11562,"LV":11563,"IENT":11564,"Ġready":11565,"Ġcontributors":11566,"ĠAccess":11567,"Bro":11568,"753":11569,"charmap":11570,"Ġpiece":11571,"ĠCOL":11572,"Ġregistration":11573,"CLASSES":11574,"ĠNotes":11575,"phonic":11576,"ctrl":11577,").\"\"\"":11578,"Ġoccurs":11579,"Ġnetloc":11580,"ĠDescri":11581,"ĠBlock":11582,"presents":11583,"rotate":11584,"PARAMET":11585,"ippet":11586,"xsd":11587,"OID":11588,"regexp":11589,"wik":11590,"orrent":11591,"Ġtransfer":11592,"Ġnextchar":11593,"Mesh":11594,"='/":11595,"Ġfloating":11596,"NUMERIC":11597,"INGE":11598,"subnet":11599,"spective":11600,"Chart":11601,"nm":11602,"Ġproduce":11603,"Your":11604,"]/":11605,"ners":11606,"ÃĹÂ©":11607,"seg":11608,"Ġpred":11609,"supports":11610,"globs":11611,"prime":11612,"))]":11613,"onds":11614,"Ġcompression":11615,"sizes":11616,"ĠCorporation":11617,"Radio":11618,"variant":11619,"Ġeff":11620,"compound":11621,"FRINGE":11622,"ÂĥÂĪ":11623,"lications":11624,"Ġseveral":11625,"alen":11626,"Ġcome":11627,"USED":11628,"Unexpected":11629,"nsup":11630,"validator":11631,"interpre":11632,"ĠEngine":11633,"Ġothers":11634,"Interval":11635,"pot":11636,"tet":11637,"idle":11638,"ifth":11639,"alive":11640,"alls":11641,"subtype":11642,"authenticated":11643,"Ġbuilding":11644,"!',":11645,"772":11646,"swap":11647,"stage":11648,"polyphonic":11649,"dictionary":11650,"Ġmemcache":11651,"Ġmaking":11652,"ĠHere":11653,"Â¤ÂĤ":11654,"166699":11655,"PacketMetadata":11656,"Ġ53":11657,"Ġtornado":11658,"orse":11659,"three":11660,"Topic":11661,"SGeometry":11662,"wind":11663,"subtitle":11664,"ĉĠĠĠĠ":11665,"ĠApple":11666,"Signal":11667,"Ġindicate":11668,"Ġjobs":11669,"upgrade":11670,"Ġpd":11671,"SmallIntegerField":11672,"continuation":11673,"///":11674,"Ġpositions":11675,"olve":11676,"ĠVirtual":11677,"INF":11678,"ĠDOT":11679,"superuser":11680,"Ġvalidators":11681,"Ġinitialization":11682,"=(),":11683,"Ġrhs":11684,"unce":11685,"Ġprops":11686,":].":11687,"launch":11688,"FRINGEMENT":11689,"Ġunused":11690,"runtime":11691,"delivery":11692,"Ġnormalized":11693,"2017":11694,"Ġmaybe":11695,"ĠSetting":11696,"Ġ%.":11697,"[]":11698,"######################################################################":11699,"interactive":11700,"Ġscripts":11701,"han":11702,"finder":11703,"threading":11704,"ĠArray":11705,"ĠZSI":11706,"ĠÃł":11707,"Running":11708,"camp":11709,"udge":11710,"Ġmanage":11711,"\"]]":11712,"ĠAllow":11713,"annotation":11714,"mpeg":11715,"Ġmanual":11716,"ĠNameError":11717,"Power":11718,"?)":11719,"caption":11720,"igure":11721,"Ġendfor":11722,"atever":11723,"ĠCalled":11724,"dims":11725,"consume":11726,"thia":11727,"locked":11728,"593":11729,"']=":11730,"Ġimportant":11731,"tency":11732,"ardown":11733,"ÂģÂ§":11734,"432":11735,"ĠJOIN":11736,"((-":11737,"chat":11738,"circle":11739,"TestRunner":11740,"14400":11741,"ador":11742,"ĠCommandError":11743,"Ġ('',":11744,"Ġadjust":11745,"fice":11746,"PARE":11747,"catch":11748,"ĠAbstract":11749,"020":11750,"SPONSE":11751,"analysis":11752,"Ġbbox":11753,"Ġ``'":11754,"1178":11755,"ĠThread":11756,"ranklin":11757,"Groups":11758,"constraints":11759,"ici":11760,"Fil":11761,"ĠBut":11762,"QUARE":11763,"Ġaccepted":11764,"ĠDeprecationWarning":11765,"ulse":11766,"ased":11767,"Ġbundle":11768,"EF":11769,"SECRE":11770,"ĠUti":11771,";')":11772,"Blob":11773,"uggest":11774,"ĠCreates":11775,"Ġtogether":11776,"ĠGenerate":11777,"ĠFrom":11778,"RequestContext":11779,"Â¤Â¯":11780,"Combo":11781,"caller":11782,"OUTPUT":11783,"2002":11784,"Ġacross":11785,"AUT":11786,"even":11787,"migration":11788,"gout":11789,"\")]":11790,"AU":11791,"something":11792,"Self":11793,"ighbor":11794,"Ġcompleted":11795,"Ġchannels":11796,"ida":11797,"sequent":11798,"law":11799,"Ġpow":11800,"Ġpdb":11801,"618":11802,"uro":11803,"ĠMigration":11804,"Ġreadonly":11805,"DEC":11806,"parame":11807,"bsolute":11808,"ĠMODIFICATIONS":11809,"vlc":11810,"Ġdepart":11811,"ĠDISCLA":11812,"GRAM":11813,"ĠTILDE":11814,"ĠAddress":11815,"uu":11816,"prob":11817,"manual":11818,"journal":11819,"helpers":11820,"ĠNON":11821,"arily":11822,"Ġtick":11823,"DIFF":11824,"recursive":11825,"1794":11826,"087":11827,"RON":11828,"ictionaries":11829,"eto":11830,"578":11831,"ĠASCII":11832,"\"]),":11833,"ATI":11834,"large":11835,"Ġfar":11836,"ĠSUC":11837,"renderer":11838,"/<":11839,"atoms":11840,"Ġalloc":11841,"Ġsymme":11842,"([],":11843,"fileName":11844,"771":11845,"normpath":11846,"Ġgateway":11847,"average":11848,"Methods":11849,"/-":11850,"ocab":11851,"Ġcharge":11852,"Ġfunctools":11853,"mix":11854,"Ġreceiver":11855,"Ġdelimiter":11856,"Ġ58":11857,"Aggregate":11858,"questions":11859,"Registration":11860,"gge":11861,"FROM":11862,"Ġ41":11863,"]+',":11864,"wave":11865,"458":11866,"Bitmap":11867,"ĠExtended":11868,"ĠEnsure":11869,";\",":11870,"lig":11871,"ety":11872,"ÃİÂµÃı":11873,"415":11874,"mooth":11875,"Ġboot":11876,"CN":11877,"ĠSets":11878,"INSTALLED":11879,"Ġcrypto":11880,"Elem":11881,"fq":11882,"Ġ52":11883,"fft":11884,"ÃĹÂĹ":11885,"communic":11886,"Ġpositional":11887,"={\"":11888,"IK":11889,"Lost":11890,"ICAgICAg":11891,"Ġcolour":11892,"Ġfamily":11893,"nv":11894,"Ġtp":11895,"brack":11896,"ĠCONNECTION":11897,"City":11898,"Ġskipped":11899,"Ġencodings":11900,"undo":11901,"ey":11902,"Ġ101":11903,"Ġnotes":11904,"Ġ127":11905,"Ġmimetypes":11906,"aming":11907,"Dummy":11908,"ragma":11909,"743":11910,"getAttribute":11911,"Contents":11912,"Ġfullname":11913,"square":11914,"truncate":11915,"directed":11916,"436":11917,"History":11918,"jected":11919,"tributor":11920,"}$',":11921,"passwd":11922,"...'":11923,"=_('":11924,"FieldDescriptor":11925,"ĠPR":11926,"Ġtk":11927,"Ġpis":11928,"uclide":11929,"266":11930,"lets":11931,"Ġ82":11932,"elt":11933,"ticip":11934,"Ġ66":11935,"Ġfour":11936,"jang":11937,"creator":11938,"ndic":11939,"robot":11940,"ĠUsage":11941,"Ġmacro":11942,"ley":11943,"Ġ2003":11944,"players":11945,"your":11946,"ENCODING":11947,"politics":11948,"Traceback":11949,"Â¸Â§":11950,"Ġbounds":11951,"']},":11952,"ĠARE":11953,"joint":11954,"Ġrecom":11955,"ĠUnion":11956,"}')":11957,"ĠVerify":11958,"notification":11959,"TIMEOUT":11960,"GLuint":11961,"Replace":11962,"todo":11963,"spose":11964,"ĠInternal":11965,"ĠRegex":11966,"Ġ\"\"\")":11967,"nsupported":11968,"SECRET":11969,"Ġprocesses":11970,"aker":11971,"look":11972,"IMAL":11973,"Ġent":11974,"NodeContainer":11975,"Big":11976,"stra":11977,"PLAY":11978,"Registry":11979,"around":11980,"ĠSphinx":11981,"166554":11982,"edited":11983,"TX":11984,"aches":11985,"minimum":11986,"identifiers":11987,"ĠNeed":11988,"blah":11989,"ĠEl":11990,"Ġaverage":11991,"pretty":11992,"^-":11993,"unexpected":11994,"ĠComponent":11995,"Ġpeople":11996,"wikipedia":11997,"WINDOW":11998,"Â´\",":11999,"Driver":12000,"ĠSettings":12001,"Ġcalc":12002,"ObjectBase":12003,"084":12004,"Ġterminal":12005,"ĠSave":12006,"2022":12007,"Ġproducts":12008,"CENTER":12009,"iny":12010,"mox":12011,"ĠERROR":12012,"authorized":12013,"Ġ''))":12014,"442":12015,"curve":12016,"Dispatch":12017,"Attrib":12018,"Ġgetopt":12019,"oting":12020,"More":12021,"georgia":12022,"Ġnotification":12023,"ÂĨ\",":12024,"LF":12025,"Analy":12026,"Ġba":12027,"checke":12028,"('^":12029,"celer":12030,"ĠABO":12031,"ĠRecord":12032,"FLOAT":12033,"twitter":12034,"Bool":12035,"178098":12036,"GGGG":12037,"ĠSeries":12038,"Ġpsycopg":12039,"ency":12040,"Ġproduction":12041,"CONST":12042,"front":12043,"Ġpygments":12044,"ĠABOVE":12045,"Ġunexpected":12046,"Ġratio":12047,"Ġ'|":12048,"Ġwalk":12049,"needs":12050,"cannot":12051,"ĠClear":12052,"Ġsan":12053,"lapse":12054,"When":12055,"mutation":12056,"742":12057,"explicit":12058,"makeSuite":12059,"olynomial":12060,"ĠDoes":12061,"Ġmeasure":12062,"030":12063,"DH":12064,"612":12065,"Ġletters":12066,"nav":12067,"ĠCAR":12068,"Extent":12069,"'*":12070,"funcs":12071,"kickstarter":12072,"Ġptr":12073,"Ġ180":12074,"ITER":12075,"OUS":12076,"pause":12077,"Members":12078,"NumberField":12079,"172400":12080,"Bal":12081,"Ġ89":12082,"Ġclock":12083,"Ġgzip":12084,"ĠFranklin":12085,"readable":12086,"Ġyaml":12087,"Ġdash":12088,"sky":12089,"Attach":12090,"manent":12091,"Lite":12092,"ĠAg":12093,"ĉĉĉĉĉĉĉ":12094,"ENC":12095,"Ġrepresented":12096,"daemon":12097,"apsed":12098,"Distribution":12099,"Prober":12100,"Ġclip":12101,"ObjectFactory":12102,"Ġstyles":12103,"ĠAli":12104,"Ġem":12105,"Ġbpy":12106,"ModelForm":12107,"popen":12108,"Ġmarkers":12109,"UA":12110,"OPTIONS":12111,"ĠOptionParser":12112,"modernpolitics":12113,"extended":12114,"mitive":12115,"542":12116,"Ġtrim":12117,"mÃĥ":12118,"Ġpnt":12119,"Ġopened":12120,"material":12121,"nova":12122,"Ġencoder":12123,"163817":12124,"workflow":12125,"Disk":12126,"Ġinvoked":12127,"paren":12128,"Ġmicro":12129,"2016":12130,"Ġlittle":12131,"PDF":12132,"coordinates":12133,"Ġrelevant":12134,"Ġsuitable":12135,"WB":12136,"yield":12137,"Peer":12138,"!')":12139,"andidates":12140,"ĠXSData":12141,"Ġdeserializer":12142,"getElementsByTagName":12143,"ierarchy":12144,"don":12145,"Ġdu":12146,"166049":12147,"prom":12148,"ĠMag":12149,"+(":12150,"arante":12151,"316":12152,"Ġrealm":12153,"$'":12154,"Username":12155,"Translation":12156,"Ġlimits":12157,"Series":12158,"pnfs":12159,"Ġfilepath":12160,"GLenum":12161,"Ġthird":12162,"ĠDateTime":12163,"Ġutility":12164,"unquote":12165,"foobar":12166,"ĠFloor":12167,"LEN":12168,"UPDATE":12169,"ĠWri":12170,"hp":12171,"Ġ[{'":12172,"dented":12173,"deg":12174,"bins":12175,"dry":12176,"ÂĶÂ¨":12177,"syn":12178,"scopes":12179,"APolynomial":12180,"hest":12181,"Fixed":12182,"ĠNASAPolynomial":12183,"lengthString":12184,"expire":12185,"ingerprint":12186,"GY":12187,"MASK":12188,"1307":12189,"Ġnormally":12190,"Cla":12191,"WSGI":12192,"ĠProducts":12193,"review":12194,"Ġfun":12195,"ELEMENT":12196,"MIDDLEWARE":12197,"385":12198,"mended":12199,"Ġclosing":12200,"lgdal":12201,"disc":12202,"414":12203,"alternate":12204,"fla":12205,"ariant":12206,"Marker":12207,"retri":12208,"172952":12209,"Za":12210,"hood":12211,"bio":12212,"Ġplus":12213,"ufffe":12214,"Paged":12215,"770":12216,"Ġphi":12217,"\">\\":12218,"Ġmanaged":12219,"Hy":12220,"caps":12221,"DER":12222,"VIS":12223,"ĠTesting":12224,"delitem":12225,"Ġsublime":12226,"Ġ'@":12227,"sound":12228,"joined":12229,"BinaryProtocol":12230,"NL":12231,"radient":12232,"energy":12233,"abi":12234,"enume":12235,"Ġrename":12236,"389":12237,"cz":12238,"mad":12239,"Ġstrftime":12240,"Ġtol":12241,"Ġcpp":12242,"Ġmen":12243,"ĠRequestContext":12244,"Ck":12245,"Ġmaintain":12246,"visor":12247,"tempt":12248,"ĠNet":12249,"ĠSc":12250,"ĠFl":12251,"=_(":12252,"Ġpreviously":12253,"ĠGDAL":12254,"people":12255,"STOP":12256,"dimensions":12257,"?\"":12258,"Ġ02110":12259,"Ġaccessed":12260,"reporter":12261,"alert":12262,"Slug":12263,"uncated":12264,"ĠSend":12265,"Ġsquare":12266,"TEGER":12267,"Ġintro":12268,"HA":12269,"Ġbackends":12270,"631":12271,"1234567":12272,"oppi":12273,"Ġcleaned":12274,"Ġ-.":12275,"Ġlisted":12276,"glGet":12277,"ĠMED":12278,"])[":12279,"ĠFeature":12280,"Ġpp":12281,"Background":12282,"crypted":12283,"1714":12284,"Ġbal":12285,"ENTIAL":12286,"uffle":12287,"380":12288,"mw":12289,"Canvas":12290,"ups":12291,"allery":12292,"filenames":12293,"spot":12294,"ENV":12295,"Ġroll":12296,"EMPTY":12297,"Ġauthorization":12298,"Ġship":12299,"ĠRO":12300,"inch":12301,"ĠED":12302,"latform":12303,"eh":12304,"checkequal":12305,"Ġflatten":12306,"Ġcen":12307,"085":12308,"HR":12309,"976":12310,"Ġargparse":12311,"Rotor":12312,"positive":12313,"imag":12314,"Ġcompress":12315,"067":12316,"LOB":12317,"frac":12318,")>":12319,"Enc":12320,"wkb":12321,"956":12322,"phabet":12323,"ZSI":12324,"Ġgrammar":12325,"Hub":12326,"ĠThen":12327,"(\"\")":12328,"DK":12329,"Ġbounding":12330,"assertContains":12331,"Cluster":12332,"Kind":12333,"Reason":12334,"ÃĺÂªÃĻ":12335,"hasattr":12336,"ĠRule":12337,"pability":12338,"Ġreadline":12339,"oct":12340,"ldap":12341,"Ġprefixes":12342,"Ġmajor":12343,"wimax":12344,"silon":12345,"Ġcanonical":12346,"399":12347,"['__":12348,"Ġpermit":12349,"Ġ-----":12350,"failIf":12351,"Alias":12352,"zed":12353,"guess":12354,"countered":12355,"Ġsubmit":12356,"ajax":12357,"Ġconnector":12358,"invoice":12359,"will":12360,"ĠPassword":12361,"ĠTer":12362,"literals":12363,"plier":12364,"former":12365,"Ġtex":12366,"PREC":12367,"riterion":12368,"Ġpurposes":12369,"removed":12370,"Ġwraps":12371,"ĠEnum":12372,"quis":12373,"minus":12374,"(':')":12375,"WORK":12376,"LATIN":12377,"Cert":12378,"498":12379,"Face":12380,"369":12381,"367":12382,"Ġhereby":12383,"quality":12384,"419":12385,"Ġ*/":12386,"ĠTwisted":12387,"ramid":12388,"Ġ'$\\\\":12389,"BT":12390,"adjust":12391,"leave":12392,"Ġpay":12393,"Â¤Â®":12394,"graphics":12395,"ĠPER":12396,"avor":12397,"oney":12398,"haviour":12399,"065":12400,"*)":12401,"inspect":12402,"ĠWorld":12403,"Keep":12404,"Ġrequirement":12405,"physi":12406,"478":12407,"Question":12408,"Ġweakref":12409,"HAS":12410,"Sort":12411,"distinct":12412,"ĠFifth":12413,"maximum":12414,"locator":12415,"Spectrum":12416,"kd":12417,"notation":12418,"###############################################################################":12419,"ĠIDE":12420,"ĠFreeQ":12421,"Ġlinked":12422,"Ġcomes":12423,"ĠSafe":12424,"':'*":12425,"Ġpurpose":12426,"PROTOCOL":12427,"282":12428,"titions":12429,"1678":12430,"markdown":12431,"Hex":12432,"Ġ('/":12433,"tein":12434,"Ġwhite":12435,"!!!!!!!!":12436,"SUN":12437,"]?":12438,"ostream":12439,"}'}":12440,"tica":12441,"Ġsubset":12442,"kml":12443,"ĠFL":12444,"QSize":12445,"Ġphoto":12446,"ĠMatch":12447,"HttpRequest":12448,"Ġfilled":12449,"uplicates":12450,"Capt":12451,"ĠĠĠĠĠĠĠĠĠĠĠĠĠĠĠĠĠĠĠĠĠĠĠĠĠĠĠĠĠĠĠĠĠĊ":12452,"always":12453,"ACH":12454,"424":12455,"lody":12456,"LookupTable":12457,"Ġplatforms":12458,"subplot":12459,"Calendar":12460,"387":12461,"Ġ=================================================================":12462,"ClassFrom":12463,"utoff":12464,"existent":12465,"Chars":12466,"rsa":12467,"Revision":12468,"Ġbeta":12469,"TestsFrom":12470,"Ġextent":12471,"hyper":12472,"neu":12473,"Ġ``__":12474,"ĠManagement":12475,"))/":12476,"Hand":12477,"pioppi":12478,"idom":12479,"msgs":12480,"documents":12481,"ordinate":12482,"Related":12483,"fidence":12484,"2015":12485,"1677":12486,".\"))":12487,"Ġsurface":12488,"Ġmeaning":12489,"Renderer":12490,"capi":12491,"177201":12492,"LIMIT":12493,"vote":12494,"425":12495,"basis":12496,"540":12497,"Ġstrategy":12498,"parsers":12499,"nodeType":12500,"bt":12501,"Ġprox":12502,"ara":12503,"EPSG":12504,"Ġrepl":12505,"ndarray":12506,"orientation":12507,"Separ":12508,"Ġinstruction":12509,"ĠINPUT":12510,"ĠHelper":12511,"958":12512,"collections":12513,"ĠUsing":12514,"Ġcombined":12515,"Ġnume":12516,"Ġhi":12517,"modes":12518,"Verify":12519,"tracker":12520,"Ġresolution":12521,"postgresql":12522,"Ġaff":12523,"639":12524,"Ġpylab":12525,"Ġseparated":12526,"middle":12527,"LIB":12528,"Â¸Â´":12529,":#":12530,"Ġvs":12531,"produce":12532,"ICODE":12533,"ENGINE":12534,"BEGIN":12535,"gate":12536,"osv":12537,"RF":12538,"aciÃĥ":12539,"CEP":12540,"WITH":12541,"vertices":12542,"317":12543,"contacts":12544,"LAY":12545,"Ġnstime":12546,"0003":12547,"imension":12548,"dcap":12549,"ĠExpression":12550,"Fri":12551,"('{":12552,"ĠSHA":12553,"Ġsoft":12554,"tuples":12555,"Ġwatch":12556,"Ġmonitor":12557,"Ġfrag":12558,"Ġdead":12559,"tif":12560,"Ġappended":12561,"Counter":12562,"Ġoverrides":12563,"wv":12564,"ĠInterface":12565,"Ġ330":12566,"cases":12567,"Ġpg":12568,"Ġpc":12569,"ĠWord":12570,"quick":12571,"ĠGO":12572,"Ġmodname":12573,"wk":12574,"ĠGEOSGeometry":12575,"ĠYouTube":12576,"Ġdocutils":12577,"aux":12578,"DOT":12579,"Ġquick":12580,"RandomVariable":12581,"ĠDirect":12582,"ĠSchema":12583,"metric":12584,"ELL":12585,"Two":12586,"410":12587,"ÃĮ":12588,"083":12589,"407":12590,"chi":12591,"onen":12592,"TZ":12593,"ĠBeautifulSoup":12594,"Ġsheet":12595,"ighest":12596,"cov":12597,"Ġfore":12598,"Jets":12599,"between":12600,"978":12601,"Ġmoved":12602,"sktop":12603,"urton":12604,"lexers":12605,"Ġdaemon":12606,"ĠINC":12607,"Ġindentation":12608,"rotation":12609,"Paths":12610,"Ġhide":12611,"ĠOGRGeometry":12612,"752":12613,"cident":12614,"rundb":12615,"066":12616,"Ġ72":12617,"sal":12618,"Ġprice":12619,"asarray":12620,"EVER":12621,"pic":12622,"buttons":12623,"^{":12624,"Ġmanifest":12625,"Ġkill":12626,"ought":12627,"inel":12628,"STIT":12629,"Fake":12630,"rmtree":12631,"=')":12632,"592":12633,"Ġmarked":12634,"Ġho":12635,"iel":12636,"ĠCSS":12637,"Idx":12638,"Execute":12639,"recipient":12640,"MEN":12641,"Ġincoming":12642,"Detail":12643,"Ġfully":12644,"Ġrefer":12645,"GP":12646,"structed":12647,"Ġprocessor":12648,"ĠJavaScript":12649,"0004":12650,"Summary":12651,"peek":12652,"languages":12653,"CUMENT":12654,"Ġiniti":12655,"ĠMany":12656,"BzBz":12657,"ĠBit":12658,"Ġgeneration":12659,"calculate":12660,"Ġtyping":12661,"ĠGetting":12662,"ĠPAT":12663,"Ma":12664,"ndim":12665,"Had":12666,"callbacks":12667,"lp":12668,"PROCESS":12669,"792":12670,"Ġ('-":12671,"jinja":12672,"Ġstacklevel":12673,"10800":12674,"\\\\\\\\":12675,"ffic":12676,"arger":12677,";</":12678,"hits":12679,"Ġtabs":12680,"Stat":12681,"realm":12682,"Ġchoose":12683,"Ġfiltered":12684,"grams":12685,"subscribe":12686,"Ġupon":12687,"Ġaway":12688,"Ġ[]],":12689,"PyObject":12690,"sÃĥ":12691,"Ġtopo":12692,"beat":12693,"ÂģÂŁ":12694,"placeholder":12695,"ĠGenerator":12696,"Gu":12697,"([('":12698,"946":12699,"Escape":12700,"Ġhappens":12701,"Ġartist":12702,"ILED":12703,"Ġperformance":12704,"ann":12705,"imelody":12706,"djang":12707,"Ġlab":12708,"1726":12709,"Ġminor":12710,"DP":12711,"Ġinterest":12712,"ĠReplace":12713,"pyclass":12714,"ĠTkinter":12715,"too":12716,"Ġseek":12717,"udi":12718,"dup":12719,"QT":12720,"grityError":12721,"sublime":12722,"ras":12723,"Ġcf":12724,"ĠINTER":12725,"Reactor":12726,"453":12727,"Ġvertices":12728,"ĠESC":12729,"ium":12730,"BuildTag":12731,"trim":12732,"601":12733,"CTT":12734,"Ġ120":12735,"Ġdecoder":12736,"AMP":12737,"BuildTagLookupTable":12738,"payment":12739,"Ġactivity":12740,"437":12741,"ChoiceField":12742,"(\".":12743,"Fire":12744,"olding":12745,"Ġasyn":12746,"DJ":12747,"Ġdestroy":12748,"Ġpersons":12749,"Ġ123":12750,"172033":12751,"ĠAttributes":12752,"Ġcurve":12753,"zzzz":12754,"ĠcPickle":12755,"Ġblack":12756,"udit":12757,"Ġdictionaries":12758,"Temporary":12759,"learn":12760,"vest":12761,"Destroy":12762,"ĠĠĠĠĠĠĠĠĠĠĠĠĠĠĠĠĠĠĠĠĠĠĠĠĠĠĠĠĠĠĠĠĠĠĊ":12763,"prof":12764,"interes":12765,"Ġregard":12766,"NP":12767,"Ġrepeat":12768,"ĠWKT":12769,"Ġoccurred":12770,"gap":12771,"ĠINTO":12772,"Ġther":12773,"gregates":12774,"__')":12775,"dw":12776,"Ġcent":12777,"ĠTOK":12778,"Radius":12779,"stylesheet":12780,"tcp":12781,"XK":12782,"velopers":12783,"EEK":12784,"Quick":12785,"onom":12786,"loyee":12787,"Ġmetric":12788,"ĠNUMBER":12789,"ĠOFT":12790,"ester":12791,"(\"!":12792,"rez":12793,"FRAME":12794,"Initialize":12795,"life":12796,"Ġshard":12797,"shi":12798,"CURE":12799,"Ġcond":12800,"Ascii":12801,"ĠStore":12802,"Ġembedded":12803,"Ġnotify":12804,"Ġlogs":12805,"STITUTE":12806,"ĠPIL":12807,"RESPONSE":12808,"Builtin":12809,"Ġissues":12810,"Cb":12811,"541":12812,"Ġimplementations":12813,"mv":12814,"sx":12815,"Infinity":12816,"ĠClo":12817,"ĠDebug":12818,"ĠInitialize":12819,"pagate":12820,"Â°\"]":12821,"Ġperm":12822,"Ġconfirm":12823,"ParseError":12824,"Ġrendering":12825,"XMLString":12826,"ignored":12827,"Ġtraining":12828,"Ġsli":12829,"dburton":12830,"441":12831,"WGL":12832,"ĠImple":12833,"ĉĠĠĠĠĠ":12834,"cessible":12835,"Ġ--------------------------------------------------------------------------":12836,"ĠBrowser":12837,"Asia":12838,"Ġpacked":12839,"enerated":12840,"glVertex":12841,"RS":12842,"ZX":12843,"updates":12844,"Ġwave":12845,"ALOG":12846,"picture":12847,"ĠAccount":12848,"sun":12849,"+-+-":12850,"286":12851,"_',":12852,"Ġdiffer":12853,"ĠAT":12854,"Ġ2002":12855,"Âı\",":12856,"Selector":12857,"Ġselector":12858,"ĠUTC":12859,"ansion":12860,"Condition":12861,"BOX":12862,"Ġstand":12863,"Ġlistener":12864,"(((":12865,"ĠManager":12866,"Ġconv":12867,"'/>":12868,"Ġstage":12869,"ILLA":12870,"))[":12871,"Ġroom":12872,"mpp":12873,"ĠSC":12874,"dicts":12875,"videos":12876,"Converter":12877,"native":12878,"Circ":12879,"pdb":12880,"ggered":12881,"ĠParameter":12882,"nonzero":12883,"fV":12884,"Diff":12885,"etype":12886,"(\"\",":12887,"171578":12888,"bidden":12889,"ĠSerial":12890,"Ġdie":12891,"Ġauthenticated":12892,"Trigger":12893,"confirmed":12894,"closure":12895,"420":12896,"Ġreadable":12897,"Ġfinder":12898,"ĠHEAD":12899,"Ġconstraints":12900,"structures":12901,"popup":12902,"ĠPort":12903,"playlist":12904,"ĠGLsizei":12905,"quo":12906,"MX":12907,"profiles":12908,"Hz":12909,"Sen":12910,"Curve":12911,"malloc":12912,"Ġreload":12913,"RENT":12914,"ĠSTART":12915,"Ġinherit":12916,"Â©_":12917,"$\",":12918,"Ġ'*.":12919,"uclidean":12920,"SIE":12921,"__'":12922,"rick":12923,"iff":12924,"rink":12925,"rich":12926,"wc":12927,"nickname":12928,"story":12929,"Ġlimitation":12930,"Ġcoord":12931,"GF":12932,"Ġmm":12933,"MPolling":12934,"colon":12935,"IMED":12936,"Pbb":12937,":[":12938,"oproject":12939,"touch":12940,"GV":12941,"FUNCTION":12942,"softkey":12943,"hub":12944,"tmpl":12945,"Ġundefined":12946,"there":12947,"402":12948,"provisioning":12949,"gebra":12950,"pythia":12951,"autoescape":12952,"Ġcalculated":12953,"sci":12954,"429":12955,"ĠSPECIAL":12956,"HP":12957,"1156":12958,"Construct":12959,"vy":12960,"Ġmc":12961,"equals":12962,"Alchemy":12963,"annotations":12964,"Ġexperiment":12965,"Ġportions":12966,"deal":12967,"fork":12968,"movie":12969,"099":12970,"Ġreferenced":12971,"Ġ\"('":12972,"Ġzlib":12973,"keinforge":12974,"Ġalert":12975,"gml":12976,"Ġlive":12977,"Ġsense":12978,"Direction":12979,"_=":12980,"logfile":12981,"Ġlight":12982,"IPPROTO":12983,"Serializer":12984,"REW":12985,"ilk":12986,"Fo":12987,"Ġfollows":12988,"Ent":12989,"FilePath":12990,"507":12991,"lision":12992,"TRANS":12993,"conflict":12994,"Pass":12995,"Ġ################################################################":12996,"ĠPyQt":12997,"gray":12998,"natural":12999,"requirement":13000,"Sk":13001,"Ġalbum":13002,"TagIterator":13003,"tearDown":13004,"THAN":13005,"ĠVERSION":13006,"pygments":13007,"toc":13008,"goti":13009,"intersection":13010,";\">":13011,"Zone":13012,"lop":13013,"street":13014,"/#":13015,"Fragment":13016,"ĠNormal":13017,"741":13018,"Ġut":13019,"CJK":13020,"uer":13021,"STD":13022,"PAGE":13023,"toolbar":13024,"hites":13025,"Ġpyclass":13026,"tient":13027,"Ġ204":13028,"uma":13029,"Ġhuman":13030,"HAND":13031,"ĠTOKEN":13032,";':":13033,"Ġ10000":13034,"ClassFromXMLString":13035,"CHARACTER":13036,"LABEL":13037,"Ġstmt":13038,"ĠĠĠĠĠĠĠĠĠĠĠĠĠĠĠĠĠĠĠĠĠĠĠĠĠĠĠĠĠĠĠĠĠĠĠĊ":13039,"Si":13040,"ffd":13041,"ighbors":13042,"ĠStruct":13043,"CCCC":13044,"Ġdirective":13045,"751":13046,"Ġloads":13047,"177074":13048,"openSearch":13049,"416":13050,"('</":13051,"ĠDer":13052,"Ġcurses":13053,"yyyy":13054,"Ġunion":13055,"Ġsigma":13056,"ename":13057,"Ġpathname":13058,"llegal":13059,"']):":13060,"'-":13061,"needed":13062,"ACCESS":13063,"Ġtenant":13064,"Extra":13065,"Mouse":13066,"Minimum":13067,"ĠButton":13068,"418":13069,"selves":13070,"mirror":13071,"Ġsizeof":13072,"SGIS":13073,"Syllable":13074,"451":13075,"oprot":13076,"Ġpyglet":13077,"Ġpossibly":13078,"vn":13079,"Ġamp":13080,"Ġhalf":13081,"toggle":13082,"morphic":13083,"unused":13084,"uzz":13085,"(\",":13086,"Ġhigher":13087,"StreamReader":13088,"OGRAPH":13089,"obs":13090,"Dig":13091,"PF":13092,"427":13093,"Ġsegments":13094,"fw":13095,"ĠUnix":13096,"Ġecho":13097,"Ġcomputed":13098,"djangoproject":13099,"Google":13100,"Ġmailbox":13101,"theus":13102,"Ġtwitter":13103,"Ġcandidate":13104,"Override":13105,"081":13106,"AQ":13107,"Console":13108,"ĠKeyboardInterrupt":13109,"BI":13110,"Ġquiet":13111,"chrom":13112,"Ġactivate":13113,"MLE":13114,"atable":13115,"hitespace":13116,"434":13117,"transfer":13118,"Ġportal":13119,"ĠVM":13120,"171178":13121,"sink":13122,"bolic":13123,"388":13124,":,":13125,"ÂģÂĮ":13126,"fx":13127,"ÂģÂ¦":13128,"agg":13129,"625":13130,"kn":13131,"Ġ78":13132,"metheus":13133,"Relation":13134,"HS":13135,"Retrieve":13136,"Ġsections":13137,"Ġtheta":13138,"urlparse":13139,"),#":13140,"615":13141,"tiaLite":13142,"Ġabort":13143,"vv":13144,"imated":13145,"Patch":13146,"Ġdegree":13147,"PATTERN":13148,"Ġld":13149,"Ġdetermined":13150,"ĠExec":13151,"Ġ#@":13152,"FEED":13153,"ĠShow":13154,"Ġseems":13155,"Ġminute":13156,"Ġinterpreter":13157,"ĠOverride":13158,"791":13159,"Star":13160,"Ġmaterials":13161,"TURN":13162,"ĠArgument":13163,"ĠOrderedDict":13164,"alignments":13165,"Ġnice":13166,"aste":13167,"rier":13168,"lectron":13169,"Ġ=====":13170,"lica":13171,"umented":13172,"duplicate":13173,"ingular":13174,"AO":13175,"sistency":13176,"connector":13177,"imax":13178,"Ġ'').":13179,"Gets":13180,"Ġobtaining":13181,"MTP":13182,"ĠMAC":13183,"FIN":13184,"Ġbb":13185,"Extr":13186,"tech":13187,"$\\":13188,"Ġnonce":13189,"Âĥ\",":13190,"ĠDescription":13191,"uj":13192,"Ãķ":13193,"(',')":13194,"ĠSRID":13195,"oker":13196,"505":13197,"dark":13198,"REPL":13199,"<>":13200,"ĠTuple":13201,"leaf":13202,"ĠCer":13203,"}\",":13204,"PARAMETER":13205,"JE":13206,"sax":13207,"pyplot":13208,"[_":13209,"Execution":13210,"ACCEPT":13211,"ĠRoman":13212,"StreamWriter":13213,"fold":13214,"pring":13215,"Drop":13216,"authenticate":13217,"Assert":13218,"yellow":13219,"faction":13220,"ĠSw":13221,"fec":13222,"inary":13223,"arrays":13224,"ValidationTest":13225,"\"/":13226,"ĠSUBSTITUTE":13227,"requirements":13228,"hot":13229,"human":13230,"422":13231,"CI":13232,"Ġmanip":13233,"Ġdeepcopy":13234,"ĠMapping":13235,"scriptors":13236,"Ġblog":13237,"ISH":13238,"';":13239,"apters":13240,"ĠSQUARE":13241,"ĠattrsD":13242,"Ġboard":13243,"Push":13244,"jadz":13245,"pathname":13246,"registered":13247,"ĠCalendar":13248,"polygon":13249,"IFY":13250,"ĠCED":13251,"Ġrotation":13252,"166565":13253,"':[":13254,"ĠSU":13255,"ITLE":13256,"lade":13257,"bw":13258,"includes":13259,"ocs":13260,"493":13261,"das":13262,"Pcap":13263,"EU":13264,"ĠDISCLAIMED":13265,"viewer":13266,"yl":13267,"MainWindow":13268,"quad":13269,"667":13270,"ÂĦ_":13271,"ĠSTAT":13272,"ĠDEVICE":13273,"Ġvertical":13274,"yo":13275,"Fi":13276,"ĠCEDILLA":13277,"vcard":13278,"SIX":13279,"Ġplaylist":13280,"ĠUniversity":13281,"mf":13282,"scheduler":13283,"Ġthus":13284,"failures":13285,"Pointer":13286,"Ġcapture":13287,"ĠIncremental":13288,"ĠSm":13289,"Ġsmtp":13290,"Ġrepeated":13291,"175921":13292,"Day":13293,"bur":13294,"Ġwhom":13295,"Ġresolved":13296,"webapp":13297,"CEPTION":13298,"=\",":13299,"telemeta":13300,"Ġintended":13301,"easy":13302,"Nix":13303,"Ġranges":13304,"CCSD":13305,"eof":13306,"'#":13307,"Ġatoms":13308,"082":13309,"ĠOrder":13310,"1500":13311,"Ġtested":13312,"osition":13313,"567":13314,"Â¥Âĭ":13315,"Too":13316,"}))":13317,"populate":13318,"Ġprog":13319,"John":13320,"Ġtypecode":13321,"tmpdir":13322,"TOOL":13323,"SEQUENTIAL":13324,"Pen":13325,"ĠLook":13326,"motion":13327,"Ġserve":13328,"504":13329,"Side":13330,"rouped":13331,"459":13332,"lj":13333,"duces":13334,"Ġ'*'":13335,"533":13336,"Ġsyn":13337,"Ġspam":13338,"901":13339,"comma":13340,"Ġsizes":13341,"Ġsentence":13342,"rable":13343,"goto":13344,"Ġshutdown":13345,";/":13346,"ĠĠĠĠĠĠĠĠĠĠĠĠĠĠĠĠĠĠĠĠĠĠĠĠĠĠĠĠĠĠĠĠĠĠĠĠĊ":13347,"18000":13348,"AttributeAccessor":13349,"ITES":13350,"UNKNOWN":13351,"ham":13352,"ighted":13353,"Ġforwards":13354,"Ġbuttons":13355,"spmidi":13356,"LONG":13357,"Ġbs":13358,"ewidth":13359,"CALL":13360,"rated":13361,"Ġage":13362,"Ġpopulate":13363,"staur":13364,"cise":13365,"Ġprep":13366,"ĠSUP":13367,"music":13368,"ĠOpenGL":13369,"FITS":13370,"Ġlikely":13371,"recipe":13372,"Ġve":13373,"ĠOperation":13374,"IRED":13375,"ĠCLA":13376,"Ġ512":13377,"Ġopener":13378,"xception":13379,"ĠDistribution":13380,"fish":13381,"Ġtried":13382,"Ġbinding":13383,"Ġ\".\"":13384,"8095":13385,"Tlv":13386,"ahead":13387,"ĠSEPARATOR":13388,"DRAW":13389,"Ġ${":13390,"Notebook":13391,"Ġfixtures":13392,"acion":13393,"Ġ76":13394,"Ġbrack":13395,"tailed":13396,"Ġfk":13397,"ĠLROPoller":13398,"ILINE":13399,"facebook":13400,"pal":13401,"Subscription":13402,"Ġzoom":13403,"Utility":13404,"=\"#":13405,"distutils":13406,"Ġformfield":13407,"Surface":13408,"EA":13409,"Ġstores":13410,"Ġfraction":13411,"Ġannotation":13412,"ILL":13413,"])))":13414,"Uan":13415,"normalized":13416,"Â¸Â°":13417,"rappe":13418,"DEV":13419,"topology":13420,"2003":13421,"ities":13422,"jump":13423,"footer":13424,"parsing":13425,"Ġsit":13426,"['%":13427,"shortcuts":13428,"Std":13429,"ĠBEGIN":13430,"ĠAsyncLROPoller":13431,"Ġ98":13432,"ĠIDEOGRAPH":13433,"ĠAx":13434,"Ġcourse":13435,"Opt":13436,"kr":13437,"Ġsell":13438,"(\"#":13439,"ĠfileName":13440,"abo":13441,"World":13442,"compressed":13443,"hdr":13444,"Ġaffect":13445,"473":13446,"Ġmtime":13447,"Maximum":13448,"ely":13449,"OUTUBE":13450,"Hidden":13451,"encrypt":13452,"Ġdirectives":13453,"Ġmarkdown":13454,"Ġarc":13455,"Ġcred":13456,"Ids":13457,"Hangul":13458,"ATER":13459,"AW":13460,"Ġanalysis":13461,"\")))":13462,"NixVector":13463,"Fix":13464,"Ġfac":13465,"utex":13466,"165472":13467,"Ġscroll":13468,"Ġpull":13469,"Using":13470,"Ġconstruction":13471,"Ġnative":13472,"Ġ333":13473,"JP":13474,"173198":13475,"gzip":13476,"Factor":13477,"Resolver":13478,"Safe":13479,"itervalues":13480,"Declar":13481,"1773":13482,"Ġwifi":13483,"Ġcontrols":13484,"appings":13485,"dde":13486,"ĠRPC":13487,"trial":13488,"Ġpast":13489,"]\",":13490,"Ġcas":13491,"Ġtriple":13492,"uary":13493,"URLField":13494,"ĠHO":13495,"366":13496,"GetValue":13497,"Ã¥Âº":13498,"uel":13499,"ulates":13500,"restart":13501,"RESULT":13502,"Ġprocedure":13503,"ĠDIRECT":13504,"'(\\":13505,"ĠInte":13506,"Ġdemo":13507,"matching":13508,"tup":13509,"rfind":13510,"DeprecationWarning":13511,"Â±_":13512,"GEOM":13513,"Transfer":13514,"Origin":13515,"Archive":13516,"948":13517,"FILTER":13518,"ĉĉĉĉĉĉĉĉ":13519,"GAT":13520,"ĠConfigParser":13521,"Ġsaving":13522,"Ġguarante":13523,"SECON":13524,"[@":13525,"prefs":13526,"ĀĀĀ":13527,"stuff":13528,"\"\"\"\\":13529,"kJ":13530,"ih":13531,"Ġsay":13532,"466":13533,"tenv":13534,"WD":13535,"rices":13536,".<":13537,"Ġpat":13538,"1758":13539,"Ġcpu":13540,"building":13541,"173439":13542,"(%(":13543,"DESCRIPT":13544,"icky":13545,"Dep":13546,"ĠHALF":13547,"maker":13548,"Recur":13549,"BM":13550,"Ġbins":13551,"ĠWidget":13552,"domains":13553,"brid":13554,"502":13555,"Ġ################################################":13556,"Ġnoqa":13557,"Ġpreserve":13558,"torrent":13559,"newline":13560,"Wrap":13561,"ĠreferenceType":13562,"STEM":13563,"ĠOUTPUT":13564,"MISSION":13565,"fallback":13566,"Ġpen":13567,"Ġcallbacks":13568,"060":13569,"ogr":13570,"unless":13571,"ĠLinux":13572,"declare":13573,"406":13574,"embed":13575,"Ġband":13576,"dÃĥ":13577,"amilia":13578,"authorization":13579,"ITEM":13580,"INFRINGEMENT":13581,"EG":13582,"465":13583,"imeter":13584,"phan":13585,"Ġthink":13586,"1722":13587,"+(\"":13588,"Ġstatistics":13589,"Ġfire":13590,"arbage":13591,"Ġdetected":13592,"gw":13593,"mimetype":13594,"Scroll":13595,"frag":13596,"TV":13597,"ĠJust":13598,"oned":13599,"reserved":13600,"ĠSpecial":13601,"0123456789":13602,"Ġir":13603,"ĠDEAL":13604,"atin":13605,"draft":13606,"triple":13607,"Ġtd":13608,"Ġ\"/\"":13609,"178421":13610,"Ġmi":13611,"ĠINDIRECT":13612,"ĠPosition":13613,"tivities":13614,"ZW":13615,"Ġcurs":13616,"Rest":13617,"439":13618,"RFC":13619,"472":13620,"167284":13621,"Cd":13622,"amble":13623,"Ġvec":13624,"Ġsubnet":13625,"Hook":13626,"FM":13627,"Ġocc":13628,"Ġsubsequent":13629,"Â§\",":13630,"ez":13631,"enario":13632,"ÃĹÂ¤":13633,"ĠCONSEQUENTIAL":13634,"reated":13635,"rw":13636,"importer":13637,"Ġauthenticate":13638,"ums":13639,"ĠFR":13640,"LAR":13641,"Ġ=================":13642,"ĠUUID":13643,"ÂĢÂĻ":13644,"ĠAD":13645,"PYTHON":13646,"maybe":13647,"variance":13648,"CERT":13649,"atis":13650,"ĠNull":13651,"perform":13652,"Ġconsider":13653,"ffc":13654,"Ġsessions":13655,"Ġlhs":13656,"DESCRIPTOR":13657,"Mapper":13658,"substit":13659,"Boundary":13660,"noise":13661,"uming":13662,"ĠDefin":13663,"submission":13664,"floating":13665,"Ġrelations":13666,"577":13667,"ĠConn":13668,"Ġuploaded":13669,"573":13670,"ĠFI":13671,"VERTICAL":13672,"ster":13673,"Ġsid":13674,"lane":13675,"ĠFE":13676,"Ġ'..":13677,"Ġattached":13678,"ByteSize":13679,"ENTRY":13680,"TU":13681,"Ho":13682,"air":13683,"shard":13684,"writeFieldEnd":13685,"writeFieldBegin":13686,"Ġ86":13687,"Shift":13688,"ĠCLAIM":13689,"Consumer":13690,"illing":13691,"quotes":13692,"613":13693,"UNICODE":13694,"Associ":13695,"Ġslow":13696,"Ġprinted":13697,"430":13698,"apple":13699,"TagBuffer":13700,"cmds":13701,"lanation":13702,"Ġwebapp":13703,"masked":13704,"tifact":13705,"CSS":13706,"Ġwish":13707,"hier":13708,"bert":13709,"TW":13710,"angles":13711,"1200":13712,"ille":13713,"MessageBox":13714,"information":13715,"ĠTHAI":13716,"pip":13717,"phrase":13718,"Ġeps":13719,"Fit":13720,"Ġclassifi":13721,"Ġtodo":13722,"aaaaaaaaaaaaaaaaaaaaaaaaaaaaaaaaaaaaaaaaaaaaaaaaaaaaaaaaaaaaaaaa":13723,"ĠDEALINGS":13724,"740":13725,"closing":13726,"SlugField":13727,"Ġdoctype":13728,"capacity":13729,"IncrementalDecoder":13730,"grate":13731,"ĠComple":13732,"BG":13733,"Tx":13734,"Ġcrash":13735,"annotate":13736,"701":13737,"?>":13738,"Ġquality":13739,"RM":13740,"619":13741,"jection":13742,"Ġfaster":13743,"Given":13744,"cele":13745,"455":13746,"VED":13747,"terminal":13748,"Secret":13749,"591":13750,"ĠOp":13751,"flowError":13752,"bulk":13753,"ĠIns":13754,"Ġ','.":13755,"Ġthermo":13756,"ÂĤÂĮ":13757,"ĠCommon":13758,"approved":13759,"EmailField":13760,"177139":13761,"ĠSto":13762,"Ġchosen":13763,"Ġfromstr":13764,"grad":13765,"165567":13766,"NEL":13767,"177878":13768,"ĠWh":13769,"UnicodeCharacter":13770,"Rows":13771,"176697":13772,"Ġdatabases":13773,"ĠLOSS":13774,"Tools":13775,"GLIG":13776,"ĠMoved":13777,"283":13778,"course":13779,"Dataset":13780,"simp":13781,"617":13782,"ados":13783,";\")":13784,"BACKEND":13785,"tot":13786,"ĠNONINFRINGEMENT":13787,"arp":13788,"logged":13789,"MIME":13790,"boxes":13791,"GeomType":13792,"CHAN":13793,"SGH":13794,"conditions":13795,"ĠDeferred":13796,"165467":13797,"antum":13798,"Tip":13799,"1719":13800,"scanner":13801,"Extract":13802,"hm":13803,"Ġattachment":13804,"darwin":13805,"requencies":13806,"Ġdry":13807,"student":13808,"COMMAND":13809,"crop":13810,"TTTT":13811,"GLIGENCE":13812,"Ġtup":13813,"ĠZero":13814,"spin":13815,"production":13816,"YEAR":13817,"wp":13818,"ÃĹÂķÃĹÂ":13819,"qq":13820,"Ġrfc":13821,"Spin":13822,"179563":13823,"avigation":13824,"rontend":13825,"Delay":13826,"Ġproviding":13827,"Nom":13828,"CEED":13829,"IAN":13830,"abort":13831,"Ġomitted":13832,"CallbackImpl":13833,"Ġ'='":13834,"Req":13835,"ĠSuite":13836,"ilo":13837,"Ġ||":13838,"ĠCompute":13839,"417":13840,"ĠDictionary":13841,"Classes":13842,"Ġtransformation":13843,"('-',":13844,"Ġreads":13845,"issues":13846,"________________________________":13847,"rown":13848,"Station":13849,"ĠPut":13850,"Â¸ÂĪ":13851,"CallbackImplBase":13852,"tostring":13853,"ĠLinear":13854,"470":13855,")._":13856,"ivers":13857,"NOW":13858,"zc":13859,"Ġderiv":13860,"uzzy":13861,"Reply":13862,"ĠProxy":13863,"Ġdes":13864,"separated":13865,"ĠPygments":13866,"')).":13867,"Include":13868,"ĠTop":13869,"Lists":13870,"ARGET":13871,"libraries":13872,"otypes":13873,"cntl":13874,"configs":13875,"zÃĥ":13876,"Ġ96":13877,"EOF":13878,"far":13879,"mapped":13880,"ĉĠĠĠĠĠĠ":13881,"take":13882,"Ġwkb":13883,"expanduser":13884,"varname":13885,"ĠGeoIP":13886,"calcul":13887,"mixed":13888,"ATEG":13889,"ĠGPL":13890,"729":13891,"ĠSystemExit":13892,"Ġworkflow":13893,"lorer":13894,"ildcard":13895,"ÃĨ":13896,"ĠFail":13897,"Ġparen":13898,"relationship":13899,"REMOTE":13900,"IOError":13901,"433":13902,"sence":13903,"Ġworksheet":13904,"Supported":13905,"spacing":13906,"oreography":13907,"dhd":13908,"pep":13909,"aco":13910,"logb":13911,"ente":13912,"Ġhowever":13913,"Sheet":13914,"Ġ#\"":13915,"fA":13916,"quirement":13917,"Crypto":13918,"604":13919,"CONTEXT":13920,"andas":13921,"178160":13922,"Ġftp":13923,"UnicodeUTF":13924,"ĠOriginal":13925,"Ġclassmethod":13926,"ĠLaTeX":13927,"Ġflavor":13928,"hÃĥ":13929,"Ġ{}}}":13930,"ĠQuerySet":13931,"Ġencountered":13932,"][-":13933,"Ġtruncate":13934,"rsplit":13935,"Ġmix":13936,"starttag":13937,"Ġdefaultdict":13938,"ĠOct":13939,"given":13940,"NAMES":13941,"Ġfall":13942,"problem":13943,"BOSE":13944,"suc":13945,"parametri":13946,"isnull":13947,"OutputStream":13948,"485":13949,"Ġsites":13950,"plots":13951,"rolled":13952,"posts":13953,"LET":13954,"nw":13955,"Ġfoot":13956,"ĠSV":13957,"loadTestsFrom":13958,"MQ":13959,"705":13960,"537":13961,"rhs":13962,"Ġidle":13963,"FormSet":13964,"CCC":13965,"olated":13966,"Ġascii":13967,"Pi":13968,"handshake":13969,"hoo":13970,"TL":13971,"Ġmerged":13972,"}:":13973,"ecko":13974,"Ġmultipart":13975,"OTE":13976,"Ġdescribing":13977,"Ġbehaviour":13978,"rome":13979,"food":13980,"Ġlogical":13981,"pprint":13982,"Ġrecv":13983,"ox":13984,"dhdft":13985,"Ġmach":13986,"Ġoptionflags":13987,"know":13988,"though":13989,"another":13990,"interp":13991,"canonical":13992,"Ġdrag":13993,"TestClass":13994,"Pipeline":13995,"piece":13996,"Ġ())":13997,"ĠDown":13998,"Ġsubmission":13999,"167830":14000,"asing":14001,"aaa":14002,"Ġlaunch":14003,"stantial":14004,"mr":14005,"CreateClassFromXMLString":14006,"ĠPROFITS":14007,"Ġ['<":14008,"secondary":14009,"Light":14010,"Ġphy":14011,"waiting":14012,"178116":14013,"realpath":14014,"Finished":14015,"Widgets":14016,"implicit":14017,"unix":14018,"/\")":14019,"orders":14020,"ĠBytes":14021,"mn":14022,"Ġposix":14023,"086":14024,"igen":14025,"Ġ%}',":14026,"Json":14027,"ions":14028,"pon":14029,"ĠGtk":14030,"Ġ{}\".":14031,"767":14032,"Like":14033,"Delta":14034,"linked":14035,"Ġsitemap":14036,"bootstrap":14037,"Ġ\\'":14038,"Ġstory":14039,"oms":14040,"ĠMET":14041,"Ġcx":14042,"382":14043,"8000":14044,"ita":14045,"Focus":14046,"tilde":14047,"IncrementalEncoder":14048,"Ġfcntl":14049,"Ġsubtitle":14050,"Year":14051,"Super":14052,"080":14053,"then":14054,"527":14055,"Press":14056,"NB":14057,"mend":14058,"Ġnt":14059,"YX":14060,"Har":14061,"GEO":14062,"ĠMet":14063,"EXPAND":14064,"combine":14065,"IMP":14066,"subset":14067,"msto":14068,"Loss":14069,"755":14070,"ĠNEGLIGENCE":14071,"1818":14072,"166763":14073,"AZ":14074,"ubi":14075,"isect":14076,"mstoye":14077,"goal":14078,"blocking":14079,"Functions":14080,"ĠBecause":14081,"Â¸ÂĦ":14082,"ĠRegister":14083,"than":14084,"588":14085,"TB":14086,"MOT":14087,"Mar":14088,"avail":14089,"454":14090,"Home":14091,"Ġextracted":14092,"ĠIDs":14093,"1429":14094,"UBLIC":14095,"ALE":14096,"Now":14097,"GLE":14098,"Ġdlg":14099,"|%":14100,"Ġgoes":14101,"RU":14102,"CAP":14103,"ĠACC":14104,"Ġsynchron":14105,"ĠTWO":14106,",*":14107,"lend":14108,"kv":14109,"Head":14110,"hou":14111,"Ġpalette":14112,"urnished":14113,"Ġhorizontal":14114,"178479":14115,"ĠTHREE":14116,"11111111":14117,"BIND":14118,"ÃİÂºÃı":14119,"etrie":14120,"basestring":14121,"tead":14122,"ĠDeveloper":14123,"angular":14124,"Ġexpired":14125,"coded":14126,"ĠMenu":14127,"ledge":14128,"ĠId":14129,"Ġsubstantial":14130,"Ġsizer":14131,"ĠConstant":14132,"+)\\":14133,"setter":14134,"Europe":14135,"'^\\":14136,"parseString":14137,"166701":14138,"Ġonto":14139,"msgid":14140,"Resources":14141,"Ġ150":14142,"POSITION":14143,"ola":14144,"QtQtQtQt":14145,"Compute":14146,"staurant":14147,"Â¤Âļ":14148,"Ġsublicense":14149,"Ġregexp":14150,"1613":14151,"Ġhosts":14152,"Unique":14153,"formfield":14154,"Hi":14155,"Ġclients":14156,"redirects":14157,"ISED":14158,"722":14159,"ProtocolBuffer":14160,"492":14161,"MULTILINE":14162,"VIEW":14163,"squ":14164,"tempdir":14165,"WEEK":14166,"Mneu":14167,"Ġemp":14168,"appendChild":14169,"KG":14170,"General":14171,"ambig":14172,"heading":14173,"-(":14174,"(...)":14175,"ÂĥÂ«":14176,"Ġdefining":14177,"IOR":14178,"ĠSUCCEED":14179,"Ġrequirements":14180,"529":14181,"Ġtc":14182,"inet":14183,"Gtk":14184,"OFFSET":14185,"Ġreproduce":14186,"flex":14187,"Ġkwds":14188,"Ġelt":14189,"524":14190,"*'":14191,"707":14192,"tte":14193,"503":14194,"Support":14195,"Ġroles":14196,"ĠMultiple":14197,"respond":14198,"SIGNAL":14199,"Ġrgb":14200,"gons":14201,"('[":14202,"Linear":14203,"shp":14204,"1604":14205,"eth":14206,"organisation":14207,"Switch":14208,"latitude":14209,"PROJECT":14210,"('>":14211,"ulong":14212,"mov":14213,"zn":14214,"Â·\",":14215,"San":14216,"asset":14217,"rout":14218,"discard":14219,"caling":14220,"cam":14221,"ĠSetup":14222,"rottle":14223,"ByteTagList":14224,"alu":14225,"177875":14226,"Ġwhatever":14227,"intr":14228,"ĠĠĠĠĠĠĠĠĠĠĠĠĠĠĠĠĠĠĠĠĠĠĠĠĠĠĠĠĠĠĠĠĠĠĠĠĠĊ":14229,"qp":14230,"RD":14231,"ĠUnit":14232,"Division":14233,"ĠSpatiaLite":14234,"drive":14235,"ghi":14236,"(\"[":14237,"ots":14238,"ĠSignal":14239,"Ġinstring":14240,"fieldname":14241,"408":14242,"equ":14243,"FTP":14244,"Break":14245,"sps":14246,"Ġpredicate":14247,"shop":14248,"accessor":14249,"Ġfriend":14250,"ĠGecko":14251,"Ġxmlrpc":14252,"Ã¡Âº":14253,"Producer":14254,"Termin":14255,"Ġdeclared":14256,"1712":14257,"amf":14258,"vim":14259,"arlogb":14260,"BAR":14261,"ĠBlob":14262,"ĠCopy":14263,"?\",":14264,"fontSize":14265,"medium":14266,"Month":14267,"kwarg":14268,"Ġctype":14269,"generated":14270,"ĠLookup":14271,"camera":14272,"ĠBUS":14273,"dtemp":14274,"ĠUSER":14275,"reversed":14276,"AUTHORITY":14277,"tifier":14278,"Neg":14279,"possible":14280,"Fault":14281,"Ġcd":14282,"8613":14283,"fox":14284,"#@":14285,"atives":14286,"ĠGu":14287,"VARI":14288,"669":14289,"Ġlegend":14290,"1488":14291,"516":14292,"Ġdegrees":14293,"each":14294,"ĠExtendedContext":14295,"thost":14296,"Download":14297,"ĠDistance":14298,"IH":14299,"RUP":14300,"ctxt":14301,"ĠTool":14302,"Ġvariant":14303,"GLX":14304,"789":14305,"elocity":14306,"TemplateSyntaxError":14307,"Ġtarinfo":14308,"Ġmechanism":14309,"vb":14310,"ĠChecks":14311,"rat":14312,"wrong":14313,"aqz":14314,"Ġnc":14315,"NaN":14316,"Ġ}}</":14317,"Ġbus":14318,"Ġ%}{{":14319,"1101":14320,"Bus":14321,"ĠMerge":14322,"communicate":14323,"=\"%(":14324,"Ġssh":14325,"dog":14326,"Expi":14327,"ĠTra":14328,"970":14329,"los":14330,"Receive":14331,"rics":14332,"Ġ110":14333,"****************************************************************":14334,"Emp":14335,"esting":14336,"assigned":14337,"Oct":14338,"'``":14339,"Images":14340,"grammar":14341,"snap":14342,"ĠJob":14343,"Low":14344,"gdk":14345,"utcnow":14346,"rawdata":14347,")%":14348,"Ġ01":14349,"tbl":14350,"tional":14351,"Ġinternally":14352,"sequences":14353,"Ġbyref":14354,"620":14355,"CodeField":14356,"fel":14357,"aetools":14358,"EventImpl":14359,"tier":14360,"Ġpytz":14361,"Ġmutable":14362,".':{'":14363,"ĠESCAPE":14364,"jun":14365,"relations":14366,"ttypes":14367,"rounds":14368,"Special":14369,"CLOSE":14370,"Ġfront":14371,"TraceSourceAccessor":14372,"vite":14373,"Locator":14374,"Mat":14375,"SMTP":14376,"FK":14377,"dispatcher":14378,"UTC":14379,"henning":14380,"itect":14381,"Ġloops":14382,"Bi":14383,"Ġdup":14384,"()`":14385,"cmpv":14386,"MATCH":14387,"Ġalle":14388,"zK":14389,"Score":14390,"sqlalchemy":14391,"Ġce":14392,"parametrize":14393,"Ġdicts":14394,"790":14395,"ered":14396,"eu":14397,"Ġpromote":14398,"setLevel":14399,"ÂģÂ¨":14400,"sca":14401,"Ġcauses":14402,"VICES":14403,"Ġrospy":14404,"Ġreview":14405,"imap":14406,"MENU":14407,"629":14408,"987":14409,"imat":14410,"subs":14411,"4326":14412,"176933":14413,"Ġnewlines":14414,">:":14415,"cia":14416,"699":14417,"Ġconsistent":14418,"=(\"":14419,"Ġremainder":14420,")\"),":14421,"BLANK":14422,"rength":14423,"Ġways":14424,"Ġconfir":14425,"ONIX":14426,"MIMP":14427,"('\"":14428,"ĠLet":14429,"SCSMIMP":14430,"Ġscene":14431,"evaluate":14432,"Ġorgan":14433,"Ġ#'":14434,"Ġoften":14435,"564":14436,"vg":14437,"Ġinfile":14438,"letters":14439,"''.":14440,"534":14441,"translations":14442,"tun":14443,"vault":14444,"Pair":14445,"614":14446,"optionflags":14447,"jet":14448,"EXTENSION":14449,"LOGIN":14450,"IDs":14451,"Ġprojection":14452,"Ste":14453,"GTT":14454,"().__":14455,"[^\\":14456,"ril":14457,"Ġtreated":14458,"ior":14459,"Reverse":14460,"gain":14461,"RequestError":14462,"ĠSQLAlchemy":14463,"Shared":14464,"geometries":14465,"ÂķÂ°":14466,"ĠCharField":14467,"OH":14468,"Ti":14469,"ĠGlobal":14470,"Ġalternative":14471,"expiration":14472,"ĠFace":14473,"Ġimporter":14474,">\"\"\")":14475,"ĠĠĠĠĠĠĠĠĠĠĠĠĠĠĠĠĠĠĠĠĠĠĠĠĠĠĠĠĠĠĠĠĠĠĠĠĠĠĊ":14476,"Ġdeclaration":14477,"Ġtranslated":14478,"Ġsaf":14479,"TRAN":14480,"getVarInt":14481,"Ġopcode":14482,"ĠDOM":14483,"Ġhyper":14484,"Forward":14485,"monic":14486,"inherit":14487,"ĠSum":14488,"ĠACCENT":14489,"pieces":14490,"exchange":14491,"Ġreleased":14492,"Ġlarger":14493,"Platform":14494,"ĠDELETE":14495,"ĠPopen":14496,"notebook":14497,"AGT":14498,"Â¸Â«":14499,"adr":14500,"DECIMAL":14501,"dee":14502,"491":14503,"ĠINT":14504,"IGNORECASE":14505,"?':":14506,"wal":14507,"sat":14508,"Initialized":14509,"953":14510,"Ui":14511,"gpu":14512,"xl":14513,"ĠAuthentication":14514,"LOC":14515,"Alpha":14516,"]\")":14517,"Uniform":14518,"Ġepoch":14519,"ANCEL":14520,"Clause":14521,"471":14522,"ĠUnknown":14523,"DebugFormat":14524,"imation":14525,"structured":14526,"water":14527,"four":14528,"ĠHttpRequest":14529,"DY":14530,"Ġsingular":14531,"WEB":14532,"SSIB":14533,"$$":14534,"Ġdeployment":14535,"Ġimporting":14536,"Validate":14537,"Ġhandshake":14538,"smtp":14539,"ĠSingle":14540,"Ġfocus":14541,"HangulSyllable":14542,"Ġ\"\"\",":14543,"Ġ/=":14544,"PN":14545,"Â¸ÂĹ":14546,"paramtype":14547,"migrations":14548,"Timestamp":14549,"ĠWill":14550,"VK":14551,"tre":14552,"Energy":14553,"Ġspawn":14554,"587":14555,"mass":14556,"formatted":14557,"Ġintersection":14558,"makeOne":14559,"Ġdescr":14560,"171050":14561,"ĠREQU":14562,"bracket":14563,"Ġplaced":14564,"timeline":14565,"Ġpotential":14566,"Ġtwice":14567,"staticfiles":14568,"nother":14569,"ieve":14570,"171876":14571,"ÃĪ":14572,"520":14573,"ĠVALUES":14574,"Â¸Â¸":14575,"INESS":14576,"535":14577,"Ġnom":14578,"edam":14579,"973":14580,"628":14581,"completed":14582,"voices":14583,"vbox":14584,"Ġreached":14585,"ĠMarkup":14586,"Holder":14587,"ALPHA":14588,"Ġgcode":14589,"mozilla":14590,"172163":14591,"bidi":14592,"nodeName":14593,"FACE":14594,"cdf":14595,"strand":14596,"ĉĠĠĠĠĠĠĠ":14597,"EXCEPTION":14598,"predicate":14599,"udy":14600,"Ġsts":14601,"directive":14602,"EO":14603,"ANGO":14604,"SOL":14605,"tificates":14606,"Ġdeletion":14607,"DOMAIN":14608,"Ġolder":14609,"510":14610,"Env":14611,"sphere":14612,"ĠDisplay":14613,"__\",":14614,"BUILD":14615,"ĠLab":14616,"returncode":14617,"ĠGLfloat":14618,"801":14619,"ĠPop":14620,">{{":14621,"BRE":14622,"_(\"":14623,"tal":14624,"532":14625,"ĠÃ£":14626,"gal":14627,"2727":14628,"FONT":14629,"nums":14630,"ALLOW":14631,"ĠUS":14632,"Ġwants":14633,"unte":14634,"Management":14635,"Spatial":14636,"GU":14637,"atest":14638,"Ġ104":14639,"fault":14640,"943":14641,"Ġ------------------------------------------------":14642,"LAST":14643,"SCO":14644,"ĠOGRGeomType":14645,"_\\":14646,"590":14647,"ĠZope":14648,"BBI":14649,"separate":14650,"iq":14651,"pull":14652,"ZA":14653,"Ġcircle":14654,"flip":14655,"shadow":14656,"ĠEQUAL":14657,"ualen":14658,"Buf":14659,"Ġrad":14660,"Ġdesign":14661,"}]":14662,"NON":14663,"])]":14664,"1439":14665,"ĀĀĀĀĀĀĀĀĀĀĀĀĀĀĀĀĀĀĀĀĀĀĀĀĀĀĀĀĀĀĀĀĀĀĀĀĀĀĀĀĀĀĀĀĀĀĀĀĀĀĀĀĀĀĀĀĀĀĀĀĀĀĀĀĀĀĀĀĀĀĀĀĀĀĀĀĀĀĀĀĀĀĀĀĀĀĀĀĀĀĀĀĀĀĀĀĀĀĀĀĀĀĀĀĀĀĀĀĀĀĀĀĀĀĀĀĀĀĀĀĀĀĀĀĀĀĀĀĀĀĀĀĀĀĀĀĀĀĀĀĀĀĀĀĀĀĀĀĀĀĀĀĀĀĀĀĀĀĀĀĀĀĀĀĀĀĀĀĀĀĀĀĀĀĀĀĀĀĀĀĀĀĀĀĀĀĀĀĀĀĀĀĀĀĀĀĀĀĀĀĀĀĀĀĀĀĀĀĀĀĀĀĀĀĀĀĀĀĀĀĀĀĀĀĀĀĀĀĀĀĀĀĀĀĀĀĀĀĀĀĀĀĀĀĀĀĀĀĀĀĀĀĀĀĀĀ":14666,"kon":14667,"Ġ(<":14668,"Ġcriteria":14669,"Ġcredential":14670,"Paragraph":14671,"cg":14672,"cairo":14673,"ĠExt":14674,"Ġ[['":14675,"Ġcircular":14676,"530":14677,"ĉĉĉĉĊ":14678,"Ġcombine":14679,"CURRENT":14680,"jax":14681,"operators":14682,"ĠSplit":14683,"Sig":14684,"Ġ655":14685,"Union":14686,"els":14687,"oh":14688,"mos":14689,"Ġxb":14690,"467":14691,"Put":14692,"ĠAssume":14693,"3636":14694,"Ġcid":14695,"itize":14696,"ĠStreet":14697,"539":14698,"804":14699,"mann":14700,"asn":14701,"fillColor":14702,"votes":14703,"ĠMethods":14704,"768":14705,"GLint":14706,"ÂģÂķ":14707,"curdir":14708,"Ġcorner":14709,"165514":14710,"DROP":14711,")})":14712,"handled":14713,"fieldsets":14714,"ENABLE":14715,"ACTIVE":14716,"704":14717,"Ġhint":14718,"Ġparticle":14719,"514":14720,"blit":14721,"Ġturtle":14722,"ĠMMP":14723,"ĠAfter":14724,"rpm":14725,"HEIGHT":14726,"ĠCARON":14727,"Ġdeci":14728,"',))":14729,"matplotlib":14730,"Ġmul":14731,"LEASE":14732,"754":14733,"VC":14734,"bridge":14735,"ĠAccept":14736,"475":14737,"5000":14738,"Bits":14739,"lings":14740,"tribution":14741,"942":14742,"Ġcompletion":14743,"Rx":14744,"aive":14745,"178110":14746,"Ġprot":14747,"Messages":14748,"Ġai":14749,"ĠGUI":14750,"Ġorientation":14751,"resolver":14752,"theader":14753,"isdigit":14754,"ĠInstead":14755,"ĠAllen":14756,"Ġ(`":14757,"ÂĤÂ¤":14758,"Ġmolecule":14759,"DIST":14760,"\"]],":14761,"OPER":14762,"behavior":14763,"RANGE":14764,"built":14765,"psycopg":14766,"Ġinverse":14767,"Ġdic":14768,"Ġintegration":14769,"\"]))":14770,"171156":14771,"POP":14772,",],[":14773,"presentation":14774,"Padding":14775,"Ġindexed":14776,"Ġfabmetheus":14777,"ulus":14778,"ICON":14779,"Watch":14780,"ttl":14781,"ĠVis":14782,"Ġfeat":14783,"FER":14784,"JS":14785,"Ġ-------------------------------------------------------------------------":14786,"Ġlisting":14787,"Ġna":14788,"Ġ125":14789,"ĠTrack":14790,"Gra":14791,"ducing":14792,"172389":14793,"Ġfastbinary":14794,"Ġcsrf":14795,"464":14796,"1997":14797,"CallbackBase":14798,"rights":14799,"exportLiteral":14800,"$'),":14801,"Ġunichr":14802,"ĠLOW":14803,"Activ":14804,"RuntimeError":14805,"Got":14806,"ĠChe":14807,"town":14808,"ĠRetrieve":14809,"sco":14810,"repos":14811,"Restriction":14812,"Â¸Âķ":14813,"recognized":14814,"ĠAdds":14815,"866":14816,"utation":14817,"dos":14818,"ĠMove":14819,"ĠSIG":14820,"ĠInvenio":14821,"chase":14822,"segments":14823,"INK":14824,"tas":14825,"ElemNumber":14826,"indexed":14827,"ĠJinja":14828,"Ġprime":14829,"175975":14830,"pem":14831,"ĠĠĠĠĠĠĠĠĠĠĠĠĠĠĠĠĠĠĠĠĠĠĠĠĠĠĠĠĠĠĠĠĠĠĠĠĠĠĠĊ":14832,"LN":14833,"Ġhooks":14834,"Ġpaste":14835,"Ġnotebook":14836,"optimize":14837,"ÂĢÂĭ":14838,"571":14839,"diter":14840,"aws":14841,"1713":14842,"477":14843,"Ġjump":14844,"envelope":14845,"izable":14846,"fron":14847,"Ġpane":14848,"Ġrestricted":14849,"IPAddress":14850,"Ġfurnished":14851,"virtualen":14852,"Ġinstantiate":14853,"Ġobjs":14854,"Graphics":14855,"Mi":14856,"ÃĹÂ¦":14857,"Josh":14858,"third":14859,"515":14860,"OutputStreamWrapper":14861,"capital":14862,"processes":14863,"Period":14864,"provided":14865,"assignment":14866,"={}):":14867,"aven":14868,"datas":14869,"544":14870,"ench":14871,"OOOO":14872,"ablish":14873,
[...]
